<unk>	0
<s>	0
</s>	0
/	-1.3885
▁a	-3.02567
▁i	-3.92356
▁̃	-4.00065
▁	-4.12118
▁?	-4.63948
¿	-4.64803
▁́	-4.76672
▁u	-4.77096
▁an	-4.80673
▁mana	-4.86467
q	-4.86908
m	-4.91317
▁hinaspa	-5.17539
▁s	-5.17945
▁wan	-5.23886
▁jehova	-5.30743
▁diospa	-5.37082
▁manta	-5.38209
▁n	-5.39184
▁in	-5.39654
▁kuna	-5.40313
▁man	-5.48263
▁y	-5.50332
▁allin	-5.52382
▁pas	-5.55813
▁nchik	-5.59696
▁chu	-5.61508
▁nispa	-5.62598
▁chay	-5.63296
▁kay	-5.76225
▁manam	-5.78433
▁paq	-5.80271
a	-5.81444
▁ima	-5.82989
▁hina	-5.9463
▁taq	-5.96252
▁karqa	-5.9739
▁nin	-6.0416
▁ichaqa	-6.06883
p	-6.12488
▁chik	-6.14134
▁dios	-6.14285
▁nku	-6.15122
▁cha	-6.15918
▁tukuy	-6.19828
n	-6.20686
▁diosta	-6.22118
▁huk	-6.22193
▁kunata	-6.2368
▁imayna	-6.24369
▁rqa	-6.27797
▁tam	-6.27972
t	-6.29128
▁chaymi	-6.30906
▁nirqa	-6.3271
▁chayna	-6.34855
▁diosqa	-6.39578
▁kaq	-6.46341
▁imaynata	-6.4777
▁kasqanta	-6.53195
▁aj	-6.60095
▁kallpan	-6.61979
▁achka	-6.64395
▁allinta	-6.69032
▁otaq	-6.69605
▁pipas	-6.70145
▁biblia	-6.73081
▁imatam	-6.73376
▁wakin	-6.74609
▁yacha	-6.74983
▁sasa	-6.75325
▁runakuna	-6.77627
taqm	-6.78878
▁astawan	-6.80637
▁diosmanta	-6.81078
y	-6.81843
▁pim	-6.83413
▁kunaq	-6.83665
▁kta	-6.84347
▁pun	-6.84448
▁jesuspa	-6.85332
▁sqa	-6.85492
qa	-6.85658
▁yana	-6.86111
pa	-6.86856
▁pachapi	-6.87201
▁payqa	-6.90784
▁ancha	-6.90846
▁chaynataq	-6.9164
▁sapa	-6.92315
▁tayta	-6.93536
▁iman	-6.93674
▁paginap	-6.94528
aq	-6.95191
▁kun	-6.95939
▁aswan	-6.97096
▁leey	-6.97327
▁chi	-6.97379
pas	-6.99138
▁iskay	-6.99592
▁win	-7.00189
▁e	-7.01158
▁hinam	-7.01248
▁kuta	-7.02822
s	-7.03081
▁kunam	-7.03361
▁tiempo	-7.06775
▁chaw	-7.07191
▁hun	-7.08018
▁servi	-7.10815
▁jesusqa	-7.12519
▁asqa	-7.12529
ch	-7.13607
▁kunan	-7.13917
▁pan	-7.14714
▁piens	-7.17495
▁sumaq	-7.18462
▁imata	-7.19768
ta	-7.20222
▁chaku	-7.20728
am	-7.2427
▁kasqan	-7.24556
▁watapi	-7.27331
▁lla	-7.27959
▁apaq	-7.28064
taq	-7.29506
▁api	-7.30505
▁hanaq	-7.30744
▁punta	-7.31599
▁on	-7.32531
▁yaqa	-7.32644
▁usqan	-7.32732
▁imapas	-7.33049
▁hatun	-7.33359
▁chuy	-7.33757
▁am	-7.33791
▁kurqa	-7.33802
▁llan	-7.34357
▁bibliap	-7.34811
▁tiempopi	-7.34834
tam	-7.35221
▁ankupaq	-7.36569
▁chayta	-7.37307
▁ninku	-7.3733
▁diosman	-7.37437
▁chan	-7.37621
▁pablo	-7.3778
▁runakunata	-7.41056
▁kasqanmanta	-7.42003
▁yqa	-7.42386
▁lliw	-7.43323
▁pis	-7.4347
▁qataq	-7.44086
▁qatiqnin	-7.44901
▁imanas	-7.45506
▁hinalla	-7.45524
▁manan	-7.45806
▁llamk	-7.46085
▁sen	-7.4831
▁imatapas	-7.48614
▁yupay	-7.49379
chikuy	-7.49581
▁kaynata	-7.50096
k	-7.50128
▁jesu	-7.50195
▁b	-7.5069
mant	-7.52016
▁kachkan	-7.52217
▁israel	-7.52259
▁payta	-7.52957
▁raq	-7.5426
w	-7.54411
▁paymi	-7.55641
▁salmo	-7.56663
▁jesus	-7.56668
▁kuti	-7.57782
▁kusisqa	-7.5803
▁kawsa	-7.59072
▁runakunapa	-7.59083
▁kanku	-7.59371
chakuy	-7.59886
▁paykunaqa	-7.60219
▁kanan	-7.60281
▁nisqanman	-7.60355
▁nata	-7.60829
▁pay	-7.60922
▁chaymanta	-7.61039
▁runakunaqa	-7.61041
mi	-7.61613
▁llumpa	-7.61677
▁de	-7.61706
▁anpaq	-7.6303
▁kupaq	-7.63066
▁munan	-7.6373
▁asqam	-7.63743
▁yuyay	-7.63943
▁sun	-7.63982
▁qam	-7.64061
▁ari	-7.64783
▁kanqa	-7.64933
▁aqmi	-7.65235
▁kanman	-7.66352
▁kuqa	-7.66692
▁serviq	-7.66766
▁diosmi	-7.6684
▁chaynata	-7.66979
▁kayta	-7.67226
▁nisqan	-7.68016
▁runa	-7.68335
▁pin	-7.68887
▁chaylla	-7.70704
▁aswanqa	-7.70936
▁chayqa	-7.71196
▁awpaq	-7.71293
▁runakunam	-7.71363
▁rayku	-7.71585
▁kuchu	-7.7169
▁tari	-7.73395
▁spa	-7.73439
▁wata	-7.73465
▁qawa	-7.73691
▁hayka	-7.75483
▁nisqanta	-7.75585
▁rikch	-7.75846
▁munay	-7.76216
▁raykum	-7.76242
▁dibujo	-7.76458
▁kaptinpas	-7.76693
▁inqa	-7.76942
▁satanas	-7.77182
▁anciano	-7.77464
▁cheqap	-7.77951
▁llapallan	-7.78054
▁ypi	-7.78135
▁nacionp	-7.7909
▁manaraq	-7.79152
i	-7.79307
▁sunqu	-7.8039
▁kananpaq	-7.80697
▁awiri	-7.80762
▁llaki	-7.81737
▁akari	-7.81833
▁sutiyoq	-7.82721
▁warmi	-7.83186
▁kichik	-7.83268
▁tiyan	-7.83969
▁nisqa	-7.84327
▁yanapan	-7.84581
▁sal	-7.84616
▁chaynaqa	-7.86147
▁bibliaqa	-7.86684
▁panmi	-7.87927
▁karqaku	-7.88206
▁huch	-7.88268
▁imataq	-7.88398
▁kama	-7.88722
▁ol	-7.88798
▁churin	-7.89464
▁hinaqa	-7.89504
kunap	-7.89935
▁kupi	-7.90019
▁cristianokuna	-7.90059
▁chkan	-7.90438
▁mozo	-7.90681
▁uyta	-7.90724
▁llaqtapi	-7.91231
▁kuspa	-7.91818
▁foto	-7.91973
▁chaynap	-7.91998
▁willa	-7.92117
▁apost	-7.92637
▁nitaq	-7.92999
▁chas	-7.93005
▁kaqkunata	-7.93773
▁bibliam	-7.93919
▁qati	-7.94117
▁ninchik	-7.94207
▁chaypi	-7.9478
▁chaywan	-7.95177
▁utaq	-7.95414
▁bibliata	-7.95436
▁warma	-7.95712
▁kunku	-7.96042
▁chak	-7.96461
wanm	-7.9716
▁rey	-7.97459
▁yanqa	-7.9756
▁kanankupaq	-7.97666
▁sutin	-7.97817
▁aypaq	-7.98114
▁anchata	-7.98115
▁ymi	-7.98128
▁kaspa	-7.98286
▁imakuna	-7.99613
▁llam	-8.00162
▁kayna	-8.0029
▁kipaq	-8.00465
▁willakun	-8.00717
▁kamachiq	-8.00977
▁panku	-8.01205
▁ichapas	-8.01904
▁ama	-8.02117
▁pacha	-8.03253
▁entiende	-8.0384
▁willakuy	-8.04107
▁una	-8.04901
▁mantapas	-8.05192
▁achu	-8.05669
▁nan	-8.05855
▁tarikun	-8.0596
▁hucha	-8.06787
▁yanapawanchik	-8.06855
▁nchi	-8.07234
▁ninta	-8.08109
▁om	-8.08196
▁sonqo	-8.08348
▁qawach	-8.08778
rqak	-8.08832
▁ay	-8.08953
▁cristo	-8.09331
▁kumanta	-8.09437
▁ataq	-8.10041
▁llata	-8.10529
▁may	-8.10701
▁kimsa	-8.10786
▁suti	-8.10855
▁ruray	-8.1142
▁runaqa	-8.11485
▁tapu	-8.11503
▁asqan	-8.12288
▁kasqa	-8.12299
▁kaptinqa	-8.12451
▁chiku	-8.12818
▁hinapt	-8.13047
▁yanapawasun	-8.13463
▁kaspan	-8.13804
▁bibliapi	-8.13826
▁kasqanku	-8.14146
▁chanta	-8.14232
▁qawachirq	-8.14533
▁yachachisqan	-8.14578
▁chaq	-8.14616
▁chayrayku	-8.1503
mantapas	-8.15077
▁as	-8.15255
▁kasqankuta	-8.15437
▁uy	-8.15454
▁yanaparqa	-8.15522
▁akusqan	-8.1556
▁llum	-8.15883
▁yuyari	-8.16162
▁allinmi	-8.16231
▁tan	-8.16681
▁david	-8.16757
▁munasqan	-8.16858
▁paypa	-8.16992
▁juan	-8.17156
▁imam	-8.1735
▁tuku	-8.17457
▁kanapaq	-8.17459
▁hamuq	-8.1752
▁kayqa	-8.1794
▁pampa	-8.17956
▁piensa	-8.18559
▁kuska	-8.18798
paq	-8.18841
▁yachach	-8.19942
▁rurasqan	-8.19954
▁kani	-8.19966
▁diospi	-8.20055
▁pisi	-8.21014
▁willakuq	-8.2103
▁mateo	-8.21103
▁kaptin	-8.21368
▁pachaman	-8.21414
▁yku	-8.21422
▁contranpi	-8.21526
▁proverbios	-8.21557
▁willak	-8.21874
▁kamach	-8.21999
▁munarqa	-8.22794
▁kikin	-8.23169
▁amaya	-8.2327
▁chaypim	-8.23318
▁iynin	-8.23504
▁anchatam	-8.23985
▁dioswan	-8.24246
ataqm	-8.24414
▁jesusta	-8.24586
▁imaynam	-8.24654
manta	-8.24745
▁churi	-8.24878
▁muna	-8.24884
▁kuman	-8.25736
▁ayta	-8.25772
▁pedro	-8.26082
an	-8.26744
▁or	-8.26909
▁pitaq	-8.28123
apa	-8.2832
▁sipas	-8.28333
▁anmanta	-8.28386
▁juk	-8.28734
▁congregacionp	-8.29308
▁ruran	-8.29741
▁testigo	-8.29768
▁iqmasinchikkuna	-8.30156
▁anta	-8.30316
▁antam	-8.30597
▁jesusmi	-8.30652
▁tapukuy	-8.31138
ptinmi	-8.31144
▁alli	-8.31363
▁anku	-8.31739
▁kaqkuna	-8.32473
▁antaq	-8.32538
▁hukmany	-8.33007
▁unay	-8.33056
▁yki	-8.33183
▁ejemplo	-8.33295
▁anpi	-8.3339
▁chunka	-8.33428
▁yachachi	-8.33432
▁jina	-8.33584
▁mayna	-8.33637
▁hawka	-8.33643
▁aku	-8.33657
▁llaqtan	-8.33735
▁akuy	-8.33882
▁niq	-8.34203
▁cristop	-8.34466
▁kan	-8.34955
▁tawan	-8.35527
▁llapa	-8.35659
▁llaqtanpi	-8.36214
▁lawp	-8.36843
▁unan	-8.36991
▁risqan	-8.37016
▁llap	-8.37362
▁libro	-8.37365
▁akuq	-8.37758
▁sutiyuq	-8.3795
▁kasukun	-8.37961
▁el	-8.38363
▁nanku	-8.38773
▁yachayta	-8.39147
▁runakunaman	-8.39292
ach	-8.3941
▁chayraykum	-8.39411
▁paykunata	-8.39479
▁yuya	-8.40127
▁ruwa	-8.40364
▁anqa	-8.40777
▁kamachikuy	-8.4117
▁yaqapas	-8.41214
o	-8.41373
▁qillqa	-8.41463
▁hayk	-8.41539
▁familia	-8.41655
ay	-8.41709
▁yachanchik	-8.42223
u	-8.42296
▁en	-8.42514
▁qalla	-8.42642
▁paqpa	-8.43197
▁chka	-8.435
▁rur	-8.43961
▁wak	-8.44033
▁kichu	-8.44257
▁niwanchik	-8.45088
▁paykuna	-8.4509
▁kunanqa	-8.45179
▁ninmi	-8.4545
▁qawasun	-8.46584
▁casado	-8.4667
▁chaynapim	-8.47253
▁rurana	-8.47567
▁qallay	-8.47755
▁wakinpi	-8.47913
▁pantaq	-8.48732
▁pam	-8.48774
▁palabran	-8.48999
▁nam	-8.49141
▁rim	-8.49247
▁yachachiwanchik	-8.4928
▁runapa	-8.49361
▁kasukuq	-8.50544
▁uyari	-8.51117
piq	-8.51491
▁ruwarq	-8.51655
▁kup	-8.5167
▁sichu	-8.52064
▁enter	-8.52504
▁job	-8.52958
▁kusi	-8.54411
▁waranqa	-8.55387
▁kusikuy	-8.55525
▁llat	-8.55533
▁munaq	-8.55732
▁isqan	-8.5599
▁vida	-8.5601
▁kupas	-8.56126
▁la	-8.56554
▁akurqa	-8.56685
▁mosoq	-8.56913
▁rimaypi	-8.57102
▁manku	-8.57927
▁runas	-8.58452
▁rich	-8.58573
▁cristiano	-8.58682
▁llaqta	-8.59308
▁hapi	-8.59355
▁kaqta	-8.59453
▁hinachu	-8.59651
▁aya	-8.59739
▁kawsakuy	-8.60176
▁imamantapas	-8.60705
▁anmi	-8.61022
wanq	-8.61083
▁watapim	-8.61265
▁iqmasinchik	-8.61544
chus	-8.61767
▁ruraq	-8.62161
chu	-8.62684
▁te	-8.62745
▁kawsak	-8.6279
▁watakuna	-8.62879
tapa	-8.62993
▁rima	-8.63412
▁necesita	-8.63609
▁hinallam	-8.63661
▁kanchik	-8.63693
aw	-8.6379
▁kasqanchikta	-8.64071
▁taytan	-8.64797
im	-8.65042
▁kamachi	-8.65272
▁mamakuna	-8.65442
▁gen	-8.65567
▁tiempon	-8.65721
▁suya	-8.66173
▁isaia	-8.66247
▁imarayku	-8.66269
▁ayllu	-8.66756
▁pablom	-8.66768
▁puni	-8.67035
▁ad	-8.67323
▁chaynam	-8.67542
r	-8.67686
▁nirqam	-8.68212
▁iqmasinchikkun	-8.68858
▁rurarqa	-8.68859
▁pakuna	-8.68988
▁kananku	-8.6921
▁yuyaq	-8.69303
▁akllasqa	-8.69381
▁icha	-8.69478
▁allintam	-8.69589
▁puchu	-8.69751
▁kaypi	-8.69763
▁hawkalla	-8.7003
anm	-8.70137
▁genesi	-8.70279
▁munasqanman	-8.70309
▁ka	-8.70479
pi	-8.70569
▁rimasqan	-8.70791
▁manataqmi	-8.70797
▁nichwan	-8.71011
▁ruwayt	-8.71057
▁pablop	-8.71279
▁pachak	-8.71521
▁llamp	-8.71537
▁payman	-8.71907
▁runam	-8.71989
▁all	-8.7203
▁waqay	-8.72326
▁paywan	-8.72437
▁kaqmanta	-8.72446
▁paykunam	-8.7362
▁paykunapa	-8.73648
▁kuyakuq	-8.73696
▁unki	-8.73836
▁kuwan	-8.74144
▁maman	-8.74348
yt	-8.75262
▁watan	-8.75302
▁usqa	-8.7537
▁chaymant	-8.75465
▁hukkuna	-8.75478
▁timoteo	-8.75561
▁chaytaqa	-8.76322
▁rimayta	-8.76707
▁hukkunata	-8.76881
kum	-8.76968
▁atichwan	-8.77329
▁rina	-8.77362
▁wasin	-8.77395
▁isa	-8.77584
▁oveja	-8.7766
▁kamachirqa	-8.77903
e	-8.78133
▁watap	-8.78146
▁imaraykut	-8.78462
▁takikuna	-8.78519
▁wawa	-8.7864
▁oqanchikpa	-8.78653
▁yachayniyoq	-8.78826
▁qellqarq	-8.79124
▁pikuna	-8.79267
▁paqchu	-8.79506
▁tuta	-8.80417
▁wawqe	-8.8051
▁romanos	-8.81438
▁kananmanta	-8.81562
▁yachaq	-8.81697
▁niyuq	-8.8193
▁ita	-8.82269
▁kusisqam	-8.83137
▁allinchu	-8.83206
▁paymanta	-8.83394
▁munayninta	-8.83501
▁pi	-8.84075
▁tupa	-8.84162
▁munaynin	-8.84631
▁yachasqa	-8.84853
▁isqanta	-8.84992
kunat	-8.8511
▁allpa	-8.85275
▁arqa	-8.85766
▁chanin	-8.85971
▁imawan	-8.85985
▁allinkunata	-8.86229
▁munasqanta	-8.86376
▁miraynin	-8.86407
jin	-8.86409
▁kawsayta	-8.86543
▁rurasqa	-8.86558
▁unchu	-8.86593
▁chaytam	-8.86721
▁yuyayniyoq	-8.86996
▁diablo	-8.87074
▁corintios	-8.87088
▁kananchikpaq	-8.87175
▁apocalipsis	-8.8768
▁kawsay	-8.87984
▁allinpaq	-8.88093
▁yachachin	-8.88225
▁riman	-8.88388
▁imapi	-8.88435
▁tukuq	-8.8847
▁yachay	-8.88603
▁astawanraq	-8.88769
▁diostam	-8.88786
▁willawanchik	-8.8895
nq	-8.88986
▁tarikus	-8.89065
raqm	-8.8915
▁guerra	-8.89388
▁parla	-8.89389
▁hay	-8.89457
▁kasqanrayku	-8.89461
▁ni	-8.89552
▁yachachiq	-8.89676
▁ntin	-8.89723
▁lucas	-8.89773
▁kasukus	-8.89858
▁chaypaq	-8.89888
▁kawsakun	-8.89908
▁cuentata	-8.90088
▁uj	-8.9011
to	-8.90128
▁yachar	-8.90234
▁raya	-8.90313
▁egipto	-8.90642
▁bautiza	-8.90747
kuy	-8.90748
▁ruwananchik	-8.90756
▁karuncha	-8.90768
▁uypi	-8.91265
▁aqqa	-8.91483
▁qullqi	-8.91847
▁qawachiwanchik	-8.92039
▁animal	-8.921
▁musya	-8.92146
▁sumaqta	-8.92409
▁tawa	-8.92628
▁kasukuy	-8.92846
▁kasqay	-8.93079
▁runan	-8.93212
▁pa	-8.93439
▁kutipim	-8.93466
▁chawpi	-8.93637
▁yachas	-8.93653
▁runakunawan	-8.93782
▁atipan	-8.94085
▁tiempop	-8.9414
ptinq	-8.94579
▁yacharqa	-8.94615
iq	-8.94735
▁kanki	-8.9496
▁akun	-8.9547
▁suyakuy	-8.9552
▁yay	-8.95602
spanchikq	-8.95772
▁imakunata	-8.95882
▁llapan	-8.96021
▁yanapa	-8.96034
▁runata	-8.96204
▁pitapas	-8.96256
▁para	-8.96632
▁precurs	-8.97158
ant	-8.97413
▁mancha	-8.97427
▁llaqtanta	-8.97442
▁takiykuna	-8.97847
▁kuyakuyw	-8.98217
▁casta	-8.98248
▁piwan	-8.98251
▁hin	-8.98302
▁estado	-8.98374
▁casarasq	-8.98559
▁chawa	-8.98634
▁musuq	-8.98676
▁rirqa	-8.98737
▁llakisqa	-8.98977
▁niyta	-8.99016
▁ar	-8.99035
▁ninchi	-8.9907
▁pasasqan	-8.99151
▁jesucristo	-8.99448
▁hark	-8.99564
▁munaspaqa	-8.99569
chik	-8.99587
▁manachu	-8.99652
▁punchawm	-8.99768
▁warmay	-8.99915
▁panchik	-9.00418
ik	-9.00436
▁ninqa	-9.00514
▁rurayta	-9.0054
▁pachata	-9.00628
▁qawasunchik	-9.00902
▁tupan	-9.00932
▁chin	-9.00934
▁willaku	-9.01143
sqay	-9.01542
▁reqsisq	-9.01825
▁llaqtaman	-9.01855
▁kanqaku	-9.01965
▁yachachirqa	-9.0217
▁pawan	-9.02233
▁qar	-9.02266
▁pantay	-9.02469
▁rispa	-9.02705
▁gobierno	-9.02757
▁mayta	-9.02775
▁jose	-9.03021
▁hapip	-9.03161
▁yuq	-9.03233
▁atisqan	-9.03325
▁pachap	-9.03432
▁ankuta	-9.03592
▁wat	-9.03847
▁kikillan	-9.03979
▁pro	-9.04022
paqm	-9.04134
▁asqanta	-9.04147
▁puntata	-9.04189
▁paykunawan	-9.04419
▁daniel	-9.0462
▁risun	-9.0462
▁kupa	-9.04732
▁escuela	-9.05178
▁atiyniyoq	-9.05214
▁kunanpas	-9.05405
▁hukman	-9.05498
▁llamkay	-9.05628
▁bet	-9.05707
▁ruwaq	-9.05748
▁anman	-9.05818
▁chayman	-9.05909
▁imaman	-9.05926
▁akuna	-9.06171
▁familian	-9.06179
▁noticia	-9.06202
▁awpa	-9.0651
▁huknin	-9.06688
ku	-9.07127
▁chaykuna	-9.07275
▁chayri	-9.07346
▁ankumanta	-9.07419
kun	-9.07426
▁ukhun	-9.07616
▁akus	-9.07834
▁kiman	-9.07897
▁yachasun	-9.08152
▁law	-9.08364
▁nisqanpi	-9.08401
▁kusikun	-9.0875
wan	-9.08866
▁wasi	-9.09013
▁ninman	-9.0917
ptinchikq	-9.09591
▁unancha	-9.09631
▁killa	-9.09707
▁del	-9.09938
▁asq	-9.10042
▁prov	-9.10247
spaykiq	-9.10424
▁c	-9.10641
▁tiemponp	-9.1068
▁con	-9.10716
▁preso	-9.10786
▁sutinta	-9.108
▁samuel	-9.10977
manm	-9.11112
▁akariy	-9.11117
man	-9.11121
▁wakcha	-9.11424
▁nacionmant	-9.11515
▁espiritup	-9.11638
▁llulla	-9.11878
▁yachasqan	-9.12192
▁nisqanqa	-9.12334
▁punim	-9.12367
▁kachkaspan	-9.12423
▁killapi	-9.12616
▁kuyku	-9.13069
▁kacha	-9.13141
▁respeta	-9.13381
▁yachachiy	-9.13498
▁kaykuna	-9.13706
▁atina	-9.13732
▁librop	-9.13904
ll	-9.14059
▁chaskin	-9.14144
np	-9.14262
nm	-9.14769
as	-9.14803
▁kunanpaq	-9.14833
▁willakurqa	-9.14901
▁munasqa	-9.14922
▁sonqomant	-9.15014
iqmasinchikkunat	-9.15243
▁yachasunchik	-9.15249
▁qamqa	-9.1531
▁ch	-9.15376
▁unidos	-9.15381
sp	-9.15414
▁kawsaq	-9.15591
▁hebreos	-9.15631
▁ruras	-9.15916
▁akuyta	-9.15939
pim	-9.1601
▁urqan	-9.16074
▁tata	-9.16483
▁chana	-9.16527
▁parrafo	-9.16667
▁nirqak	-9.1674
▁kasukuna	-9.16915
▁confianza	-9.16953
▁sapallan	-9.1701
▁wawan	-9.17487
▁qaw	-9.17663
▁kanay	-9.17787
nchikm	-9.18015
▁cree	-9.18066
▁wasipi	-9.18109
▁ankup	-9.18158
▁kaymanta	-9.18243
▁mayqan	-9.18299
▁kiwan	-9.18396
▁qayllanpi	-9.184
▁chaykunata	-9.18944
▁akuynin	-9.18975
▁piensas	-9.19024
▁sonqoll	-9.19163
▁watu	-9.1939
▁maypi	-9.19606
▁irqa	-9.19751
▁llumpay	-9.19785
▁karu	-9.19785
▁willakuyta	-9.19943
▁kananta	-9.19986
▁rimarqa	-9.20182
▁churinta	-9.20238
▁kaymi	-9.20329
▁panta	-9.20382
▁masn	-9.20551
▁iqkuna	-9.20562
▁rinanku	-9.20767
▁ranti	-9.20849
▁yachana	-9.20896
▁kachkaptin	-9.20993
▁recuadro	-9.21083
▁anchi	-9.21101
▁palabranta	-9.21158
▁kasqantam	-9.21379
▁amistadn	-9.21423
▁kaqnin	-9.21612
lla	-9.21755
nk	-9.2191
▁allintapuni	-9.21978
▁niwaq	-9.22018
▁tak	-9.22153
▁k	-9.22375
▁unqa	-9.22435
▁lawm	-9.2258
▁er	-9.22618
▁rimaq	-9.22673
▁hermanos	-9.22726
▁ayllun	-9.22793
▁munanku	-9.22858
▁jatun	-9.22964
▁uptin	-9.23116
st	-9.23148
▁eng	-9.23241
▁qanchis	-9.23496
▁doctor	-9.23527
▁kawsasqa	-9.24038
▁paypi	-9.24073
at	-9.24138
▁consejo	-9.24388
▁qawarq	-9.2473
▁roma	-9.2476
▁ruwanapaq	-9.2494
▁kaqkunaqa	-9.25228
▁qallariypi	-9.25308
▁salomon	-9.25383
▁munas	-9.25446
▁hebreo	-9.25556
▁kachkanku	-9.26058
▁kutim	-9.26288
▁kanik	-9.26355
▁tiempopiqa	-9.26611
rqanik	-9.26761
▁chakuq	-9.26787
▁hap	-9.26833
paqq	-9.26925
▁jud	-9.26948
▁oqaq	-9.26987
▁rimay	-9.27051
▁sinchi	-9.27084
▁piti	-9.27281
▁taytacha	-9.27306
rq	-9.27388
▁runakunapas	-9.27613
▁kasun	-9.27632
▁payakuq	-9.27924
▁kuqku	-9.27945
▁qawasqanchikm	-9.28034
▁cristianokunam	-9.28093
▁huklla	-9.28128
nchik	-9.2814
▁karqani	-9.28317
▁quwa	-9.28345
▁uya	-9.28418
▁qhawa	-9.28497
▁griego	-9.28731
▁warman	-9.28834
▁salva	-9.28917
▁hinan	-9.28955
sqa	-9.28964
▁is	-9.29168
▁chura	-9.29396
▁riyta	-9.29749
▁watamanta	-9.29836
▁yanapaq	-9.29861
▁papas	-9.29958
▁chiqa	-9.30141
▁nispan	-9.30339
▁tukuyta	-9.30524
spankum	-9.30575
▁qutu	-9.30748
▁santiago	-9.3079
▁hechos	-9.30963
▁eclesiast	-9.30964
▁unakuym	-9.31042
▁chinkachin	-9.31236
▁munaspa	-9.31245
▁imatat	-9.31281
▁cristianos	-9.31599
▁aklla	-9.31759
▁kasqanp	-9.31835
ymantapas	-9.31877
▁pichu	-9.32255
▁kimanta	-9.32536
▁ruwasq	-9.32695
▁watakunapi	-9.32781
sqant	-9.32805
▁kaytaqa	-9.33106
▁semana	-9.33207
▁soldado	-9.33219
▁qaqa	-9.33339
▁warmin	-9.33545
▁enemigon	-9.33674
kunaq	-9.33745
▁imaynat	-9.34818
sqanmant	-9.34844
▁espirit	-9.34887
▁kuru	-9.34894
▁estudiayt	-9.34926
▁cristianokunap	-9.35019
▁qellqasq	-9.35346
▁paginasp	-9.3566
▁entiendenapaq	-9.35767
yq	-9.35843
▁qorq	-9.35934
▁tinku	-9.35952
▁kaynin	-9.35961
▁willay	-9.35971
▁yachanapaq	-9.36014
▁inpi	-9.36187
▁kachkaspa	-9.36232
▁iqmasinchikm	-9.36266
▁yanapana	-9.36423
▁pusa	-9.36557
▁lam	-9.36888
▁way	-9.37081
▁pachamanta	-9.37088
▁saya	-9.37146
▁rurach	-9.37165
▁cristi	-9.37292
▁ruraspa	-9.37296
▁niwarq	-9.37382
▁kawsaku	-9.37423
▁yachaysapa	-9.37589
▁runakunatam	-9.37689
▁wasun	-9.37715
▁yanapakuynint	-9.37887
▁maria	-9.3827
▁arqan	-9.38361
▁moisesp	-9.38367
▁kutipi	-9.38419
▁nacionkunap	-9.38568
▁amist	-9.38655
▁awpaqta	-9.38811
▁paypas	-9.39342
▁gobiernonmant	-9.39434
▁kawsan	-9.39885
▁hora	-9.39941
▁chaymantapa	-9.3996
▁watukuq	-9.39981
▁oqanchik	-9.40047
▁revista	-9.40091
▁rit	-9.40238
▁imapim	-9.40741
▁suyaq	-9.40825
▁kaqlla	-9.40912
▁unakuyp	-9.40972
▁apo	-9.4104
▁imapaq	-9.41164
▁diospaq	-9.41199
▁asamblea	-9.41236
nkum	-9.41452
▁marcos	-9.41459
▁sam	-9.41558
▁abrahan	-9.41574
▁ata	-9.41578
nt	-9.41585
▁hermano	-9.41676
▁yach	-9.41744
▁admirakuypaq	-9.41948
▁libropi	-9.41997
▁kallpanchaku	-9.42065
ptinm	-9.42065
▁piensay	-9.42351
▁willan	-9.42787
▁puntap	-9.4297
▁rimasqa	-9.43025
ynatam	-9.43039
▁kusichi	-9.43135
▁ikuyta	-9.43327
▁testigonkunap	-9.43381
▁uyarin	-9.43496
▁qollqet	-9.43504
▁pacham	-9.43512
▁suwa	-9.43563
▁davidpa	-9.43886
▁estudianapaq	-9.43989
▁abraham	-9.43995
▁yaku	-9.44064
▁sasachakuy	-9.44161
▁iyninchikp	-9.44215
▁nerq	-9.44578
▁rinan	-9.44632
▁awpaqp	-9.44636
▁eva	-9.44711
▁ariy	-9.44783
▁pele	-9.44899
▁yayku	-9.44916
▁rantinpi	-9.45035
▁contrato	-9.45161
▁control	-9.45376
▁uqanchikpa	-9.45551
▁nacionm	-9.45775
▁rimas	-9.45836
▁allinnin	-9.45859
▁ananchik	-9.4599
▁estudio	-9.461
▁espiritun	-9.46152
▁kanchu	-9.46154
los	-9.46247
j	-9.46671
▁cristianokunat	-9.46849
sqankut	-9.46968
▁nacionniyoq	-9.47077
▁sasachakuykuna	-9.47123
▁tukun	-9.47159
▁iglesia	-9.4717
▁pasun	-9.47532
▁yachaku	-9.47591
▁rimach	-9.4764
▁chayllam	-9.4781
▁kutaq	-9.47961
▁churan	-9.4806
▁rimaspan	-9.48471
▁respetan	-9.48516
▁al	-9.48528
▁oqam	-9.48629
▁milagro	-9.48652
▁amistadninchik	-9.48762
▁michiq	-9.48765
chusm	-9.48888
cha	-9.48989
▁mamay	-9.49104
▁wach	-9.49132
▁sirvient	-9.49184
▁qankuna	-9.49274
▁kasunchik	-9.49315
wanmi	-9.49651
▁mant	-9.49665
▁ananpaq	-9.49763
▁anapaq	-9.49791
▁imaraykuchus	-9.49807
▁yanapayta	-9.49887
▁apiqa	-9.4993
▁willakuykuna	-9.49972
▁junta	-9.50045
▁runakunamanta	-9.50319
▁yuyayniyuq	-9.5034
▁kichi	-9.50449
▁chayamun	-9.50589
▁atipa	-9.50721
▁ruwananpaq	-9.50799
▁punch	-9.50818
nmi	-9.50913
▁pantasqa	-9.50936
▁tapuy	-9.50967
▁yachan	-9.50997
▁suma	-9.51175
kuna	-9.512
▁munarqani	-9.51321
▁apaqkuna	-9.51602
▁rimayqa	-9.5165
▁chiqap	-9.51948
▁nisqapi	-9.51956
▁soltero	-9.51986
▁hichpa	-9.52045
▁qallaykurqak	-9.52095
▁paykunamanta	-9.5226
▁religionp	-9.52295
▁espi	-9.52664
▁junt	-9.52837
▁kaptinmi	-9.52936
pipas	-9.53233
▁sara	-9.53251
odo	-9.53258
▁mama	-9.53324
▁espiritunw	-9.5333
▁suyakuyniyoq	-9.53484
▁uymant	-9.53524
▁uyariq	-9.53524
▁yanapasunki	-9.53533
▁qatiqninp	-9.53706
nanpaqm	-9.53771
▁hampi	-9.53812
▁siente	-9.53817
▁qamkuna	-9.53877
▁pawana	-9.53909
▁war	-9.53949
nqak	-9.53964
▁huerta	-9.54025
un	-9.5406
▁nintaqmi	-9.54308
▁tiempopim	-9.54407
▁jerusalen	-9.54771
▁taki	-9.54846
▁kurayku	-9.54902
▁apu	-9.5492
▁ninkum	-9.55156
▁anankupaq	-9.55215
▁yachayqa	-9.5522
▁cristota	-9.55293
▁atirqa	-9.55442
▁jacob	-9.55447
▁kirqa	-9.5548
▁kaspaqa	-9.55489
▁jinat	-9.55522
▁qollq	-9.55631
▁ruranapaq	-9.55674
▁manchakuy	-9.55812
▁yachaqana	-9.5583
▁pichqa	-9.5604
▁jesusmanta	-9.56407
▁maska	-9.56435
▁efesios	-9.56543
▁tarin	-9.56582
▁ruwanankupaq	-9.56668
▁mamacha	-9.56786
▁jesuswan	-9.56835
ank	-9.57026
▁kaspanmi	-9.57454
▁llull	-9.5784
▁ruwarqak	-9.58074
▁kaytam	-9.58099
▁nichka	-9.58126
▁ris	-9.58294
▁dan	-9.58463
▁ruwank	-9.58506
wanpas	-9.58676
▁precursor	-9.58736
▁ray	-9.5886
▁chkas	-9.58963
▁elias	-9.58996
▁entiendeq	-9.59241
▁kikuna	-9.59428
▁yanapasqanmant	-9.59521
▁rimana	-9.5953
▁inti	-9.59896
▁iqmasinkunat	-9.59897
▁tukurqa	-9.60179
▁yachanankupaq	-9.60239
▁rimachkan	-9.60298
▁vence	-9.60491
▁kunanmi	-9.60697
▁abril	-9.60709
▁chaykunamanta	-9.60951
▁hukkunap	-9.60994
▁qanra	-9.61046
▁oqa	-9.61156
qak	-9.61185
▁qawachinchik	-9.61219
▁sonqow	-9.61347
spa	-9.61399
▁riy	-9.61409
▁kachun	-9.6172
▁rurananpaq	-9.61777
▁kanayki	-9.61821
▁huchayoq	-9.62
▁imamanta	-9.62003
▁qaya	-9.62072
▁willakus	-9.62076
▁kana	-9.62206
napaqq	-9.62212
▁ecl	-9.62563
▁santo	-9.62568
▁pakun	-9.62793
▁llik	-9.62951
▁chaskisqan	-9.62983
▁paninchik	-9.63097
▁runamasinchik	-9.63114
▁espiritum	-9.63117
▁jehovap	-9.63145
▁kuyapayakuq	-9.63215
▁tantakuy	-9.63227
▁kutichi	-9.63287
▁cambia	-9.63551
ak	-9.6361
▁ruwawaq	-9.63743
▁kawsanapaq	-9.63796
▁achkha	-9.63967
▁d	-9.64025
▁kallpancha	-9.64073
▁nisqanmanjin	-9.64126
tachus	-9.6428
sq	-9.64369
▁deuteronomio	-9.64427
▁kawsanankupaq	-9.64474
▁chaypiqa	-9.64593
yoq	-9.6473
▁cham	-9.64775
▁llapanchikm	-9.64789
▁stol	-9.64789
▁juez	-9.6496
▁wakinqa	-9.65003
▁kuyasq	-9.65009
▁julio	-9.65061
▁kisqa	-9.65083
▁kapuqnin	-9.65121
▁asun	-9.65265
▁cambian	-9.65452
▁chinanpaq	-9.65526
▁tumpa	-9.65674
▁septiembre	-9.65697
▁ruranankupaq	-9.65732
▁kam	-9.65736
▁yanapanq	-9.65844
▁jallp	-9.65899
▁yachanay	-9.65927
▁allinpuni	-9.65944
▁yachanku	-9.66027
▁nina	-9.66162
▁pipa	-9.662
▁awaq	-9.66312
chw	-9.66446
▁humild	-9.66572
▁ajina	-9.66627
▁kaqkunam	-9.66662
▁jer	-9.66789
▁nisunman	-9.66989
▁sapaq	-9.67002
▁p	-9.67017
▁isqa	-9.67019
▁nisqanwan	-9.67022
▁wayra	-9.6707
▁llank	-9.67099
▁qusan	-9.67175
▁qawachichw	-9.67208
▁taytay	-9.67347
▁yachachisqanta	-9.67499
▁serviy	-9.67705
▁churasqa	-9.67755
▁yachachisqa	-9.67832
▁gala	-9.67838
▁espiritunt	-9.67948
raqch	-9.68106
▁yacharqan	-9.68139
▁rinay	-9.6815
▁riku	-9.68309
in	-9.68376
▁nirqan	-9.68501
▁sacha	-9.68699
▁riqsisqa	-9.68954
ap	-9.68968
▁yupaychanapaq	-9.69053
▁qawachisun	-9.6917
▁congregacion	-9.69234
▁nanay	-9.69271
▁pusaq	-9.69529
▁palabra	-9.69703
▁churarqa	-9.6972
▁chun	-9.69764
▁yacharu	-9.69836
▁hamun	-9.69915
▁kaptinku	-9.70012
▁kunchik	-9.70076
▁imakunam	-9.70088
▁qallarirqa	-9.70147
▁kaj	-9.70358
▁llaqtamanta	-9.70367
▁miray	-9.7062
▁kachasqa	-9.70702
▁rikchaq	-9.70798
▁hinaptin	-9.70799
▁ruwasqanmant	-9.70809
▁qawachi	-9.70843
▁wichiy	-9.70961
▁seguro	-9.70966
▁hawkay	-9.71095
▁imaymana	-9.71136
▁manapas	-9.71203
▁yachanmi	-9.71239
▁naciont	-9.71275
▁nataq	-9.71291
▁moises	-9.71295
▁yachachis	-9.71301
▁cristom	-9.71397
kunatam	-9.71452
▁huchallikuq	-9.71501
▁iyniyoq	-9.71523
▁millakuy	-9.71653
▁waqa	-9.71835
▁sunqulla	-9.72063
▁ri	-9.72304
▁yanapakuyta	-9.72307
kuq	-9.7234
▁kutita	-9.725
▁munarqak	-9.7263
▁munasqay	-9.7273
▁yanapawarq	-9.72777
▁ruranku	-9.72821
nchikp	-9.72888
▁sutichasqa	-9.72984
▁jerusalenpi	-9.7302
chakus	-9.73037
▁ruwasp	-9.73093
▁anki	-9.73193
▁rayan	-9.73501
▁allicha	-9.73601
▁cielo	-9.73648
▁carta	-9.73718
▁warmakuna	-9.73731
▁revistap	-9.73812
▁serviyta	-9.73933
▁mill	-9.74131
▁cheq	-9.74262
▁espiritu	-9.74281
▁nisqanmanta	-9.743
▁agosto	-9.74388
ataq	-9.74524
▁saqi	-9.74687
▁riki	-9.74778
▁tanta	-9.74936
▁mikuyt	-9.75064
▁rurasqanmanta	-9.75247
▁qawasp	-9.7529
▁hatu	-9.75354
▁prueba	-9.75478
▁llakikuy	-9.75602
▁riqkuna	-9.75611
▁huklaw	-9.75653
▁atiwaq	-9.75658
▁aslla	-9.75781
▁gobiernon	-9.75842
▁rakuna	-9.76007
▁judio	-9.76124
▁rimasun	-9.76175
▁rakin	-9.76443
▁ukusqant	-9.76467
▁asta	-9.76477
▁dibujos	-9.76534
▁runakunapaq	-9.76589
▁imakunap	-9.76591
▁ma	-9.76592
▁parten	-9.76665
▁tantea	-9.76825
▁akuptin	-9.76863
taw	-9.76945
▁judas	-9.77096
▁qawank	-9.77174
▁dioslla	-9.77202
▁millonnint	-9.77368
▁kill	-9.77404
▁qowanchik	-9.77647
▁judiokun	-9.77746
▁diciembre	-9.77794
▁ruwan	-9.77915
▁fiesta	-9.77928
▁nichkan	-9.78034
▁ge	-9.78192
▁tarikurqak	-9.78194
▁qaranp	-9.78375
▁testigonkun	-9.78386
▁kaspapas	-9.78404
rurqak	-9.78512
▁llapanku	-9.78552
▁ukusq	-9.7865
▁the	-9.78886
▁kaqkunamanta	-9.78894
▁qusa	-9.78938
▁alliny	-9.79089
chkaq	-9.79307
▁pakunan	-9.7934
▁cuerpo	-9.79349
▁marzo	-9.79367
▁uyarispa	-9.79535
▁uqa	-9.79635
▁qos	-9.79726
▁templo	-9.79796
▁riq	-9.7986
▁qallariy	-9.80026
▁rumi	-9.80047
▁ezequiel	-9.80104
▁enero	-9.80106
▁qampa	-9.802
raykum	-9.80207
▁rimaspa	-9.80326
▁congregacionkun	-9.80352
▁anpas	-9.80375
▁chinkachisqa	-9.80458
▁valorniyoq	-9.80568
▁aynin	-9.8058
nik	-9.80663
▁yanapananpaq	-9.8078
▁manchakus	-9.80916
▁testigonkuna	-9.80983
▁anachi	-9.81012
ruwachw	-9.81049
▁librota	-9.81317
▁kaychik	-9.81469
▁llaqtata	-9.81507
▁testig	-9.81595
▁librasq	-9.81629
▁kachwan	-9.81647
▁atinman	-9.81649
▁pasqa	-9.81701
▁niyku	-9.81732
▁rikurqa	-9.8183
▁wasita	-9.81927
▁paypaq	-9.81936
▁watayoq	-9.81939
▁imayoq	-9.82056
▁watas	-9.82178
▁laya	-9.82361
▁kayman	-9.82436
▁internetpi	-9.82462
▁hinas	-9.82506
▁qo	-9.8251
▁palabranp	-9.82529
▁ulla	-9.82602
▁runast	-9.82628
um	-9.82771
▁kanmi	-9.82851
▁angelkun	-9.82878
▁wasiman	-9.82957
▁wasinpi	-9.82977
▁carro	-9.82995
▁kuyasqanchikt	-9.83131
▁cuenta	-9.83279
▁palla	-9.83369
▁valor	-9.83589
▁wasinman	-9.83592
▁sitio	-9.83809
▁yuyariy	-9.8389
▁favor	-9.83959
▁manchakuspa	-9.84059
iqmasinchikkunaw	-9.84096
▁uywan	-9.84206
▁unanchasqa	-9.84293
▁nueva	-9.84544
yta	-9.84589
▁octubre	-9.84631
▁qallaykurqan	-9.84652
▁yakuta	-9.84708
wasqanchikmanta	-9.84781
nchikq	-9.84812
▁iqkunap	-9.84899
▁yanapawanchikm	-9.84924
▁pakuspa	-9.84955
▁sonqonp	-9.84973
▁iskaynin	-9.85312
▁tropa	-9.85326
▁asqay	-9.85555
▁wana	-9.85933
▁sapaqchasq	-9.86095
▁york	-9.86187
▁chaykunam	-9.86188
▁niqpi	-9.86271
▁sonqoyoq	-9.86292
▁qamkunaqa	-9.86369
▁wakinn	-9.86389
▁amam	-9.86415
▁rikurirurq	-9.86421
▁castiga	-9.86494
▁mayo	-9.86521
▁profesor	-9.86564
▁chiq	-9.86861
▁t	-9.86902
▁las	-9.86957
▁abrahamp	-9.86962
▁willakuyqa	-9.87045
▁sapalla	-9.87102
▁yaypi	-9.87208
▁hunt	-9.87253
▁miku	-9.8734
▁yanapakuykuna	-9.87474
▁internet	-9.87492
▁ofrenda	-9.87546
▁qellqaq	-9.87585
▁sama	-9.87594
▁kash	-9.87663
▁munasqankuta	-9.87798
▁qhawariy	-9.87821
▁anachiy	-9.87837
▁kikunata	-9.8797
▁ezequias	-9.87989
nku	-9.88054
▁nm	-9.88094
▁qep	-9.88115
▁wank	-9.88396
▁rurasqay	-9.88477
▁tanqa	-9.88587
▁qillqap	-9.88592
▁qacha	-9.88703
▁ley	-9.88818
▁llaqtanmanta	-9.88844
na	-9.8904
▁demonio	-9.891
mantam	-9.89119
▁rurasqanta	-9.89239
▁taytanta	-9.89246
kunata	-9.89292
▁kallpata	-9.89296
▁sutill	-9.89324
▁es	-9.89354
▁allpantinp	-9.89377
▁kapuqniyoq	-9.89379
▁tarikuq	-9.89393
▁yanapanankupaq	-9.89423
▁hich	-9.89498
chikm	-9.895
▁dibujota	-9.89505
▁adan	-9.89507
▁runamasin	-9.89507
▁qellqakunat	-9.89555
▁atisqa	-9.89591
▁versiculop	-9.89595
▁yachasqay	-9.89612
▁chaytaq	-9.89782
▁karqanku	-9.89894
▁chaykunaqa	-9.89917
▁yacharus	-9.90034
▁apakun	-9.9007
▁qalall	-9.90201
▁rurayqa	-9.90215
▁vidanta	-9.90348
▁piensana	-9.90524
▁diosninchik	-9.90542
▁kupti	-9.90586
▁qatipakuchw	-9.906
▁kachkarqa	-9.90604
▁churinkuna	-9.90697
▁rikuna	-9.90825
▁sasam	-9.90974
▁aycha	-9.90984
▁kasqaykita	-9.91171
▁rurarqak	-9.91174
wasqanchikt	-9.91217
▁qawakun	-9.91242
▁kawsas	-9.91331
▁makinpi	-9.91334
▁dibujokun	-9.91416
▁of	-9.91495
▁yanapas	-9.91517
▁atinchik	-9.91557
▁llapallanchikm	-9.91692
▁qallarin	-9.918
▁uchisq	-9.91814
▁qellqap	-9.91845
▁ruwasqanm	-9.91868
▁wawas	-9.91942
▁kankichik	-9.91977
▁jatunpaq	-9.92027
▁nisqanm	-9.92177
▁kamachiy	-9.92182
▁atiende	-9.92277
▁warmiqa	-9.92308
▁pascua	-9.92553
▁juicio	-9.92691
▁ukurq	-9.92846
▁kasukuspa	-9.92955
▁paykunaman	-9.9308
▁kamachis	-9.93095
▁pasay	-9.93223
kus	-9.9323
▁niqta	-9.93231
▁reyes	-9.93529
▁m	-9.93605
▁ruwasqant	-9.93615
▁pasaq	-9.9369
▁and	-9.93835
▁cristianokunapa	-9.93881
▁kuya	-9.93914
▁yachayniyuq	-9.93931
▁uywa	-9.93948
▁familiap	-9.94067
▁kaynatam	-9.94083
nesi	-9.94106
▁llaqtapa	-9.94212
▁kutimun	-9.94308
▁reino	-9.94353
▁vidap	-9.94354
▁casa	-9.94365
▁kamachikuq	-9.9437
▁jehovata	-9.94382
▁jefen	-9.94533
▁hatuncha	-9.94786
▁pimanta	-9.9511
▁pasaruptin	-9.9513
uy	-9.9517
▁pakunku	-9.9529
▁pawach	-9.95322
▁o	-9.95351
▁risqa	-9.95359
▁ruranay	-9.95417
▁ciencia	-9.95451
▁llant	-9.95491
▁watch	-9.95621
▁chinkachinqa	-9.95697
▁kaqkun	-9.95703
▁imay	-9.95736
▁qawachink	-9.95802
▁ruwasun	-9.95891
kurqak	-9.95947
▁saqra	-9.95961
▁paciencia	-9.95985
▁junio	-9.96071
▁watamantapacha	-9.96081
tower	-9.96101
▁yachaywan	-9.96363
▁atis	-9.96503
▁challwa	-9.96509
▁paykunap	-9.96512
▁uma	-9.96621
▁tiempota	-9.96678
▁kutichiy	-9.96791
▁kanankuta	-9.96856
▁piensan	-9.96884
▁segur	-9.96965
▁qawari	-9.9707
▁ruw	-9.97082
▁leespa	-9.97109
▁ruway	-9.97221
▁llaqtanman	-9.97279
▁jucha	-9.97422
▁corinto	-9.97426
▁rimaykuna	-9.97481
▁orninchik	-9.97735
▁mundo	-9.97821
▁tapukuykunata	-9.97888
▁sum	-9.97903
▁waway	-9.97951
▁rirqak	-9.98155
▁iyniyuq	-9.98156
▁viuda	-9.98241
▁paytam	-9.98298
▁niwarqak	-9.98419
▁ejemplont	-9.98523
▁paykunataqa	-9.98526
▁estudiaq	-9.9855
▁kaspayki	-9.98565
chiky	-9.98625
▁kuraq	-9.98637
▁takyasqa	-9.98744
▁qor	-9.98786
▁wawq	-9.98847
▁kunankama	-9.99074
▁ruwanank	-9.99089
▁akuspan	-9.99091
▁yachananku	-9.99106
▁apakuy	-9.99203
kuch	-9.99266
▁punchawt	-9.9927
▁awqa	-9.99294
▁kikinchik	-9.9938
▁misionero	-9.99432
▁oran	-9.99438
▁familiay	-9.99504
▁warmita	-9.99542
nankupaq	-9.99586
▁paginakunap	-9.99639
▁ayki	-9.9974
▁kamachiyta	-9.99766
▁anmanku	-9.99859
▁yachachiyta	-9.99935
▁yanapachw	-9.9997
▁kasukurq	-10.0003
▁kuyarq	-10.0011
tataq	-10.0011
▁viday	-10.0024
▁hapin	-10.0027
raykutaq	-10.0027
ypa	-10.003
▁rikuch	-10.0052
▁qallariyninpi	-10.0052
▁pakuyku	-10.0057
▁munani	-10.0068
▁atiq	-10.0085
▁pata	-10.0088
▁ancianos	-10.0092
▁me	-10.0099
▁kaykunata	-10.0104
▁babilonia	-10.0106
laya	-10.0127
▁estudia	-10.0129
▁gobiernonp	-10.0134
▁contesta	-10.0137
▁efeso	-10.0141
▁paykunapaq	-10.0141
▁iyninp	-10.0146
▁runakunataqa	-10.015
chikq	-10.0171
▁kachkanchik	-10.0184
▁nikichik	-10.0184
▁adanp	-10.0191
▁uman	-10.0217
▁jehovaj	-10.0219
▁willakuna	-10.023
▁favorece	-10.0235
▁valeq	-10.0254
danw	-10.0297
▁niy	-10.0302
pichus	-10.031
▁nuev	-10.0312
▁warmim	-10.0319
▁mar	-10.0321
▁bible	-10.0325
▁alto	-10.0338
pawasun	-10.035
▁qawachinm	-10.0365
▁kachkani	-10.0369
▁llaqtapim	-10.0378
▁warmip	-10.0381
kiq	-10.0389
▁yacharqak	-10.0399
▁mesia	-10.0402
▁sutinpi	-10.0405
▁tiya	-10.0419
yachachikuyninta	-10.0434
▁uspa	-10.0436
▁interes	-10.0437
▁espiritut	-10.0439
▁riqsi	-10.0444
▁qon	-10.0445
▁sipaskuna	-10.0453
▁profeta	-10.0463
kusikunapaqm	-10.0474
▁cuerpon	-10.0486
aymantapas	-10.0495
▁runamasinchi	-10.0506
▁socie	-10.0516
▁watayuq	-10.053
▁tiempom	-10.0535
▁rura	-10.054
▁allpata	-10.0555
▁agradecekun	-10.0563
▁kaykunam	-10.0592
▁rimanku	-10.0593
▁ukup	-10.0614
▁waj	-10.0619
▁qallan	-10.062
▁imaynan	-10.0622
▁uyariyta	-10.0623
▁kachkapti	-10.0625
paqn	-10.0639
▁aptin	-10.064
▁lliwta	-10.0645
▁nacionpim	-10.0649
▁betelp	-10.0651
▁watam	-10.0653
▁yanapasqant	-10.0656
h	-10.0677
▁uru	-10.0691
▁agradonpaq	-10.0705
▁yanapay	-10.0705
▁kapu	-10.0714
▁kamachisqan	-10.0715
▁mayu	-10.0716
▁huertapi	-10.0717
▁munakuy	-10.0722
▁maypipas	-10.0723
▁upalla	-10.0731
▁orp	-10.0749
▁qellqa	-10.0753
▁qanm	-10.0755
▁riqsin	-10.0773
▁ruwasqankut	-10.0773
▁llaqtayoq	-10.0777
▁apaku	-10.0777
▁maqa	-10.0793
▁kasqanm	-10.08
▁llapallanchik	-10.0821
▁payki	-10.0837
▁tarikurqan	-10.0846
▁runapas	-10.0865
▁pakasqa	-10.0866
▁yachachinapaq	-10.0868
▁achkam	-10.0876
▁judiokunap	-10.0883
▁apan	-10.0886
▁akllasqan	-10.0886
▁taytanchik	-10.0888
▁allinpunim	-10.0892
▁unaku	-10.0897
▁listolla	-10.0899
▁challa	-10.0902
▁saqe	-10.0904
▁religionkunap	-10.0924
▁sacerdotekunap	-10.0945
▁parlan	-10.0947
chwanm	-10.0947
▁chaynin	-10.0981
▁nacesqan	-10.0988
▁nisqata	-10.0994
▁allpapi	-10.0996
▁munaspaykiqa	-10.0998
▁kaqkunawan	-10.1003
▁ruraykuna	-10.1003
▁qawanchik	-10.1027
▁sacerdote	-10.1028
▁josey	-10.1045
▁ruraspan	-10.1051
▁leeyta	-10.1057
▁jeremia	-10.1059
▁pablota	-10.1067
▁kallpa	-10.1075
qkunaq	-10.1084
▁ku	-10.1099
▁qayna	-10.1103
▁qullqita	-10.1114
▁pachapiqa	-10.1148
▁prepar	-10.1149
▁nisqaman	-10.1154
▁char	-10.1154
▁uyariy	-10.1168
▁siervo	-10.1174
▁kasqayta	-10.1174
▁much	-10.1179
▁kasqanman	-10.1181
ense	-10.1188
▁kamachik	-10.1188
▁r	-10.1195
▁filip	-10.1199
▁kawsana	-10.1207
▁toma	-10.125
▁sonqonchikp	-10.1264
▁payn	-10.1271
▁uqkun	-10.1273
▁chiri	-10.1288
▁limpio	-10.1302
▁alemania	-10.1302
▁reinon	-10.1305
▁yanapayninwan	-10.1307
▁num	-10.1308
▁imat	-10.1319
▁runku	-10.1332
▁chis	-10.1372
▁piman	-10.1378
▁noviembre	-10.1379
▁jesuspi	-10.1389
▁respeto	-10.139
▁punchay	-10.1395
▁allinlla	-10.1403
▁trigo	-10.1403
▁colosense	-10.1404
▁rirqani	-10.1406
▁yawar	-10.1409
▁nilla	-10.141
▁espirituw	-10.1411
▁leeq	-10.1416
▁l	-10.1421
▁ingles	-10.1424
▁mamayqa	-10.1428
l	-10.1461
▁anlla	-10.1464
▁ruwasqan	-10.1475
▁imast	-10.1478
▁imalla	-10.148
▁yanapawa	-10.1493
▁akurqan	-10.1504
▁allpaman	-10.1511
▁paytaqa	-10.1521
▁iyta	-10.1522
▁chaynalla	-10.1525
▁kuyasqant	-10.1532
▁isaac	-10.1533
▁kamachinanpaq	-10.1539
▁hukkunam	-10.1548
▁pasakun	-10.1549
▁usqanpi	-10.1551
ninp	-10.1554
▁unquq	-10.1569
▁yarqa	-10.1589
▁atiy	-10.159
▁wasimanta	-10.1592
▁pachapipas	-10.1597
▁taksa	-10.1604
▁nisqantam	-10.161
▁moisest	-10.1613
▁soqta	-10.1616
▁pachiku	-10.1629
▁rurasqankuta	-10.1629
▁sapakamam	-10.1629
▁templopi	-10.163
▁predicanapaq	-10.163
▁ninpa	-10.1648
▁aylluy	-10.166
▁rimasqanta	-10.1667
▁qhawasqa	-10.1687
▁agradeceku	-10.169
▁alma	-10.1695
rayk	-10.1706
▁ankama	-10.1706
▁tapun	-10.171
▁qepat	-10.1732
▁iqmasinchikt	-10.1732
▁akllan	-10.1737
▁lluqsimuq	-10.1745
▁usqay	-10.1754
▁davidt	-10.1757
ico	-10.1758
▁yachaspa	-10.1759
▁kuyawasqanchikt	-10.1763
▁nispaqa	-10.1767
▁ruwasqankumant	-10.1771
▁tiyay	-10.1778
kurus	-10.1784
▁lev	-10.1791
▁oqapa	-10.1797
▁oqap	-10.1801
▁wara	-10.1809
▁kaspay	-10.1809
▁cuidaq	-10.181
▁kayninku	-10.1813
▁manas	-10.182
▁munaku	-10.1825
▁uq	-10.1831
▁rurayniyoq	-10.1833
▁willaq	-10.1841
▁romap	-10.1842
▁chaskiy	-10.1854
▁nace	-10.1857
ya	-10.1858
▁tarinki	-10.186
▁escuelapi	-10.1864
▁ananta	-10.1872
▁yanapakuy	-10.1875
▁naku	-10.1878
▁herencia	-10.1886
▁manchakuq	-10.189
kunam	-10.1894
▁saul	-10.1896
▁pedr	-10.1921
▁noey	-10.1947
▁uyaris	-10.1955
yninchikq	-10.1957
▁qawananchik	-10.196
▁predicayta	-10.1968
▁kamachisqa	-10.1971
▁cumplikusqant	-10.1973
warqak	-10.1979
▁kuyasp	-10.1986
▁unquy	-10.1989
▁servis	-10.1993
▁chawpinpi	-10.1997
▁un	-10.2001
anq	-10.2007
▁lawmant	-10.2017
▁imaynatat	-10.2018
ykit	-10.2018
▁uqanchik	-10.2027
▁hukwan	-10.2037
▁predicasqanchik	-10.2037
▁tukunq	-10.2051
▁cambias	-10.2056
paqpa	-10.2058
▁kachkaptinmi	-10.2059
apas	-10.206
▁willakunanpaq	-10.2064
▁kitaq	-10.2078
▁tukuytam	-10.2081
ich	-10.2084
▁qawarqak	-10.2085
▁cheqapt	-10.21
▁pachapim	-10.2102
ccio	-10.2104
▁febrero	-10.2133
▁takyan	-10.2142
▁vidanmant	-10.2149
▁willas	-10.2154
▁noeyp	-10.2166
▁isaiaspa	-10.2171
▁willakurqak	-10.2172
▁sutinqa	-10.2175
▁rinku	-10.2185
▁kuyakuynint	-10.2192
▁ajinat	-10.2201
▁sonqonkuw	-10.2204
▁atiyniyuq	-10.2215
▁runaman	-10.2219
▁rimaynin	-10.2233
eq	-10.2233
▁willayta	-10.2261
rqa	-10.2276
▁tanteasp	-10.2287
▁kicha	-10.2289
▁llakiy	-10.2298
▁servinapaq	-10.2323
▁qhari	-10.2328
▁bendicionkun	-10.233
▁prometesq	-10.2336
▁kikinpa	-10.2347
▁predica	-10.2348
▁killan	-10.2352
pun	-10.2352
▁iy	-10.2369
▁apakuq	-10.2371
▁apay	-10.2378
kunawanm	-10.2379
ykus	-10.2394
▁pacienciakuq	-10.2405
▁harka	-10.2412
▁carcelp	-10.2413
▁pachi	-10.2416
▁iqmasinchikp	-10.2417
▁kananpaqqa	-10.2426
▁guerrap	-10.243
▁runataqa	-10.2438
▁reqsi	-10.2441
▁hinal	-10.2445
▁chayraq	-10.2456
▁anchu	-10.2465
▁niwasqanchikt	-10.2466
▁que	-10.2469
▁llaqtanp	-10.2477
▁rurun	-10.2477
▁riptin	-10.2482
▁qawachirqak	-10.2517
mantapa	-10.2528
▁comp	-10.2529
▁kuyaq	-10.2534
▁uchuy	-10.254
▁naci	-10.2544
▁kaqkunapas	-10.2556
▁munanki	-10.2564
▁amistadt	-10.257
nta	-10.257
jworg	-10.2572
▁atam	-10.2583
▁rikur	-10.2588
▁llamka	-10.2595
us	-10.2606
tract	-10.2618
▁estudiop	-10.2618
pipa	-10.2625
▁wawakuna	-10.2638
uq	-10.2658
▁qellq	-10.2663
▁karqan	-10.2664
▁ruwananmant	-10.2686
▁vino	-10.2694
▁reparan	-10.2702
▁hamu	-10.2707
llawan	-10.2711
▁pentecoste	-10.2711
▁atiyninwan	-10.2732
▁www	-10.2732
▁pregunt	-10.2732
▁mamanku	-10.2732
▁libre	-10.2737
▁mayman	-10.2737
rayas	-10.2737
▁kasuku	-10.2747
▁pedrop	-10.2753
▁leynin	-10.2758
▁vidankup	-10.276
sqanraykum	-10.2762
▁rurasqanmi	-10.2766
▁taytalla	-10.2769
taraqm	-10.2774
uch	-10.2782
kamam	-10.2794
▁juch	-10.2798
▁aqchu	-10.2804
▁ru	-10.2806
▁herman	-10.281
▁puri	-10.2826
▁llakis	-10.2831
▁ta	-10.2835
▁oqanchikpaq	-10.2836
▁oqanchikmant	-10.2847
▁rimaykunapi	-10.2857
▁aychap	-10.2877
▁cosecha	-10.2884
▁ukupt	-10.289
atam	-10.2896
▁familianta	-10.2898
▁noticiata	-10.2906
▁ruwanq	-10.2909
▁amistadninchikt	-10.2924
▁aqkuna	-10.2926
▁cron	-10.2935
▁kachisqa	-10.2936
▁kasukuyta	-10.2954
▁qamta	-10.2958
▁idioma	-10.2961
▁kayninta	-10.2967
▁yanapakuq	-10.2969
▁qatipaku	-10.2974
▁kutichiwaq	-10.2978
manq	-10.2979
▁atisqanta	-10.2984
▁atiyta	-10.2988
▁deut	-10.2991
▁sunquyuq	-10.2991
▁runakunatapas	-10.2992
ankum	-10.2993
▁cartata	-10.3007
▁rikuchirq	-10.3013
▁ninanmi	-10.3014
▁yachanki	-10.3017
▁tantearurq	-10.3033
▁nintaq	-10.3033
d	-10.3039
▁rurasqanku	-10.3085
▁kisun	-10.3098
▁sacerdotekuna	-10.3107
▁qowasqanchik	-10.3111
▁ashkh	-10.3112
▁willamuy	-10.3112
nanpaq	-10.3116
▁tarikusun	-10.3123
▁francia	-10.3124
▁cro	-10.3132
▁qillqakunata	-10.3133
▁sunquy	-10.3136
▁saqirqa	-10.3137
▁asiri	-10.3138
sqanchikt	-10.3142
▁predicaq	-10.3145
▁cumplikurq	-10.3149
▁llak	-10.316
▁evat	-10.3172
▁autoridadkuna	-10.3173
▁bi	-10.3173
▁chinkarachi	-10.3197
aptinmi	-10.3198
▁pita	-10.3199
ar	-10.3202
▁chiqan	-10.3209
ym	-10.3213
▁kapti	-10.3214
▁predicanankupaq	-10.3221
▁respetakuq	-10.3231
▁pusan	-10.3237
▁qarikunat	-10.3241
congregacionmant	-10.3246
▁kanqachu	-10.3251
▁iptin	-10.3252
▁misk	-10.3271
▁esp	-10.3272
▁quy	-10.3276
▁raki	-10.3278
▁takya	-10.3287
▁ukuptin	-10.329
▁akunap	-10.3294
▁saqerq	-10.3297
kamachikuykunata	-10.3304
▁qillqapi	-10.3309
ka	-10.332
▁ninan	-10.3323
▁nacionniyuq	-10.3328
▁han	-10.333
▁yanapakuyninw	-10.3332
sqankumant	-10.3333
▁canada	-10.3344
▁kikilla	-10.3344
▁kapuq	-10.335
▁muhu	-10.3356
▁tupasqan	-10.3362
▁apachi	-10.3367
▁chaykun	-10.3388
▁warmikuna	-10.339
▁runawan	-10.3406
▁rut	-10.3413
▁qurqa	-10.3425
▁chinankupaq	-10.3426
▁ruwaym	-10.3444
▁yanapanku	-10.3449
▁deu	-10.3452
▁doncella	-10.3452
▁chinman	-10.3455
yachachinankupaq	-10.3456
▁puka	-10.3457
▁ens	-10.3465
raq	-10.3465
▁rikurirq	-10.3476
akuy	-10.3483
▁moisesm	-10.3483
▁qawaq	-10.3493
▁akusqant	-10.35
▁mira	-10.3501
▁munanchu	-10.3502
▁waki	-10.3503
▁estudiasp	-10.3508
ayk	-10.3538
▁jesusman	-10.3544
▁suyupi	-10.3547
▁iqmasinkun	-10.3548
▁sayay	-10.3551
▁piensach	-10.3555
▁sinchita	-10.3565
▁qawanll	-10.357
▁juanpa	-10.3574
▁yachachinku	-10.3576
▁chakra	-10.3586
▁chayar	-10.3595
▁hospital	-10.3597
▁gran	-10.3598
▁contranchikp	-10.3599
▁wayta	-10.3608
▁pakurqa	-10.3611
▁qarikun	-10.3619
▁qillqasqa	-10.3623
napaq	-10.3623
▁achikuq	-10.3629
▁kallpacha	-10.3629
▁pananku	-10.3631
▁chum	-10.3632
▁kusis	-10.3639
▁cristia	-10.3661
▁mosoqmant	-10.3662
▁supay	-10.3672
▁atipana	-10.3676
ptinkupa	-10.3681
▁achisqa	-10.3699
▁diosmantam	-10.3708
▁peligro	-10.3726
▁lloqsimuq	-10.3734
radu	-10.3742
▁tun	-10.3751
▁chayninta	-10.3751
▁kipas	-10.3752
▁churiyoq	-10.3758
▁yachananpaq	-10.3767
▁entiendeyta	-10.3771
▁mayq	-10.3775
▁chaskiq	-10.3786
▁levi	-10.3789
▁qosq	-10.379
anchikm	-10.3809
▁religionkun	-10.3813
chikus	-10.3813
▁sunqun	-10.3814
▁achikun	-10.3816
▁ministerial	-10.3819
▁maskaq	-10.382
▁saqin	-10.382
▁risqanta	-10.3823
▁planta	-10.3831
chi	-10.3833
▁lliwm	-10.3835
▁bautizasqa	-10.384
▁kaywan	-10.3845
▁unanchas	-10.3846
▁antawan	-10.3855
▁qokuykuq	-10.3864
▁yanapanay	-10.3864
▁rantinchikp	-10.3867
▁nacionkunapi	-10.3871
▁eden	-10.3879
▁kuyasqanchik	-10.388
▁librawananchik	-10.3884
ptinkum	-10.3895
▁patanpi	-10.3903
▁niptin	-10.3907
▁iqkunat	-10.391
▁llaqtakunapi	-10.392
▁asuyku	-10.3929
▁pedrota	-10.3951
▁urma	-10.3959
▁kachin	-10.3961
▁yawarnin	-10.3961
▁cabra	-10.3966
▁watakama	-10.3976
▁qatiq	-10.3982
chej	-10.3982
▁jehovaman	-10.3983
▁arma	-10.3985
kunawanq	-10.3993
▁sirviente	-10.3995
▁judea	-10.401
▁hamuy	-10.401
▁televisionp	-10.4018
▁atinan	-10.4025
▁invita	-10.4036
▁cheqaptapun	-10.4042
▁paga	-10.4048
▁yarqay	-10.406
▁nisqanpim	-10.407
▁chinanku	-10.4087
▁layqa	-10.4098
▁ananmanta	-10.4104
▁kaqpaq	-10.4107
▁kawsananchikpaq	-10.4108
▁kaqkunap	-10.4114
▁atiynin	-10.4119
▁yuyaycha	-10.4124
▁iqmasinchikw	-10.4125
▁brooklyn	-10.4127
▁tesalonicense	-10.4127
▁chaskis	-10.413
▁tratota	-10.4134
▁sonqont	-10.4141
▁mal	-10.4147
▁moise	-10.4147
▁hawa	-10.4159
▁ruwanaykipaq	-10.4159
▁jos	-10.4159
qkunap	-10.4168
▁negocio	-10.4175
▁payninta	-10.4185
▁ruwaykunat	-10.4185
▁karupi	-10.4196
▁kanma	-10.4204
▁cristiana	-10.4212
▁waqaychasqa	-10.4212
▁maymanta	-10.4214
os	-10.4215
▁kaspankum	-10.4216
▁rurar	-10.4222
▁kikinku	-10.4228
▁qawaspank	-10.4229
▁qawanapaq	-10.424
▁atinmanku	-10.4241
spanm	-10.4251
▁congregacionm	-10.4251
▁achi	-10.4261
▁nikita	-10.4268
▁amataq	-10.4279
uen	-10.4285
▁paylla	-10.4288
▁itiy	-10.4296
▁allint	-10.4297
▁kasaq	-10.4302
▁hukkunawan	-10.4307
▁wayna	-10.4309
▁noe	-10.4314
▁templon	-10.4317
▁manapunim	-10.4326
▁reypa	-10.4333
▁pasar	-10.4336
▁charin	-10.4338
▁uyarisqa	-10.4343
▁wasikunata	-10.4352
▁munawaqch	-10.4367
▁sach	-10.4368
▁willakunay	-10.4371
▁chachi	-10.4388
▁ancianokunap	-10.4401
▁rayana	-10.4404
▁aw	-10.4405
▁munaptin	-10.4409
▁satanasm	-10.4415
▁sajr	-10.4425
▁vidanchikp	-10.4437
▁sachap	-10.444
▁uku	-10.4442
▁wataypi	-10.4442
▁orqop	-10.4443
▁munarqam	-10.4444
▁sonqonw	-10.4445
▁tukuynin	-10.4447
▁pukllay	-10.4452
▁piensarqak	-10.4459
▁tinkuq	-10.446
▁onqoyw	-10.4463
▁hukmanyas	-10.4466
▁pachaqa	-10.4469
▁kajt	-10.4474
▁apim	-10.448
▁chaski	-10.45
▁ikusqan	-10.4508
▁salvasqa	-10.4513
mann	-10.4516
▁nacionkunamant	-10.452
aypaqm	-10.4526
▁torre	-10.453
▁qawachinanpaq	-10.4538
▁hinastinp	-10.4541
▁atinkuchu	-10.4545
▁qawasqanm	-10.4551
▁kusikuywan	-10.4552
▁tantata	-10.4565
▁qokuq	-10.4569
▁kusikuni	-10.457
▁yanapayku	-10.457
nchej	-10.4572
llay	-10.458
rt	-10.4581
▁sutita	-10.4584
▁angelkuna	-10.4584
▁satanast	-10.4595
▁kawsakuna	-10.4597
▁rimanay	-10.4603
▁lee	-10.461
qm	-10.4625
▁warmiwan	-10.4625
▁pitip	-10.4642
▁onqoq	-10.465
▁infierno	-10.465
▁khusk	-10.4657
▁jo	-10.467
▁contes	-10.4671
▁toman	-10.4679
ytam	-10.4682
bendicionkunatam	-10.4685
▁rimari	-10.4688
▁kuyan	-10.4691
▁tutapi	-10.4699
▁ninwan	-10.47
▁rantin	-10.4704
▁yanapakuyninwan	-10.471
▁qonqayllamant	-10.4712
▁aceite	-10.4712
▁kawsasqanta	-10.4718
▁imakunatapas	-10.4725
▁tarpuq	-10.4729
▁ukusqanmant	-10.4729
▁tanteaq	-10.473
▁diosnin	-10.4731
▁apamun	-10.4752
▁puncha	-10.4755
▁sumaqmi	-10.4788
▁qawachinanchik	-10.4792
▁atisqay	-10.4795
▁paqarin	-10.4797
▁qayllan	-10.4805
kunaw	-10.4808
▁llaqtaqa	-10.4812
▁qillqaq	-10.4814
▁taky	-10.4814
amant	-10.4819
▁mayqin	-10.482
▁wasinku	-10.4826
▁pennsylvania	-10.4831
▁frica	-10.4832
▁atinmanchu	-10.4836
▁uypa	-10.4842
▁oqanchikp	-10.4845
api	-10.486
▁ruwakun	-10.4866
chikp	-10.4867
▁ripu	-10.4867
▁pisimanta	-10.4869
▁yuraq	-10.4878
▁kamachiqnin	-10.4882
▁rimanapaq	-10.4893
▁wasikuna	-10.4894
▁yuyan	-10.4895
▁agradecekunchik	-10.4895
kuyt	-10.4919
▁respetana	-10.492
▁josue	-10.4936
▁tukuruptin	-10.4949
▁ancian	-10.4951
▁tariku	-10.4956
▁runamasi	-10.4962
▁amigo	-10.4976
▁sobre	-10.4978
▁unakuykunap	-10.4993
▁acuerdo	-10.4994
▁qochap	-10.4995
▁chiqnin	-10.4997
▁confianapaq	-10.4998
▁iqmasinchikpa	-10.5001
▁qawaspankum	-10.5006
▁chaki	-10.5007
▁urq	-10.5014
panq	-10.5019
▁pani	-10.5021
▁pana	-10.5023
▁chinapaq	-10.5028
▁anapi	-10.5034
▁maqanakuy	-10.5042
▁kaqtapas	-10.5047
▁qhepa	-10.5054
▁kawsanay	-10.5065
▁leenan	-10.5068
▁sonqonchikw	-10.507
▁hawk	-10.5077
▁runamanta	-10.508
▁wawanku	-10.5082
▁ruraynin	-10.5087
▁uqanchikrayk	-10.5094
▁kausay	-10.5103
▁atin	-10.5104
▁espiritualp	-10.511
▁cheqapmant	-10.5111
enq	-10.512
▁miguel	-10.5127
▁masin	-10.5129
▁makin	-10.513
▁john	-10.513
▁lucero	-10.5131
wananchikpaq	-10.5143
▁akuchkan	-10.5172
▁sutichan	-10.5172
▁w	-10.5179
▁niraq	-10.518
▁estudiananchik	-10.5187
sqaykit	-10.5193
▁rikuspa	-10.5204
▁wasip	-10.5205
▁chaymantaqa	-10.5208
▁chaqru	-10.521
▁imas	-10.5214
▁congregaciont	-10.5228
perienciayoq	-10.5247
▁chhika	-10.5256
▁qawasq	-10.526
▁rosa	-10.5276
▁qhawana	-10.5279
▁santa	-10.5288
▁aqmasin	-10.5288
ptinpa	-10.532
▁nos	-10.5323
▁j	-10.5323
▁usunchik	-10.5324
rqank	-10.5333
▁pachan	-10.5333
▁tupanm	-10.5342
▁kawsananpaq	-10.5345
▁niwan	-10.5345
▁nis	-10.5366
▁tanteanapaq	-10.5374
▁puriq	-10.5381
▁kawsanqa	-10.5389
▁qawaspan	-10.5393
▁kuyakuy	-10.5407
▁librom	-10.5415
▁rikhu	-10.5428
▁awanchik	-10.5432
iqmasinchikkunap	-10.5437
▁versiculo	-10.5438
▁joel	-10.5438
▁wakinp	-10.5452
▁tiempollanp	-10.5468
▁kanmanchu	-10.5474
▁kuyanapaq	-10.548
▁cuarto	-10.548
▁penqayp	-10.5481
▁kamachiku	-10.5482
▁iqmasinkunam	-10.5488
▁kananpaqmi	-10.5493
▁watiq	-10.5494
▁simi	-10.5494
paqqa	-10.5508
▁aspi	-10.5512
▁kancha	-10.5526
▁qillqan	-10.5532
▁qillqata	-10.5535
▁rirqanik	-10.5537
▁hatunchasqa	-10.554
▁sirvientet	-10.5543
▁mat	-10.5562
chkank	-10.5563
▁rimaykunata	-10.5563
▁aptinku	-10.5572
anta	-10.5588
▁llimphu	-10.5589
▁prometesqan	-10.5589
▁escritura	-10.5589
▁kuyanankupaq	-10.5598
▁ruranqa	-10.5601
▁mitu	-10.5605
▁reykuna	-10.5606
▁willana	-10.5609
▁qallaykuchw	-10.5615
▁kikiki	-10.5616
▁ruwarqank	-10.5618
chwanch	-10.562
▁hermanosta	-10.563
▁yachanqak	-10.5633
nay	-10.5639
▁capitulop	-10.5641
anchik	-10.5645
▁churasqan	-10.5648
▁urqhu	-10.5658
▁piw	-10.5672
▁templot	-10.5675
▁h	-10.5679
▁israelp	-10.5688
▁entiendes	-10.57
▁iqmasinchikmant	-10.5708
▁religionniyoq	-10.5723
phin	-10.5725
▁mamayki	-10.5726
kusqant	-10.5726
▁arqani	-10.5729
▁zacarias	-10.5731
▁qonqasunch	-10.575
▁nisqay	-10.5753
▁kusikuyta	-10.5758
▁rimanankupaq	-10.5758
▁hukninmi	-10.5767
▁bendicionkunat	-10.577
▁cristian	-10.5771
▁unayn	-10.5772
▁chaskirqak	-10.5775
pitaq	-10.5777
▁tinkum	-10.5781
▁qillqaqa	-10.5782
▁cambiaru	-10.5783
▁chispa	-10.5785
▁rikuyku	-10.5798
▁akllay	-10.5814
nanchikm	-10.5817
▁aguantay	-10.5834
▁churay	-10.5847
▁rirqan	-10.5853
▁sqata	-10.589
▁qollqell	-10.5906
▁kayninchik	-10.5907
▁pampachasqa	-10.5908
▁kachamurqa	-10.591
▁rimamusqanchik	-10.5912
▁satan	-10.5932
▁chaqw	-10.5941
▁juzgan	-10.5943
▁ang	-10.5952
▁casaraku	-10.5953
yku	-10.5971
▁mamanpa	-10.5978
▁casarakuyt	-10.5978
▁qawan	-10.5979
▁unquywan	-10.598
▁qunqa	-10.5981
▁aup	-10.5982
▁watapaq	-10.5987
▁se	-10.5993
kunapaqq	-10.6004
▁alabasq	-10.6006
▁qawachin	-10.6007
iqmasinchikkunam	-10.6008
▁kausa	-10.6028
▁pich	-10.6029
▁tiempoy	-10.6033
▁mach	-10.6035
▁jerusalenm	-10.6039
▁qhawan	-10.6044
▁folleto	-10.6046
▁pikunam	-10.605
nqach	-10.6054
▁obliga	-10.6054
▁ejempl	-10.6057
mp	-10.6063
▁europa	-10.6076
▁aman	-10.6083
▁yuyaris	-10.6086
▁tarikuchw	-10.609
▁rimayman	-10.6091
▁rikukun	-10.61
▁enemigo	-10.6104
▁qepatam	-10.6105
▁tarikuspa	-10.611
▁yuyaynin	-10.6113
nkut	-10.6123
▁rikcha	-10.6124
▁kuyawasqanchik	-10.6126
▁jworg	-10.613
▁ana	-10.6133
▁wawata	-10.6135
korq	-10.615
▁san	-10.6157
▁prometerq	-10.6158
▁payarqa	-10.6159
▁kawsayqa	-10.6164
▁uywasqa	-10.6167
▁apostolkun	-10.6175
anpa	-10.6175
▁servichiku	-10.6186
▁wichi	-10.6189
▁aqninchik	-10.6192
▁akaris	-10.6193
▁rata	-10.6195
ykum	-10.6196
▁chata	-10.6197
▁ati	-10.6204
▁ora	-10.6212
▁maskananchik	-10.6229
▁reynin	-10.6234
▁wa	-10.6234
▁qhawarina	-10.6241
▁italia	-10.6249
▁enoc	-10.627
▁simiwan	-10.6283
▁apostolkunap	-10.6297
▁culebra	-10.6298
▁tiemponchikp	-10.6302
▁ninki	-10.6303
▁aaron	-10.6307
▁kallpanchaq	-10.6316
▁despe	-10.6317
▁quku	-10.6327
▁wiksa	-10.6336
llan	-10.6344
▁ninay	-10.6346
▁kuy	-10.6355
▁abel	-10.6357
▁saman	-10.637
ychikch	-10.6371
kutaqm	-10.6391
▁kasukunanku	-10.6393
▁sunqunchik	-10.6402
kichik	-10.6407
▁facil	-10.6408
▁nacionkun	-10.641
▁sipasy	-10.6417
▁wakinm	-10.6427
▁qunqay	-10.6441
▁ruraykunata	-10.6442
▁chaypitaq	-10.6459
▁rimunan	-10.647
▁manaqa	-10.6476
▁warmalla	-10.6478
▁saulo	-10.6479
▁llajtap	-10.6491
kunaqa	-10.6504
▁kutilla	-10.6506
▁yachaynin	-10.653
▁iq	-10.6531
kunamant	-10.6543
▁hamus	-10.6554
▁puklla	-10.6557
▁munasqaykit	-10.6563
▁imaptin	-10.6568
▁qatipakusun	-10.6578
▁willasqa	-10.658
▁nisqamanta	-10.6581
▁chakrapi	-10.6584
▁tarikusqanmant	-10.6585
▁tomay	-10.6589
▁suqta	-10.6592
▁galilea	-10.6593
▁vinota	-10.6597
▁uqanchikpaq	-10.6604
▁alleq	-10.6606
▁achki	-10.6606
tay	-10.6607
▁atiyninta	-10.6614
▁kanaykichikpaq	-10.6615
▁kamachin	-10.6617
▁armagedon	-10.6619
▁qonqaych	-10.6633
▁qepaman	-10.6641
▁papa	-10.6649
▁niyki	-10.6662
rqakum	-10.6671
▁judiokuna	-10.6685
▁apas	-10.6689
▁qellqakun	-10.6691
paqmi	-10.6698
c	-10.67
▁aspa	-10.6702
nanpaqq	-10.6704
▁rikunan	-10.6718
kam	-10.6718
▁kamata	-10.6734
▁norte	-10.6748
▁robert	-10.6752
▁ruwaspanchik	-10.6753
▁yacham	-10.6754
▁qonqaymant	-10.6755
▁regular	-10.6757
▁rurakunanpaq	-10.676
▁derechos	-10.676
▁estudianankupaq	-10.6762
▁rikuyll	-10.6767
▁sirvientep	-10.6767
▁mari	-10.677
▁willakusqan	-10.6771
▁ruwakunanpaq	-10.6772
▁admirakunapaq	-10.6778
anch	-10.678
▁piraq	-10.6781
▁ale	-10.6783
▁penqaypaq	-10.6786
▁masi	-10.6789
ri	-10.6792
▁qawanankupaq	-10.6799
▁risu	-10.68
▁awpaqninp	-10.6804
▁intip	-10.6814
▁allqu	-10.6814
▁ruwayp	-10.6819
▁qarqosq	-10.6825
▁ruwasqanku	-10.6829
▁ovejas	-10.6829
▁churiy	-10.6843
▁mamanta	-10.6844
▁killapa	-10.6846
▁tesalonica	-10.6853
▁suyasqa	-10.6854
▁unqu	-10.6855
▁yanaparqak	-10.6863
▁churas	-10.6869
▁warmiy	-10.6871
▁casarasqakun	-10.6878
▁yuyarinanchik	-10.6884
▁gina	-10.6892
▁wasiy	-10.6898
▁samari	-10.6898
▁churinp	-10.6899
▁sur	-10.6903
▁ruwaspa	-10.6904
▁llaqtach	-10.6907
▁nehemia	-10.6915
nmant	-10.6919
▁bautizaku	-10.6919
▁runap	-10.692
▁cuento	-10.692
mantaq	-10.6921
all	-10.693
▁lepra	-10.6935
▁pachaknint	-10.6938
▁gobiernont	-10.6941
▁mikunankupaq	-10.6943
▁samay	-10.6945
▁estudiaqkun	-10.6953
▁pasa	-10.6958
▁uchinankupaq	-10.6961
▁qarinchakuq	-10.6961
▁asuykunapaq	-10.6962
llam	-10.6963
▁pachkan	-10.6966
▁cumpli	-10.6978
▁ruraqkuna	-10.698
▁purun	-10.698
▁ruwasqank	-10.6984
▁dram	-10.6985
▁unku	-10.6994
▁qonqa	-10.7
▁niwasqanchik	-10.7002
▁tarikusqant	-10.7004
▁parte	-10.7009
▁unakuyninchik	-10.7013
▁ankuchu	-10.7018
▁nacionkunam	-10.7019
▁tantearurqak	-10.7027
▁atiene	-10.7032
▁predicasp	-10.7033
▁runakunapi	-10.7041
▁tanteaku	-10.7041
▁vene	-10.7045
▁numero	-10.7053
▁rikuchi	-10.7056
▁richin	-10.7057
▁japo	-10.7058
▁kamu	-10.7072
▁sin	-10.7078
qq	-10.7086
▁pacienciawan	-10.7103
▁qillqakuna	-10.7109
▁knorr	-10.7114
▁derechoyoq	-10.7118
▁reqsinankupaq	-10.7119
▁soltera	-10.7122
▁josafat	-10.7125
▁tanteank	-10.7127
io	-10.7136
▁miquea	-10.7141
▁saqesp	-10.7143
▁trago	-10.7146
▁pampacha	-10.7151
▁qollqemant	-10.7151
▁tatan	-10.7152
▁iyninta	-10.7157
▁chull	-10.7158
▁asia	-10.7168
▁willakuykunata	-10.717
▁yachaymi	-10.718
▁warminta	-10.7181
▁chaykunataqa	-10.7181
▁lluqs	-10.7183
▁suyasqan	-10.7208
▁yachankum	-10.7212
▁calle	-10.725
▁atapas	-10.7254
▁cheqapm	-10.7254
▁bendicionnint	-10.7256
▁espiritunp	-10.7261
▁yachayninchik	-10.7262
▁ankuman	-10.7271
▁tatas	-10.7273
▁ampa	-10.7276
▁horat	-10.7278
▁payku	-10.7284
▁kawsakunay	-10.7297
ptikichikq	-10.7298
▁tullu	-10.7302
▁canaan	-10.7303
▁bret	-10.7304
▁anam	-10.7305
napaqm	-10.7306
▁neh	-10.7309
▁controla	-10.7309
kunqak	-10.7313
▁payasqan	-10.7317
hin	-10.7322
▁runakunan	-10.7324
▁kallpayoq	-10.7328
▁achiy	-10.7331
▁predicananpaq	-10.7333
▁watasniyoj	-10.7335
▁ruwanaypaq	-10.7341
▁apach	-10.7341
▁cor	-10.7344
qk	-10.7354
▁congregaci	-10.7359
▁nacionkunat	-10.7362
▁mariap	-10.7362
▁wawanta	-10.7364
chkan	-10.7365
▁pall	-10.7366
▁rikuchisun	-10.7369
▁kasukunk	-10.7371
▁australia	-10.7372
▁qampaq	-10.7384
▁pachapa	-10.7384
▁precursore	-10.7385
▁llapanchik	-10.7385
▁machu	-10.7389
waq	-10.7392
▁anmantapas	-10.7398
es	-10.7407
peq	-10.7416
▁urachirq	-10.7436
▁chaskiyta	-10.7454
▁unakuyt	-10.7468
nanchikpaq	-10.7473
▁kur	-10.748
▁rantikuq	-10.7481
▁oficina	-10.7481
▁atisun	-10.7487
▁kuyakuyniyoq	-10.7492
▁sumajt	-10.7494
▁onqo	-10.7497
▁yachankuchu	-10.7498
▁parlayta	-10.7506
▁ejemplot	-10.7511
▁angelkunat	-10.7514
top	-10.7514
▁horap	-10.7516
▁wayq	-10.7518
▁religion	-10.7521
▁kananchi	-10.7526
▁rimasqay	-10.7528
▁chinanchik	-10.7531
▁afanakuy	-10.7531
▁nacion	-10.7544
▁rusia	-10.7552
▁suyakuyta	-10.7552
▁bendecisq	-10.7565
it	-10.757
▁qhelqa	-10.7578
▁qanmant	-10.759
▁kamachiqkuna	-10.7595
▁charu	-10.7597
▁huchalliku	-10.761
▁yacharqani	-10.7613
▁turi	-10.7628
ni	-10.7632
▁clase	-10.7635
▁tupasqant	-10.7637
▁yanu	-10.7637
▁qamkunaman	-10.764
▁llakip	-10.7644
▁especial	-10.7658
▁qusqan	-10.7665
▁anankuta	-10.7671
▁runapaq	-10.7674
▁qu	-10.7675
▁wasiyman	-10.7678
▁prepara	-10.7681
▁chaskina	-10.7682
▁corregi	-10.7685
naykipaq	-10.7688
▁kuyanaku	-10.7689
▁graciasta	-10.769
▁kamachikuyninta	-10.7695
▁servinaypaq	-10.7699
▁oqamant	-10.7706
ykip	-10.7714
▁killamanta	-10.772
▁tarisun	-10.772
▁rinayki	-10.774
▁orant	-10.7753
▁lawpim	-10.7754
▁sonq	-10.7771
▁sonqonmant	-10.7788
▁inqaku	-10.7794
▁tukuri	-10.7796
▁ukusqanp	-10.7803
▁rurasqankuwan	-10.7807
▁pura	-10.7809
▁nana	-10.7817
oq	-10.7818
yuq	-10.7842
▁sayan	-10.7847
▁ruranchik	-10.7849
nmank	-10.7867
▁ruwananchikpaq	-10.787
▁justo	-10.7879
▁luis	-10.788
▁serviqninkunap	-10.7882
▁aguantanapaq	-10.7887
nmanch	-10.7902
▁piensaq	-10.7903
▁servinaykipaq	-10.7909
▁llanku	-10.7923
▁waqaycha	-10.7924
sqankuwanm	-10.7926
▁kitam	-10.7927
▁huchayoqpaq	-10.7931
▁rimarq	-10.7932
▁encarga	-10.7932
▁yachachiqkuna	-10.7935
▁tantean	-10.7939
▁pagina	-10.7951
▁willakusqanta	-10.7952
▁qillqam	-10.7953
▁paytaq	-10.7956
▁qosant	-10.7961
▁kawsanku	-10.7969
▁qip	-10.797
▁llalla	-10.7978
▁kasukusun	-10.8006
▁vale	-10.8013
▁iywan	-10.8019
▁hampiy	-10.8028
▁runalla	-10.8032
▁filipo	-10.8044
▁kikinm	-10.8045
▁akllakun	-10.8047
▁premio	-10.8051
▁lliku	-10.8051
▁sutiwan	-10.8057
▁herenciata	-10.8057
▁takyachi	-10.8058
▁yanapasqa	-10.8059
▁oqanchikrayk	-10.8061
▁oqayku	-10.807
▁manchaku	-10.8076
▁pentecost	-10.8076
▁inglaterr	-10.8078
▁rikuriq	-10.8081
▁qollqeyoq	-10.8083
▁qosp	-10.8084
▁llamkayniyoq	-10.8085
▁grecia	-10.8088
▁mariata	-10.8093
▁kachkanki	-10.8097
▁qosa	-10.8099
▁sullk	-10.8099
▁qellqat	-10.8103
▁churana	-10.8107
▁yachanqa	-10.811
▁juanm	-10.8111
▁allichanapaq	-10.8114
▁chayamuptin	-10.8115
▁wakichi	-10.812
▁kawsaynin	-10.8121
▁humillakuq	-10.8122
▁pit	-10.813
▁kuyanakuychik	-10.8134
▁pachik	-10.8134
▁uchiy	-10.8135
anpas	-10.8137
▁qhipa	-10.8149
▁unidosp	-10.8151
▁hukkunapas	-10.8151
iy	-10.8157
▁religionmant	-10.8158
▁lloqsi	-10.816
▁ruwaspam	-10.8166
▁imatan	-10.8172
▁qawamusqanchikm	-10.8175
sun	-10.818
▁animalkuna	-10.8181
▁vidankut	-10.8185
chakunanchikmi	-10.8188
tarikusqankumant	-10.8193
▁nacen	-10.8194
▁anakuy	-10.8211
▁yuyaymana	-10.8215
▁mamanchik	-10.8217
▁ki	-10.8218
▁lata	-10.8221
rurq	-10.8226
▁brasil	-10.8226
▁ara	-10.8229
▁im	-10.8236
▁qepam	-10.8242
▁chinkaru	-10.8244
▁amurqa	-10.825
▁g	-10.826
▁awi	-10.8262
rqanich	-10.8266
▁alaba	-10.8273
▁lazaro	-10.8275
▁russell	-10.8282
▁nazaret	-10.8283
▁sofia	-10.8283
▁banco	-10.8285
▁qhipaman	-10.8286
▁paginankunat	-10.8288
▁awasqa	-10.8297
▁wawayoq	-10.8299
kunapaqm	-10.8301
▁naciones	-10.8302
▁yacharqakum	-10.8305
▁warmikunaqa	-10.8309
▁qalaypaq	-10.8323
▁kaqmantam	-10.8327
▁maki	-10.8334
▁rurananta	-10.8342
sqanchikq	-10.8351
▁yachin	-10.8362
▁capitulonp	-10.8383
▁atipanay	-10.8431
▁llamkas	-10.8432
▁kamachikuynin	-10.8432
▁naceq	-10.8432
rqan	-10.8434
▁kirayku	-10.8441
▁ruwaytaq	-10.8443
▁qamkunawan	-10.8451
▁ofrendata	-10.8462
▁qamkunapa	-10.8466
nitaqm	-10.8468
▁nisunki	-10.8471
▁imapa	-10.8477
▁faraonp	-10.8479
▁watakunam	-10.848
▁waqta	-10.8487
▁chaninniyoq	-10.8492
▁llaqtayuq	-10.8495
▁bautizaq	-10.8497
▁discurso	-10.8501
chkarqak	-10.8501
▁watayoj	-10.8511
▁achin	-10.8517
▁uchinanpaq	-10.8523
waptinchikq	-10.8528
▁parlarqa	-10.853
▁anachin	-10.8534
▁co	-10.854
▁qara	-10.8542
▁regalo	-10.8545
▁oqat	-10.855
▁oqapaq	-10.8551
▁ruranan	-10.8552
▁leon	-10.8559
▁yachi	-10.857
▁chaskisqa	-10.8575
▁paykunan	-10.8575
▁misi	-10.8585
rqakutaqm	-10.8585
▁reparay	-10.8589
▁nehemias	-10.8599
▁kuyayt	-10.8618
▁qosaq	-10.8619
▁sonqonchikt	-10.8626
▁apak	-10.8638
▁mi	-10.8639
▁cuidanan	-10.8642
▁chayku	-10.8646
▁oqanchikw	-10.8646
▁yachayninta	-10.8653
▁rikun	-10.866
▁anankup	-10.8662
▁niwaptinchik	-10.8663
▁kuyakuywan	-10.8668
▁universidadp	-10.8671
arqak	-10.868
▁ed	-10.8685
▁tapurqak	-10.8687
▁kuskan	-10.8697
▁imayuq	-10.8699
suptiki	-10.8699
▁heb	-10.8702
▁levitico	-10.8704
▁kuyayllapaq	-10.8704
▁new	-10.8705
▁wawacha	-10.8706
▁suyay	-10.8708
▁qowananchikpaq	-10.8711
▁punchawninp	-10.8713
chayqa	-10.8716
▁tanteanankupaq	-10.8719
▁paginanp	-10.8725
ma	-10.8725
kunamanta	-10.8728
▁qucha	-10.873
▁tarikusu	-10.8737
▁kinku	-10.8738
▁testigonkunaw	-10.8739
▁musyay	-10.874
sqanwanm	-10.8747
▁muyu	-10.8751
▁jan	-10.8752
▁munaychakuyninp	-10.8753
▁kuyank	-10.8762
▁arreglo	-10.8772
▁chaskinqak	-10.8775
▁kutin	-10.8778
▁munasqayki	-10.8781
▁kuyananchik	-10.8785
▁qollqe	-10.8785
▁contran	-10.8803
▁rimaytaq	-10.8809
▁qellqasp	-10.8813
▁puriyta	-10.8817
▁evangelio	-10.8818
▁humillakusp	-10.8821
▁yanapasunkim	-10.8826
▁jinach	-10.8827
▁ukuq	-10.8828
▁watata	-10.8843
▁kaspanchik	-10.8844
▁ti	-10.8844
▁harkach	-10.8845
▁akuqta	-10.8845
▁kaqllata	-10.8846
pis	-10.8849
aspanchikq	-10.8852
▁necesitan	-10.8854
▁celular	-10.8861
▁yachanman	-10.8877
▁chayaramuptin	-10.8888
▁kasukurqaku	-10.8901
▁mamakunam	-10.8902
▁qhasi	-10.891
▁uqam	-10.8911
anmant	-10.8911
yk	-10.8915
▁wayk	-10.8915
▁piensanay	-10.8916
▁jerem	-10.892
▁puriy	-10.8923
▁kachkantaqmi	-10.8924
▁kachkarqaku	-10.8932
▁caballo	-10.8932
sqanchikmanta	-10.8936
▁kunankamapas	-10.8937
▁sayapakuq	-10.8943
▁re	-10.8947
▁rin	-10.8948
kawsakuyninchikp	-10.895
▁kuyasqa	-10.8965
nanchikpaqq	-10.8965
▁lawninp	-10.8971
▁qawayt	-10.8975
ronica	-10.898
▁niyman	-10.8982
▁religiont	-10.8989
▁kuyanakusp	-10.9003
▁runamasinta	-10.9009
▁chaskinchik	-10.9009
▁paynin	-10.9022
▁necesitasqankut	-10.9025
▁panchu	-10.9029
▁wasinta	-10.903
▁china	-10.9036
▁unanchasqan	-10.9038
▁suyas	-10.9038
nam	-10.9046
▁creeq	-10.9056
▁amistadkunat	-10.906
nn	-10.9061
▁kaqmi	-10.9075
▁hamusqan	-10.908
▁oqaw	-10.9082
▁qokunk	-10.9088
▁cheqni	-10.9097
▁qa	-10.9099
waqm	-10.9102
▁fariseo	-10.9111
▁casarasqakuna	-10.9117
▁cuidan	-10.9118
▁tutam	-10.9125
▁uvas	-10.913
▁asambleap	-10.9131
▁respetasqa	-10.9136
▁apostolninkunat	-10.9136
▁amistadnint	-10.914
▁rikuchiwanchik	-10.9144
▁chinkachiyta	-10.9148
pt	-10.915
▁payas	-10.9155
▁ropa	-10.9165
▁cumplikunanpaq	-10.9165
▁tukuyninp	-10.9172
▁kuyakuyninp	-10.9173
eci	-10.9174
▁kawsayman	-10.9175
▁pach	-10.9186
▁qunan	-10.9189
▁confiakunapaq	-10.9193
▁salud	-10.9194
nejt	-10.9204
▁anaypaq	-10.9205
▁servichikurqak	-10.9208
▁maskasp	-10.9209
ninchikp	-10.9209
▁tapukuyta	-10.9211
▁pisilla	-10.922
▁alton	-10.9221
blica	-10.9224
▁ukun	-10.9226
▁juchach	-10.923
▁sunquwan	-10.923
▁wawayki	-10.9236
▁manaraqmi	-10.9238
▁rimayniyoq	-10.9239
▁gobiernop	-10.924
▁sonqonchikmant	-10.9242
ninchikq	-10.9243
▁piensar	-10.9243
▁ruwanchik	-10.9259
saq	-10.9263
▁todo	-10.9269
▁qhawaq	-10.9275
▁qamkunam	-10.9277
▁maskarq	-10.9282
▁ajllasq	-10.9286
ipa	-10.9287
▁nombra	-10.9302
▁churakuq	-10.9307
ykiq	-10.9308
▁bendeci	-10.9313
▁kichka	-10.9314
▁gobiern	-10.9323
▁rapa	-10.9335
▁contra	-10.9336
▁apasqa	-10.934
▁pasan	-10.9341
▁kachi	-10.9347
▁kusikurqak	-10.9351
▁rurunta	-10.9357
ruchw	-10.9364
▁diosllam	-10.9364
▁israelitas	-10.9368
▁hawanpi	-10.9372
▁tarisqa	-10.9372
▁chaninniyuq	-10.9377
▁sayach	-10.9377
▁wallpa	-10.9379
▁suticharqa	-10.939
▁kallpanchakusun	-10.939
▁kacharqa	-10.9394
▁chayt	-10.9395
▁cre	-10.9401
▁yachawaq	-10.9402
▁leypa	-10.9406
▁wakkuna	-10.9407
▁oqan	-10.9409
▁ezeq	-10.9409
▁niykun	-10.9411
▁anachiyta	-10.942
▁leeri	-10.942
aytam	-10.9421
anza	-10.9421
▁allinman	-10.9421
▁tarikusqankut	-10.9424
▁niyqa	-10.9429
▁kusiy	-10.9446
▁saqis	-10.9446
kurqanik	-10.9459
nchiktaqm	-10.9461
v	-10.9461
▁dos	-10.9472
llap	-10.9482
▁kikiy	-10.949
▁yachasqanta	-10.9491
▁est	-10.9491
▁qoch	-10.9491
▁tarpu	-10.9497
▁espiritunm	-10.9498
▁qamkunap	-10.9501
manch	-10.9507
▁qonanpaq	-10.9507
▁mayor	-10.9534
▁ukunp	-10.9538
▁apaqkunap	-10.9543
ur	-10.9549
▁babiloniap	-10.955
▁nacerqa	-10.9551
▁kutis	-10.9553
▁port	-10.9554
▁caballop	-10.9556
▁mamaywan	-10.9558
▁paganan	-10.9559
▁cheqaptam	-10.9575
▁sonqonchik	-10.9576
▁sonqonkup	-10.9586
▁usaq	-10.9594
▁droga	-10.9598
▁wischu	-10.96
▁jeremiasp	-10.96
▁usqhayllat	-10.9603
▁tanteoyoq	-10.9603
▁qukuykuq	-10.9603
▁cato	-10.9605
▁awparinankupaq	-10.9606
▁awincha	-10.9607
▁waqya	-10.9619
▁urqak	-10.9626
▁patan	-10.9629
▁imapaqpas	-10.9631
▁illan	-10.9632
▁llapallankum	-10.9639
▁fiestata	-10.9639
▁atinqaku	-10.9644
▁qaran	-10.9649
asq	-10.9651
▁suyu	-10.9655
▁muy	-10.9663
▁chaycha	-10.9671
▁mikun	-10.9674
▁noqa	-10.9675
▁miski	-10.968
▁qatin	-10.968
sqanq	-10.968
▁cuidakuy	-10.9681
▁unqusqa	-10.9689
▁uqkunat	-10.9696
▁uchiq	-10.9698
▁jinamant	-10.9707
▁tentasq	-10.9714
▁tutan	-10.9718
▁ach	-10.9718
▁unanchasqanmant	-10.9721
▁yupaychana	-10.9724
▁aypi	-10.9728
▁iqmasinkunaw	-10.9733
▁yachakuq	-10.9739
▁imallatap	-10.9753
▁yachankichik	-10.9754
▁prof	-10.9757
▁qawachinq	-10.9761
ntaqm	-10.9768
▁cain	-10.9771
▁ur	-10.9773
▁ichikun	-10.9774
pachkaq	-10.9777
▁tu	-10.9781
▁jobt	-10.9789
▁cartasqanp	-10.9789
▁judiokunam	-10.9791
piy	-10.9806
▁akllarurq	-10.9812
▁ruwaqk	-10.9814
▁su	-10.982
▁kaqpi	-10.9825
▁ruwasqanchik	-10.9828
▁kuyaychik	-10.9836
▁carne	-10.9839
▁lluqsin	-10.984
▁kasukunay	-10.9844
▁masnin	-10.9854
▁qallarerq	-10.9855
▁yachirqa	-10.9857
▁ga	-10.9862
▁yachanchu	-10.9863
▁parrafokuna	-10.9868
▁yachasqanchikm	-10.988
waqninchik	-10.9881
▁yachanayki	-10.9882
▁novi	-10.9885
▁uchku	-10.9889
kantaqmi	-10.9893
▁yachachirqak	-10.9894
▁kallpanchik	-10.9905
▁contranpim	-10.9909
z	-10.9911
▁llasaq	-10.9916
▁unchik	-10.9916
▁kasu	-10.9918
▁janaqpachap	-10.992
▁gana	-10.993
▁qokun	-10.9933
▁capitulo	-10.9934
▁rinqa	-10.9935
▁qanw	-10.9938
▁atinku	-10.9939
▁yachani	-10.9942
▁isq	-10.9942
▁horqo	-10.9944
▁consej	-10.9946
▁agradecesq	-10.9953
▁amistad	-10.9953
antam	-10.9955
plica	-10.9955
▁kallpachaku	-10.9962
▁confia	-10.9963
▁atirqani	-10.9967
▁rikchay	-10.9978
▁picha	-10.9981
acio	-10.9983
▁qawachinapaq	-10.999
▁cuida	-11.0003
▁llaq	-11.0005
▁asuykusp	-11.0006
▁kaqtam	-11.0007
spaykichikq	-11.001
▁castellano	-11.0011
▁kawsachkan	-11.0011
antaq	-11.0016
▁videot	-11.0018
kuchw	-11.0022
▁nisqaqa	-11.0024
int	-11.0028
▁confianzaw	-11.0033
▁kamachina	-11.0033
▁castigo	-11.0036
▁sonqoykiw	-11.0036
chikch	-11.0037
▁nit	-11.004
▁chinkasqa	-11.0041
▁salomonm	-11.0042
▁atiparqa	-11.0049
▁qosqant	-11.005
▁waku	-11.0051
▁punku	-11.0051
▁orqo	-11.0051
▁joseyt	-11.0053
▁willananpaq	-11.0061
▁saqiy	-11.0066
puni	-11.0068
▁qawakurq	-11.0072
▁mois	-11.0078
▁librarq	-11.0078
▁qayay	-11.0082
▁herodes	-11.0085
▁qawachichk	-11.0085
▁wakill	-11.009
▁allichasqa	-11.009
▁george	-11.0092
▁atipayta	-11.0093
▁catolico	-11.01
▁leen	-11.01
▁astawanm	-11.0102
▁pilla	-11.0104
▁librananpaq	-11.0112
aya	-11.0119
▁vidanp	-11.0121
▁munaychakusqan	-11.0131
▁buquet	-11.0133
▁aykunapi	-11.0137
▁pozo	-11.0139
▁cuerpop	-11.0152
▁rikunchik	-11.0153
▁uym	-11.0154
▁kuyakuyninmant	-11.0155
▁kuyaku	-11.0159
naykichikpaq	-11.016
sqankuraykum	-11.016
▁hinar	-11.0167
▁kacham	-11.0167
▁versiculosp	-11.017
▁qollqepaq	-11.0173
▁filipina	-11.0175
▁chaykurqa	-11.0177
▁salvanan	-11.018
▁palacio	-11.0181
▁atinmankum	-11.0182
▁pasarun	-11.0187
▁kasukurqak	-11.0188
manjin	-11.0193
▁cuidakunanchik	-11.0201
▁cheqnisq	-11.0209
▁tarichw	-11.021
▁akllas	-11.021
▁qawarqan	-11.0211
▁wasan	-11.0212
aptinchikq	-11.0213
▁tito	-11.0213
▁hamp	-11.0214
▁yaykuna	-11.022
▁paraisop	-11.0223
▁qallaykuptin	-11.0227
▁atispa	-11.0237
kunchej	-11.0241
▁unakuykun	-11.0257
▁panin	-11.0263
▁kikill	-11.0269
▁tanteayt	-11.0282
▁qaylla	-11.0282
ypaqm	-11.0293
▁purin	-11.0295
mo	-11.0302
▁rikurimun	-11.0305
nich	-11.0307
▁suyuman	-11.0319
▁kaspam	-11.0325
▁saqerurq	-11.0331
▁mayordomo	-11.0335
▁belen	-11.0336
▁ganas	-11.0338
▁claro	-11.0342
watchtow	-11.0343
▁kasukuspankum	-11.0344
▁sof	-11.0349
▁hamurqa	-11.0352
▁jeremias	-11.0358
▁rikhurin	-11.0363
▁iqmasinkut	-11.0369
ykichikp	-11.0376
▁hukllap	-11.039
wanraqm	-11.0396
di	-11.0397
ata	-11.0398
▁sunqunta	-11.0399
▁jesucristopi	-11.0401
▁qatipakuyt	-11.0405
▁tapus	-11.0412
▁creey	-11.0415
▁purisqan	-11.0417
▁casarakusp	-11.0419
▁munaychaku	-11.0426
▁kuch	-11.0437
▁patapi	-11.0442
▁espada	-11.0443
▁parlay	-11.0444
▁hamusqanta	-11.0449
▁ayqa	-11.0452
▁kasukuptinchik	-11.0456
ypi	-11.0462
▁kutitam	-11.0467
▁vidata	-11.0473
▁pisim	-11.0477
▁tarisqan	-11.0482
kut	-11.0484
▁qokurqan	-11.0485
▁munaspan	-11.0489
entiendenaykipaq	-11.0492
▁nir	-11.0495
▁tantearurqan	-11.0496
▁mamanm	-11.0496
wanchikm	-11.0506
▁respetas	-11.0507
▁quri	-11.0509
b	-11.0516
▁yuyaywan	-11.0516
▁qariw	-11.0519
apaq	-11.0522
▁testigon	-11.0528
▁yupaycha	-11.0541
▁wasikunapi	-11.0546
▁uyway	-11.0554
▁marco	-11.0574
▁kachkaptinku	-11.0575
▁tukukuy	-11.0581
▁llaqtakunaman	-11.0583
▁ayqi	-11.0585
▁hurqu	-11.0587
▁grupo	-11.0594
▁kuyasun	-11.06
▁punkun	-11.06
▁apostolninkun	-11.0601
▁hikuta	-11.0604
▁yanapawarqak	-11.0606
▁atinchu	-11.0611
▁kamataq	-11.0613
▁muyuriqninpi	-11.0616
▁cheqaptapunim	-11.0618
▁mamayta	-11.0628
▁milagrota	-11.0632
▁tukuspa	-11.0632
▁kikinta	-11.0637
▁kallpanchay	-11.0637
▁ruwanant	-11.0638
▁eliaspa	-11.0639
▁churakun	-11.0639
▁aqkunata	-11.0641
yuqm	-11.0645
▁ec	-11.0648
aqm	-11.0651
ki	-11.0653
▁riyqa	-11.0653
▁mes	-11.0658
▁cristianosta	-11.0662
▁kanchay	-11.0662
▁maskanapaq	-11.0668
▁chayarqa	-11.067
▁llamkach	-11.0673
▁ruraymi	-11.0674
▁jobp	-11.0677
▁qellqanchikkuna	-11.0687
niyoq	-11.0696
▁carnero	-11.0697
▁churinmi	-11.0699
▁mit	-11.0708
▁riytaq	-11.0708
▁bautizakurqan	-11.0713
▁reina	-11.0716
▁tukusqan	-11.0717
tawan	-11.0721
▁mikuy	-11.0722
▁bendecirq	-11.0725
▁libra	-11.0725
yp	-11.0726
▁rpa	-11.0726
ayt	-11.0728
anapawasqanchikt	-11.0732
▁kawsakuq	-11.0733
▁hinasp	-11.0741
▁tarpuy	-11.0742
▁kamachikuykuna	-11.0746
▁por	-11.0754
▁munaychakusqant	-11.0755
▁cristianokun	-11.0756
▁cartant	-11.0763
▁estudiay	-11.0779
▁kaqllam	-11.0784
nant	-11.0786
▁jerusalenta	-11.0788
▁yupaychasqa	-11.0789
▁umalli	-11.079
▁qayllay	-11.079
▁chaskinay	-11.0794
▁har	-11.0795
▁wacha	-11.0802
▁taytam	-11.0814
▁kikunam	-11.0824
▁adora	-11.0832
▁uray	-11.0833
▁munasqayt	-11.0834
▁llaqt	-11.0836
▁qawaspanchik	-11.0836
▁rikuchin	-11.0837
▁ruraypi	-11.0846
▁hikutasq	-11.0846
▁tupac	-11.0853
▁rap	-11.0854
▁juec	-11.0855
▁antonio	-11.086
▁munanichu	-11.0863
▁mikunanpaq	-11.0865
▁iskayniyoq	-11.0866
▁rinki	-11.0869
kup	-11.0875
▁carcelmant	-11.0875
▁tanteananchik	-11.0877
▁munakuywan	-11.0877
▁paginankunap	-11.0877
▁achkat	-11.0879
▁pachu	-11.0883
▁sut	-11.0883
▁saqina	-11.0886
▁chimpa	-11.0894
▁libron	-11.0896
▁mikunapaq	-11.0897
▁tiki	-11.0899
▁kamachimu	-11.0902
▁kallpaq	-11.0907
▁kawsaymanta	-11.0909
nanchikpaqm	-11.0912
▁yanapachiku	-11.092
▁predicananchik	-11.0926
▁faraon	-11.0928
▁jerusalenmant	-11.0931
▁urqhukusq	-11.0939
▁paykun	-11.0942
ytapa	-11.0946
kusqanmant	-11.0946
▁tupachisqa	-11.0946
▁yawarta	-11.0948
▁soldados	-11.0952
up	-11.0957
▁parqa	-11.096
▁yachankich	-11.096
▁orll	-11.096
▁atisunman	-11.0961
▁hapiy	-11.0964
llar	-11.0966
▁mamaypa	-11.097
▁oqanchikm	-11.097
▁llaqtam	-11.0978
▁huktawan	-11.0991
▁watanp	-11.0998
▁tarikusqanchik	-11.1002
▁qawasqanchik	-11.1004
▁sonqonkumant	-11.1008
▁watapit	-11.1011
▁kawsarimunqak	-11.1012
▁ruwasqanw	-11.1013
▁jesustaq	-11.1014
▁tukunanpaq	-11.1018
▁eliseo	-11.104
▁acab	-11.1043
▁kiru	-11.1045
▁qarqu	-11.1056
▁qamkunata	-11.1066
▁munachkani	-11.107
▁wischusq	-11.1074
▁kamachisnin	-11.1074
▁rikurirun	-11.1078
▁achiyta	-11.1079
▁qallari	-11.108
▁apana	-11.1081
▁pasakusqan	-11.1091
▁mun	-11.1095
▁millay	-11.1096
sqanchikraykum	-11.1109
naqa	-11.1118
▁kusikurqan	-11.1119
▁illa	-11.112
▁asociacio	-11.1125
▁nathan	-11.1125
▁qowarqanchik	-11.1126
▁pisip	-11.1129
▁kuyasqanraykum	-11.1131
▁predicarq	-11.1135
yoj	-11.1137
▁qawachinankupaq	-11.1142
▁familianp	-11.1143
▁tukus	-11.1148
▁kawsasqankut	-11.1148
▁kasukuptinku	-11.115
▁kaqninmi	-11.1153
▁qerup	-11.1156
▁sirvientemasin	-11.1157
▁ruru	-11.1157
tapas	-11.1158
▁qarimasi	-11.1159
▁ruwanayk	-11.1164
▁chiqni	-11.1172
kallpanchakurqak	-11.1178
▁wakillan	-11.1181
▁islap	-11.119
▁jonatan	-11.1192
▁kapuqllan	-11.1193
▁akunman	-11.1193
▁jallpa	-11.1196
iw	-11.1199
▁qosunkichik	-11.1203
▁unanchasqankuna	-11.1204
▁maqakuq	-11.1208
▁ayni	-11.1208
▁risqay	-11.1215
▁qawananpaq	-11.1217
▁hamuptin	-11.1218
▁kayninpi	-11.1219
kuptinchikq	-11.122
▁ninakun	-11.1223
▁kawsasqay	-11.1232
▁onqoqkunat	-11.1234
▁qosanp	-11.1253
▁mark	-11.1253
▁discipulosninm	-11.1263
ir	-11.1269
▁confiaku	-11.1274
▁angelkunapa	-11.128
▁ruwasqankum	-11.1281
natam	-11.1286
▁sim	-11.1287
▁parlas	-11.1292
chiwaqninchik	-11.1295
▁kuyanchik	-11.1295
▁unayta	-11.1298
▁yachaspan	-11.1301
▁onqosq	-11.1304
▁sasachaku	-11.1305
▁moz	-11.1306
ic	-11.1308
▁nichkar	-11.1325
▁rimu	-11.1332
▁kikikip	-11.1332
▁kayniyoq	-11.1336
▁uyarirqak	-11.1346
▁qepa	-11.1348
▁cristianopa	-11.1359
▁cielop	-11.1363
▁venga	-11.1363
▁ananchi	-11.1377
▁qokusp	-11.1378
sunm	-11.1386
nkup	-11.1392
▁kayku	-11.1392
▁sitiop	-11.1401
▁habacuc	-11.1403
▁irlanda	-11.1403
iliar	-11.1403
▁le	-11.1407
▁niwanchej	-11.1409
▁kallpanchakusqa	-11.141
▁haku	-11.1412
▁consejarq	-11.1414
▁nisun	-11.142
kunay	-11.1423
▁yaychu	-11.1423
warq	-11.1427
▁sunqunkuwan	-11.1429
▁ya	-11.1433
▁chinchu	-11.1434
▁kallpanchawa	-11.1444
▁yachachisqay	-11.1454
▁pataq	-11.1454
▁kamaqa	-11.1456
▁abrahamta	-11.1464
▁awin	-11.1465
▁tikrasq	-11.1471
▁puy	-11.1471
▁predicacionp	-11.1474
▁estudi	-11.1474
▁jeremiast	-11.1475
▁josuey	-11.1487
▁manka	-11.1487
▁sa	-11.1488
▁tanteakunanchik	-11.1491
▁chaskinanpaq	-11.1494
▁atipachw	-11.1494
▁salvan	-11.1498
▁kasqanchikm	-11.1499
▁yaqach	-11.1502
▁juzgasq	-11.1503
▁vid	-11.1508
▁yachachispa	-11.1512
▁maykaj	-11.1514
nkuch	-11.1518
▁rimarin	-11.152
▁kuyasqankut	-11.1525
▁rupa	-11.1534
en	-11.1537
▁pukllan	-11.154
▁angel	-11.1547
▁rakina	-11.1547
▁palabranm	-11.1549
▁serviyninchikp	-11.1557
▁jinallat	-11.1561
▁akllana	-11.1563
▁runamas	-11.1563
nkichik	-11.1566
▁paraiso	-11.1567
▁akllaku	-11.1569
▁malaquia	-11.1569
▁sunqunwan	-11.1587
mantaqa	-11.1589
▁uqanchikmant	-11.159
▁warminwan	-11.1596
▁wira	-11.1597
▁predicaqkunap	-11.1597
▁masta	-11.1599
▁falta	-11.1602
▁chayllata	-11.1604
▁ruwaykun	-11.1608
uario	-11.1612
▁chakin	-11.1613
▁musyan	-11.1627
▁mayk	-11.1639
▁kuyasqanmant	-11.1643
▁imaynas	-11.1644
g	-11.1648
▁mich	-11.165
▁surq	-11.1656
▁castiganan	-11.1658
▁qusay	-11.1658
▁sisi	-11.166
▁kutiy	-11.1665
▁chinkachis	-11.1666
wanpa	-11.1676
▁anninta	-11.1679
▁yapakuchk	-11.1682
▁pierdeku	-11.1682
▁amigon	-11.1685
▁amigos	-11.1685
▁quyku	-11.1688
▁rahab	-11.1688
▁caleb	-11.1688
▁abuelo	-11.1688
▁charles	-11.1688
▁hatarichiypi	-11.1691
▁france	-11.1692
▁kins	-11.1698
▁llalli	-11.1698
▁menos	-11.17
wa	-11.17
▁rikuri	-11.1703
▁paykunanpaq	-11.1704
▁makinta	-11.1713
▁di	-11.1716
▁paykurqa	-11.1717
▁tiempowan	-11.1722
sqankumanta	-11.1734
▁llakipayakuq	-11.1735
▁apakuyta	-11.1745
▁kulla	-11.1746
er	-11.1749
▁infiernop	-11.1762
▁runatapas	-11.1764
▁richi	-11.1766
▁esa	-11.1773
▁yachanim	-11.1775
▁kawsayninchikp	-11.1785
▁ayllunta	-11.1788
▁tantearun	-11.179
chwantaqm	-11.1791
▁lugar	-11.1795
wasqanchikraykum	-11.1798
▁uyarina	-11.1799
▁arqanku	-11.1802
▁repara	-11.1807
▁impuesto	-11.181
al	-11.1818
▁aptinmi	-11.1819
▁iqta	-11.1821
▁maskank	-11.1838
▁ruwachkank	-11.1842
▁munanqa	-11.1843
▁cuidado	-11.1843
▁chinanta	-11.1848
▁llas	-11.1849
chkaptinm	-11.1858
chiyt	-11.1867
aqa	-11.1867
▁ban	-11.187
▁pierde	-11.1871
▁guardia	-11.1871
▁asqayta	-11.1874
▁angelkunam	-11.1879
▁rurasaq	-11.188
▁qallu	-11.1891
▁yachachikuyninp	-11.1901
▁pallam	-11.1903
▁paul	-11.1903
spanchikm	-11.1913
▁cigarro	-11.1919
▁kikillanta	-11.1919
▁kutip	-11.192
▁domingo	-11.1932
▁will	-11.1937
▁agradecekuq	-11.1941
nenq	-11.1948
rqach	-11.1951
▁kaqman	-11.1954
▁willarq	-11.1955
▁yanapasq	-11.1963
▁qoyt	-11.1976
▁ingl	-11.1976
▁niniv	-11.198
▁mostaza	-11.1982
▁jueces	-11.1983
▁kasqaykichikta	-11.1984
▁apam	-11.1985
▁warmikunata	-11.1986
ut	-11.1991
▁kurunku	-11.1996
▁revistat	-11.2004
▁hinataqmi	-11.2004
▁forastero	-11.2007
▁estudiot	-11.2009
▁religionkunat	-11.2011
▁bote	-11.2014
▁punkuta	-11.2014
▁huchallikuru	-11.2018
▁kachirqa	-11.2028
▁qillqay	-11.2029
▁wakichisqa	-11.2033
▁tupaq	-11.2034
▁rimapay	-11.2035
▁ankuna	-11.2036
▁kasqankum	-11.2036
▁runaspa	-11.2043
▁inchasqa	-11.2044
▁salonp	-11.2046
▁hatunchan	-11.205
▁chinkanan	-11.2054
▁rurakun	-11.2057
ast	-11.206
▁cumplikunq	-11.206
aym	-11.2062
▁vidaykip	-11.2066
▁watapitaq	-11.2069
▁kawsasqanmanta	-11.207
▁baal	-11.207
▁cumplinapaq	-11.207
▁yanap	-11.2081
▁yachachikuynin	-11.2085
▁waqas	-11.2087
▁hukpa	-11.2089
▁cura	-11.2095
▁rato	-11.2103
▁aceituna	-11.2105
▁rimananku	-11.2105
▁wasiypi	-11.2107
▁iynikip	-11.212
▁papel	-11.2121
▁novio	-11.213
▁payllata	-11.2144
▁chall	-11.2148
ptink	-11.2153
▁ruega	-11.2155
▁kawsaspa	-11.2155
▁munanqak	-11.2164
▁qellqanchikkun	-11.2181
▁qari	-11.2199
▁karpa	-11.22
▁ukunankam	-11.2203
▁yacharun	-11.2208
▁chaya	-11.2211
▁hinapas	-11.2218
▁eze	-11.2224
▁tapukuchw	-11.2228
▁imatawan	-11.2234
▁uywaq	-11.2244
▁jeftey	-11.2262
nin	-11.2262
on	-11.2263
▁kusiku	-11.2263
chkapt	-11.2264
▁yanapawaq	-11.2265
▁tarirqa	-11.2271
▁tikra	-11.2273
▁qata	-11.2273
▁machuy	-11.2279
▁kuyakuyn	-11.228
▁rikuru	-11.2283
▁llapanpi	-11.2288
▁qepallatam	-11.2291
reserva	-11.2292
▁waqtanpi	-11.2297
▁lazarota	-11.2302
▁preocupasq	-11.2305
nap	-11.231
▁concienciayoq	-11.231
▁angelm	-11.2312
▁ruwasqanp	-11.2313
▁leenapaq	-11.232
ywanm	-11.2322
▁simipi	-11.2324
▁akururq	-11.2327
▁ikita	-11.2328
araq	-11.233
▁tanteasqanchik	-11.233
▁alabanapaq	-11.2331
▁ha	-11.2333
▁paykichik	-11.2335
▁sarata	-11.2336
▁qawachiwasun	-11.2338
▁judiokunat	-11.234
▁qipa	-11.2348
▁tarikuy	-11.2354
▁allpamanta	-11.2357
▁ruraytapas	-11.2358
▁kanap	-11.2359
▁israelitakunap	-11.2367
ot	-11.2368
▁qoyku	-11.2372
llanw	-11.2372
▁ruwaptinchik	-11.2372
▁sano	-11.238
▁alasq	-11.2384
▁kamachim	-11.2384
▁chakran	-11.2389
▁kachkaptinqa	-11.2393
▁cant	-11.2393
▁chur	-11.2417
▁era	-11.2429
▁marta	-11.2434
▁blic	-11.2439
▁anakuna	-11.2446
▁imastat	-11.2448
▁atisunm	-11.2457
▁kawsaychik	-11.2464
▁allpap	-11.2467
▁japi	-11.2468
▁agradecekurq	-11.247
▁estudiaspanchik	-11.2472
ymant	-11.2475
▁reparana	-11.2476
▁ankichu	-11.2478
▁samana	-11.2483
anmi	-11.2484
▁autoridadkunam	-11.2487
▁reyta	-11.2499
▁nirqakum	-11.2499
▁ayqe	-11.2503
▁rimaylla	-11.2505
▁entrega	-11.2509
▁rom	-11.2511
▁qoku	-11.2515
▁jerusalenp	-11.2523
▁qawasqant	-11.253
ptiykum	-11.2533
▁kallpasapa	-11.2549
▁letra	-11.255
▁piensarqani	-11.255
▁bautizakurqak	-11.255
pajt	-11.2552
▁cq	-11.2552
▁tomas	-11.2552
▁yachaychik	-11.2553
▁munarqanik	-11.2555
▁qawachirqam	-11.2564
▁tarikuna	-11.2567
▁utqayllaman	-11.2574
▁pilato	-11.258
▁ruwanm	-11.2584
▁fiscal	-11.2585
▁uyan	-11.2586
▁maylla	-11.259
▁hamurqan	-11.2591
▁carcelm	-11.2592
▁uqanchikp	-11.2594
sqayt	-11.2596
▁zac	-11.2597
▁ruwayninchik	-11.2597
▁mundial	-11.2598
▁sodoma	-11.2598
▁asuykuychik	-11.2599
▁yuyayniyoj	-11.2603
▁jordan	-11.2604
▁qawaychik	-11.2605
▁parlasqan	-11.2611
▁metro	-11.2622
▁revelacionninp	-11.2624
▁kallpayuq	-11.2624
▁pasas	-11.2625
▁qosayk	-11.2626
▁espiritunwan	-11.2626
▁rica	-11.263
▁qokurq	-11.2631
▁qhipan	-11.2635
▁horqosq	-11.2636
nkutaqm	-11.2636
▁qawaytaq	-11.2637
▁watay	-11.2644
▁bendecis	-11.2645
▁sasachakuyp	-11.2647
▁chaykunawan	-11.265
▁yachachirqan	-11.2655
▁reyqa	-11.2657
▁qoychik	-11.2658
▁cumplinanpaq	-11.266
▁qaway	-11.2667
▁qawachiyt	-11.2668
▁watuku	-11.2673
▁amistadkuna	-11.2676
kunapa	-11.2678
▁serviqkunap	-11.2683
spaykum	-11.2688
▁luc	-11.2688
spam	-11.27
gradecekunanchik	-11.2707
▁respetasqant	-11.2708
▁abuel	-11.2715
▁chayaramupt	-11.2718
▁uqapa	-11.2726
▁nisa	-11.2727
▁runtu	-11.2731
▁munayman	-11.2745
▁kaypas	-11.2748
▁mo	-11.2751
▁yachanaykipaq	-11.2756
▁qonqananchik	-11.2757
nan	-11.2768
yanapawarqanchik	-11.2772
▁angelkunap	-11.2777
▁pawaq	-11.2779
▁qunqanan	-11.2783
▁admirasq	-11.2785
▁amistadnin	-11.2796
▁hu	-11.2801
aynatam	-11.2813
▁colosa	-11.2815
▁enemigoy	-11.2816
▁ananku	-11.2821
▁tarikunq	-11.2822
▁amistadninkun	-11.2827
la	-11.2828
▁os	-11.2834
▁kikillanchikp	-11.2835
chiwarqanchik	-11.2837
▁sutiki	-11.2838
▁kutichirqa	-11.284
▁wawalla	-11.2848
▁chayananpaq	-11.2857
aj	-11.2859
▁hinach	-11.2862
▁hurqus	-11.2865
▁atinam	-11.2866
▁wichq	-11.2876
▁patronn	-11.2879
spaq	-11.2881
▁sullu	-11.2888
▁lawpi	-11.289
▁reqsiku	-11.2892
▁run	-11.2894
▁akurqak	-11.2909
▁casarakurq	-11.2911
▁bautizakusq	-11.2912
▁ayninta	-11.2913
▁igual	-11.2914
▁yarunan	-11.2914
▁ruwaptinku	-11.2916
▁empresa	-11.292
▁entienderqak	-11.2921
▁jerico	-11.2923
▁apostolkuna	-11.2925
▁hatarin	-11.2926
▁ruwanankumant	-11.2927
▁barco	-11.2928
ypaqmi	-11.293
▁maskanankupaq	-11.293
▁pasarurq	-11.2934
▁filistea	-11.2935
▁qepancha	-11.2935
▁tanteasq	-11.2936
▁churarun	-11.2937
▁ruwayniyuq	-11.2939
▁sabado	-11.2941
▁pakunchik	-11.2941
▁rikichik	-11.2942
▁leenaykipaq	-11.2943
▁yapa	-11.2944
▁altar	-11.2945
▁oqanchikt	-11.2948
▁religio	-11.2951
▁atinki	-11.2952
▁allinch	-11.2956
▁pakunanpaq	-11.2957
▁kaptiy	-11.2958
▁miq	-11.2966
▁qipat	-11.2966
rikchanachisqanp	-11.2968
apaqq	-11.2968
▁maskaychik	-11.2968
▁qokunchik	-11.2969
▁llakikunapaq	-11.2976
▁tanteananpaq	-11.2981
chkaptinkum	-11.2981
▁bautizakuyt	-11.2982
▁kuyananchikpaq	-11.2983
llat	-11.2983
▁tapuptinku	-11.2989
▁millonnin	-11.299
allinninchikpaqm	-11.2991
▁urpi	-11.2993
▁bendeciwasun	-11.2993
▁kasqayku	-11.2998
▁manapuni	-11.2998
▁munasun	-11.3001
▁sutincharinap	-11.3001
▁pu	-11.3002
▁qawanqak	-11.3002
▁atal	-11.3003
▁suyun	-11.301
▁tarikunman	-11.3011
▁esau	-11.3014
▁tarikuspayki	-11.3026
▁kamaman	-11.3028
▁wasipim	-11.303
▁qoy	-11.3038
▁kunallan	-11.3044
▁diosninchikm	-11.3057
▁respetay	-11.3065
rimunanku	-11.3069
▁chinkarachiy	-11.3071
▁mamakunata	-11.3074
▁kutichis	-11.3075
▁kach	-11.3076
▁yaykus	-11.308
▁khuyakuy	-11.308
▁kuyasqaykit	-11.3085
▁akunapi	-11.309
▁videokun	-11.3092
wany	-11.3094
▁qellqaqm	-11.3103
▁yachachiypi	-11.3109
▁ruwanankut	-11.3114
▁nacerqan	-11.3119
▁moisesmant	-11.3122
▁ruwakurq	-11.3128
▁runanku	-11.3129
▁betelm	-11.3129
▁tinchik	-11.3138
▁conciencianchik	-11.3143
▁uqamant	-11.3144
tot	-11.3148
▁qepancharurq	-11.3152
▁ruwanmank	-11.3155
▁michi	-11.3159
▁ninata	-11.3164
▁jacobo	-11.3164
ptiym	-11.3172
▁uyarispan	-11.3174
▁aswanraq	-11.3178
▁mosc	-11.3179
▁achiq	-11.3181
kim	-11.3185
▁ben	-11.32
▁kanankama	-11.3208
▁kaykunapi	-11.3213
▁sienteku	-11.3222
▁kin	-11.3225
▁atencionw	-11.3225
▁kuyay	-11.3227
▁maqana	-11.323
▁apachin	-11.323
ru	-11.3239
▁salomo	-11.3239
▁yachakun	-11.324
▁fierro	-11.3242
nmankum	-11.3244
yki	-11.3249
▁tupay	-11.3251
▁sirvientemant	-11.3251
▁machkha	-11.3254
▁hamuchun	-11.3254
▁religionniyuq	-11.3256
▁yupaycharqak	-11.3257
▁yanapawanchej	-11.3258
▁hech	-11.326
▁carlos	-11.3267
▁tiempolla	-11.3269
▁qonankupaq	-11.3275
▁piensaspankum	-11.3278
▁chinki	-11.3281
▁rimaqk	-11.3283
▁ruwananchej	-11.3284
▁predicaqkun	-11.3285
▁huchay	-11.3291
▁willakuqkunap	-11.3291
▁simin	-11.3292
▁entiendena	-11.33
▁leyta	-11.3304
▁ruwanamant	-11.3305
▁sunqum	-11.3307
▁qosayki	-11.331
▁cumplikunanmant	-11.3312
▁tantearq	-11.3314
▁qusanta	-11.3317
▁favorecesq	-11.3324
▁anayki	-11.3325
▁cumplirq	-11.3326
tach	-11.3328
▁adant	-11.333
▁autoridadkunat	-11.333
sqanchikmantapas	-11.3331
▁tullun	-11.3332
qellqanchikkunat	-11.3334
▁hatari	-11.3337
sqanrayk	-11.3338
▁qawachinmank	-11.3342
▁sunqunpi	-11.3343
▁q	-11.3344
nikum	-11.3346
kuyta	-11.3347
▁santon	-11.3348
▁defiende	-11.3356
▁llama	-11.3357
▁saqeru	-11.3361
▁pachanta	-11.3364
▁chap	-11.3365
dad	-11.3367
▁ruwasqankuw	-11.3373
▁camello	-11.3378
▁cama	-11.3384
▁qosakun	-11.3384
▁rimar	-11.3394
▁puyn	-11.3397
▁cab	-11.3401
▁hatarichi	-11.3405
chakuptinchikqa	-11.3409
asp	-11.3409
▁kashajt	-11.3418
▁moqo	-11.342
▁onqosp	-11.3431
▁kachkanmi	-11.3433
▁pikunat	-11.3435
▁orayk	-11.3448
▁hukta	-11.3449
▁tarirurq	-11.3454
cio	-11.3458
uptinq	-11.3461
▁yachanaypaq	-11.3462
▁takyana	-11.3462
▁desgraciakun	-11.3471
▁wall	-11.3471
▁plan	-11.3477
apt	-11.3485
ad	-11.3487
▁juzga	-11.3498
kip	-11.35
▁hunta	-11.3502
warqanchik	-11.3506
▁willamu	-11.3507
▁estudian	-11.3507
▁tienen	-11.3518
▁oqanchikta	-11.3519
▁quwasqanchik	-11.3523
▁regal	-11.3525
▁chaskisqant	-11.3525
▁yapakusqan	-11.3526
▁entero	-11.3533
ankut	-11.3535
▁kaqtaq	-11.3537
▁sayku	-11.3539
▁cristianokunaw	-11.355
▁runay	-11.3553
▁autoridadkunap	-11.3554
▁tribunal	-11.3555
▁suticharqak	-11.3556
▁cuerponchikp	-11.3563
▁kallpay	-11.3565
▁tapukusun	-11.3571
unay	-11.3579
▁munakun	-11.3582
▁willasqan	-11.3589
▁kasha	-11.359
▁rikuchink	-11.359
▁mesias	-11.3596
anp	-11.3596
pajq	-11.3598
▁minuto	-11.3598
▁similla	-11.3601
▁susana	-11.3602
▁thun	-11.3604
▁oyanq	-11.3604
▁capitulonpim	-11.3605
▁yachasqankuta	-11.3606
▁qallupi	-11.3607
▁he	-11.3608
▁achkanp	-11.361
▁isla	-11.3611
▁felipe	-11.3612
▁churaq	-11.3613
▁jaykaq	-11.3613
sqankurayk	-11.3613
▁trato	-11.3619
▁mesiasmant	-11.3619
▁wawayuq	-11.3621
▁porta	-11.3623
▁paykipas	-11.3625
▁llanta	-11.3638
▁sienti	-11.3639
▁utqayllam	-11.3642
▁punkunta	-11.3648
▁kunat	-11.3649
▁kamachiqkunata	-11.365
▁wajkunat	-11.3654
▁rimaymanta	-11.3665
ra	-11.3666
▁uyp	-11.3671
▁kusichiyta	-11.3673
▁servichikuchw	-11.3677
▁nirqanku	-11.3681
▁runapi	-11.3683
▁kuyu	-11.3691
▁radio	-11.3691
▁yachachiwarq	-11.3691
▁rurani	-11.3694
▁sonqonm	-11.3697
▁ruraqk	-11.3699
▁kayniyoqkun	-11.37
▁tariy	-11.3701
▁akusu	-11.3702
▁pachaku	-11.3708
▁espirituntam	-11.3709
▁rikurus	-11.372
▁mask	-11.372
▁semanapi	-11.3727
▁cristianop	-11.3729
▁f	-11.373
▁wawaykuna	-11.3745
▁kusiriku	-11.3757
▁cuentallikuq	-11.3758
▁punchaw	-11.3758
▁universidad	-11.3761
▁qonqasp	-11.3769
▁kall	-11.3776
▁ruraykun	-11.3777
▁qun	-11.3778
▁kajkun	-11.3779
kit	-11.379
▁cheqapch	-11.379
▁amistadninm	-11.3795
▁discursot	-11.3796
▁prometesqanta	-11.3799
▁tanteasqant	-11.38
▁politicap	-11.3803
▁ra	-11.3803
▁vidayt	-11.3807
▁quna	-11.3808
▁tarirurqak	-11.381
▁mast	-11.3811
▁casarakuymant	-11.3816
▁ayp	-11.382
▁upurq	-11.3831
▁siq	-11.3834
▁qosayw	-11.3834
▁kasukuspanchik	-11.3844
▁ruraqkunata	-11.3846
▁qura	-11.3851
▁corregisq	-11.3862
▁chapi	-11.3864
▁payaspa	-11.3865
▁ukusqan	-11.3868
▁ruwaspan	-11.3869
tapuni	-11.3881
▁cuerpoy	-11.3885
▁cumplikun	-11.3885
▁nini	-11.3891
▁richkan	-11.3912
▁par	-11.3913
arurqak	-11.3913
▁muqu	-11.3916
▁qhisach	-11.3918
▁color	-11.392
▁khuchi	-11.3937
▁rikuriru	-11.3938
▁achisqan	-11.3949
▁willam	-11.3954
▁rutherford	-11.3956
▁atinichu	-11.3956
▁suyusmanta	-11.3958
▁purikuq	-11.3961
▁cantonkam	-11.3961
▁asuykunankupaq	-11.3962
▁castellanop	-11.3964
▁llupti	-11.3964
▁prometewanchik	-11.3975
▁atillan	-11.3975
▁oqallayq	-11.3976
▁casarakunanpaq	-11.3977
chejt	-11.3979
kunanpaq	-11.398
▁hi	-11.399
paqtaq	-11.3996
▁angeln	-11.4001
▁uyarisqanta	-11.4004
▁antioquia	-11.4005
naykupaq	-11.4011
▁fruta	-11.4013
▁qellqaspan	-11.4013
▁willaspa	-11.4013
▁suyarqak	-11.4015
▁nisusqaykita	-11.4019
▁ayllumanta	-11.4019
▁watamantam	-11.4038
▁predicay	-11.4042
▁weqent	-11.4048
▁tupachi	-11.4052
▁sarap	-11.4054
wananchikmantaqa	-11.4054
rqanim	-11.4061
▁makinwan	-11.4064
▁yakuwan	-11.4065
▁qan	-11.4067
▁bautizakuy	-11.4068
▁tanteanank	-11.407
kunawanmi	-11.4073
▁sonqomantam	-11.4085
llpanchawanchikm	-11.4085
▁reqsinapaq	-11.4086
▁confiananchik	-11.4088
allar	-11.4091
▁angelp	-11.4092
▁so	-11.4093
▁taytayku	-11.4094
▁ruwasqanchikt	-11.4095
▁chaskinqa	-11.41
▁alman	-11.4105
▁puris	-11.4114
▁umalliq	-11.4116
▁takiy	-11.4119
▁yanapaku	-11.4126
▁munawaq	-11.4132
▁ju	-11.4137
▁ninapi	-11.4146
hasp	-11.4147
▁sapallay	-11.4147
▁killam	-11.4153
▁chayarurq	-11.4154
▁saqisqan	-11.4159
▁wakinkuna	-11.4165
qt	-11.4167
asqa	-11.4168
▁tarpusqa	-11.4173
▁jamun	-11.4174
▁chinchik	-11.4174
▁huklawm	-11.4177
▁jayk	-11.4178
▁papata	-11.4178
▁premiot	-11.4182
▁achkan	-11.4189
▁tikrakun	-11.4203
ypiq	-11.4205
▁pusasqan	-11.4207
▁tapuykun	-11.4208
▁arreglot	-11.4208
qakuch	-11.4208
nwanm	-11.4209
▁kallpanchakuwaq	-11.4209
▁persi	-11.421
kurqan	-11.421
▁yachaqkuna	-11.4211
▁uqlla	-11.4214
▁jamu	-11.4216
▁kawsarimusqan	-11.4218
▁tukurun	-11.4219
▁qawaspa	-11.4223
arqanik	-11.4224
▁nipti	-11.4232
ntin	-11.4234
▁riqsiq	-11.4236
▁moisesw	-11.424
▁allinn	-11.4241
kusqankut	-11.4242
tajin	-11.4245
▁nanach	-11.4249
▁patronnin	-11.4252
▁kuyaspanchik	-11.4255
▁chari	-11.4259
▁hamurqak	-11.4264
▁qaripa	-11.4265
▁kunantaq	-11.4266
▁maskay	-11.427
▁hataris	-11.4277
▁uqayku	-11.4279
▁tanteasqanm	-11.4282
▁qatipakunapaq	-11.4284
▁wakinku	-11.4308
▁ukusqanw	-11.4309
▁jerusal	-11.4324
▁sofonias	-11.4326
▁atiymanchu	-11.4326
▁richard	-11.4327
▁hurquwaq	-11.4329
▁yachachiqk	-11.4335
▁muchuy	-11.4336
▁kayninchi	-11.4338
▁cartas	-11.434
▁obispo	-11.4342
▁religionkuna	-11.4345
▁suwakuy	-11.4348
▁kaychu	-11.435
▁qawachinch	-11.435
▁intusq	-11.435
punim	-11.4351
▁atinqa	-11.4352
▁warmikunapas	-11.4353
▁rurarurq	-11.4358
▁chinankuta	-11.4358
▁ruwaytap	-11.4359
▁rikurimuq	-11.4361
▁tapusqa	-11.4367
▁quyta	-11.4376
▁qamlla	-11.4381
▁runasmanta	-11.4385
▁tinta	-11.4389
▁wayrata	-11.4389
▁nacionninp	-11.4391
▁wajkun	-11.4392
▁tico	-11.4398
tat	-11.4403
ej	-11.4406
▁yachachinay	-11.441
▁akarichi	-11.4412
▁kusikusun	-11.4413
▁qhaway	-11.4414
▁interesakusqant	-11.4415
akurqak	-11.4418
▁monja	-11.4418
▁warmikunap	-11.4418
▁rimarqan	-11.442
▁encargakuq	-11.4424
▁sonqoykip	-11.4427
▁espiritumant	-11.443
▁karuta	-11.4432
▁suyakuyninchik	-11.4432
aspaykiq	-11.4437
▁peleaq	-11.4438
▁willawan	-11.4441
▁yachachikuq	-11.4441
▁qorqak	-11.4445
waptinchik	-11.4448
▁takin	-11.4451
▁amistadnik	-11.4454
▁kallpanchakun	-11.4454
▁chaskirqan	-11.4454
▁churip	-11.447
▁sumaqlla	-11.4471
▁kachaw	-11.448
▁mayp	-11.4486
▁hapis	-11.4493
▁kutimu	-11.4498
chiwananchikpaq	-11.4499
▁tanteasqank	-11.4505
▁kasukusqanmant	-11.4506
▁tukururq	-11.4509
▁chayanapaq	-11.451
▁gusta	-11.4513
▁tanteasqankut	-11.4519
▁pantasqankut	-11.4521
rinqak	-11.4521
▁patron	-11.4523
▁rikchanachiy	-11.4528
▁lluq	-11.4528
▁nanmi	-11.4528
▁ikurqan	-11.4546
▁justicia	-11.4546
▁qawaykuspan	-11.4554
▁kuyasqanrayk	-11.4559
▁sasacha	-11.4561
ntapa	-11.4574
▁hamuspa	-11.4576
▁tukusqa	-11.4577
▁yuyach	-11.4582
▁fil	-11.4583
▁andre	-11.4584
▁chanincha	-11.4597
▁pachka	-11.4605
▁alta	-11.4613
▁utqaym	-11.4613
kuspanchikq	-11.4615
▁nacionpi	-11.4616
▁pasakuptin	-11.4616
▁chaynay	-11.4618
▁publicacione	-11.462
kuchkaq	-11.4624
▁aupajt	-11.4624
▁predicaciont	-11.4627
▁moab	-11.4637
▁carrot	-11.4648
▁yuyaychasqan	-11.4649
▁puq	-11.4649
▁punchawn	-11.4656
▁kuyanakusqankut	-11.4661
▁kimsan	-11.4662
▁sasachakuyni	-11.4663
▁gog	-11.4663
▁qispi	-11.4664
▁mesiast	-11.4669
▁rimanchik	-11.4684
▁watalla	-11.4691
▁santiag	-11.4696
si	-11.4696
▁rikuriykurq	-11.4696
▁apostolninkuna	-11.4698
▁respetaq	-11.47
qay	-11.4703
▁yupaychasqan	-11.4703
▁riqk	-11.4707
▁india	-11.471
▁mensaje	-11.4711
▁navidad	-11.4711
▁volumen	-11.4711
▁londres	-11.4711
▁comit	-11.4712
▁yaqha	-11.4712
▁cornelio	-11.4713
▁mikuchinanpaq	-11.4714
nikip	-11.4714
▁buena	-11.4715
▁siria	-11.4718
▁wiksanpi	-11.4718
▁kikinchikp	-11.4719
▁qowasun	-11.472
▁qellqarqak	-11.4721
▁hawanta	-11.4725
▁servicio	-11.4737
▁sault	-11.4739
▁reqsin	-11.4739
▁manso	-11.4744
▁lo	-11.4745
▁suwakuq	-11.4746
▁munaspankum	-11.4746
▁kachamanta	-11.4747
▁pantas	-11.4747
▁kawsaykuna	-11.4747
mun	-11.4749
▁kawsayniyuq	-11.4751
▁payllam	-11.4756
▁amistadkun	-11.4761
▁amistadninchikm	-11.4764
sunkichikm	-11.4767
▁telefonow	-11.4769
▁warmimas	-11.4769
▁tariyta	-11.477
▁rantiq	-11.4772
▁salonkunat	-11.4779
▁llullakuspa	-11.4779
▁salmist	-11.4784
qellqanchikkunap	-11.4791
▁kuyawaspanchik	-11.4791
▁animalkunap	-11.4797
kururqak	-11.4799
▁tarde	-11.4799
▁reqsiq	-11.4801
▁qamllam	-11.4803
▁unakuy	-11.4803
▁faraonm	-11.4806
▁qora	-11.4807
▁pari	-11.481
▁atinay	-11.4811
▁alliq	-11.4817
▁cuerponta	-11.4817
pit	-11.4819
▁arman	-11.4821
▁ruwaqkun	-11.4822
▁nica	-11.4823
▁adanm	-11.4828
▁unakuypaq	-11.483
▁ukunanpaq	-11.4834
▁yaspa	-11.484
nata	-11.4842
▁rimarus	-11.4844
charus	-11.4845
▁niqk	-11.4849
ngele	-11.4852
▁kawsayniyoq	-11.4853
▁chinkay	-11.4853
▁uchinaku	-11.4855
▁oranw	-11.4858
karay	-11.4859
▁qawachiwaq	-11.4859
▁wasiyoq	-11.486
▁puchuq	-11.4869
aylla	-11.487
▁uchispa	-11.487
▁ruwasqanchikw	-11.4872
▁lluqsimu	-11.4876
▁saqesunch	-11.4878
▁suyusp	-11.488
▁mantiene	-11.4886
▁kuyanm	-11.4887
▁asuykuyt	-11.4891
il	-11.4894
▁niykuna	-11.4896
▁aqa	-11.4902
▁waqayta	-11.4903
▁jonas	-11.4904
akun	-11.4908
▁paginasnin	-11.491
▁akarisqant	-11.4915
▁waqra	-11.492
▁horam	-11.492
▁respetowan	-11.4927
▁nacionninkup	-11.4935
▁pukllaq	-11.4939
▁abueloy	-11.4947
▁pampapi	-11.495
su	-11.4951
▁maskan	-11.4958
▁qonq	-11.4959
▁wich	-11.4964
▁estudiasqanchik	-11.4966
▁llapanta	-11.4968
▁entiendenku	-11.497
▁kuyanakuy	-11.4977
▁qotuchakuyp	-11.4984
▁tantearunk	-11.4985
▁tukukuynin	-11.4985
▁yachasq	-11.4986
nw	-11.4992
▁tapuku	-11.4995
▁catolic	-11.5004
▁kasukusqanchikt	-11.5006
▁kuyakuyninpi	-11.5016
▁estudiaqkunam	-11.5028
▁yachakurqa	-11.5032
▁sapichasq	-11.5032
▁television	-11.5037
li	-11.5047
▁promet	-11.5048
▁watapuni	-11.505
▁tarinay	-11.505
▁orayt	-11.5054
▁kawsakurqak	-11.5057
▁mariawan	-11.5059
▁parlasqanta	-11.5065
▁unakurqak	-11.5069
▁kacharichi	-11.5073
▁llajt	-11.5075
▁qillqasqan	-11.5076
▁religi	-11.5079
▁qellqasqant	-11.5081
▁pachaw	-11.5086
▁waqaq	-11.5099
▁higos	-11.51
▁ungidokun	-11.51
▁tanqan	-11.5101
▁ancianop	-11.5102
▁qaqcha	-11.5102
▁onqoykun	-11.5105
▁llaqtap	-11.5111
▁nicodemo	-11.5111
▁william	-11.5111
▁educacionniyoq	-11.5112
▁estudianaykipaq	-11.5113
▁pakuqku	-11.5113
sunchik	-11.5114
▁kupura	-11.5114
▁yachanichu	-11.5115
▁obra	-11.5115
▁atiyniyoj	-11.5116
▁toro	-11.5119
▁pelota	-11.5121
▁saqenankupaq	-11.5122
pankum	-11.5123
▁rikuchinchik	-11.5123
▁corea	-11.5124
▁ruwayniyoq	-11.5125
▁qullqiyuq	-11.5128
▁chaninchasqant	-11.5129
▁maskasun	-11.5129
▁qapariy	-11.5132
▁uqanchikm	-11.5132
ankupaq	-11.5135
▁tienda	-11.5136
▁rurawaq	-11.5137
ymi	-11.5139
▁chapa	-11.514
▁yakumanta	-11.5141
▁khuy	-11.5144
▁yacharurqak	-11.5145
▁kallpawan	-11.5146
▁evap	-11.5146
▁chinaypaq	-11.5151
▁isaacta	-11.5154
▁mas	-11.5155
▁karus	-11.5155
▁kachis	-11.5157
▁cosechan	-11.5165
▁qellqam	-11.5166
▁ada	-11.5168
▁latin	-11.5175
yqa	-11.5178
▁sasachakuynin	-11.518
▁sanoyachirq	-11.5183
▁ganan	-11.5185
ururqak	-11.5188
▁munaychakusqanp	-11.5197
▁juzgas	-11.5202
▁suchu	-11.5208
▁manchay	-11.5209
▁bendicionnin	-11.521
▁akariq	-11.5213
▁chayaruspan	-11.5217
▁wanakus	-11.5221
▁rimaypim	-11.5232
▁hawapi	-11.5236
rachirqak	-11.5237
▁kanqanku	-11.5237
▁rinchik	-11.5238
▁qosqan	-11.5239
▁kas	-11.524
▁discipulosn	-11.5241
▁qolqe	-11.5246
▁sipaskunap	-11.5248
▁chinanmanta	-11.5249
rqam	-11.5252
▁urus	-11.5259
▁qarit	-11.5264
▁yachaytaq	-11.5265
▁asunchik	-11.527
▁killata	-11.5271
▁llaqtakunapim	-11.5275
▁isqay	-11.5276
▁rimaykunaman	-11.5276
▁ruwaychik	-11.5277
▁riqsirqa	-11.5289
▁wasikip	-11.5301
▁wasicha	-11.5302
▁qawachichkarq	-11.5303
▁chulla	-11.5307
▁qhaw	-11.531
▁ayku	-11.531
▁reqsichikun	-11.5311
▁aka	-11.5312
sqan	-11.5323
▁tuqlla	-11.5326
▁kutichin	-11.5329
▁amistadnink	-11.5335
▁yanapapt	-11.5337
▁tanteay	-11.5341
▁lloqsimurq	-11.5343
▁ruwasqankunat	-11.5343
▁testamento	-11.5343
▁ichoq	-11.5345
▁tentacionkunat	-11.5346
▁kar	-11.5351
▁kutimus	-11.5362
▁ofrece	-11.5362
▁pasurq	-11.5364
qmasinchikkunat	-11.5366
▁richiq	-11.5372
▁yapakun	-11.5372
▁munaptinku	-11.5375
▁ruwaykunap	-11.5375
▁qosqanmant	-11.5376
▁kuyakuynin	-11.5382
▁nehemiasp	-11.5382
▁do	-11.5389
▁regalot	-11.539
naykipaqm	-11.5402
▁paspa	-11.5405
kunatapa	-11.5408
▁yachayniyoj	-11.541
▁sud	-11.5412
▁wawast	-11.5412
▁oqanchikwan	-11.5421
▁mikuq	-11.5423
▁yuyar	-11.5424
▁herencianku	-11.5424
yninp	-11.5429
▁cheqnisqant	-11.5433
▁aychata	-11.5441
onq	-11.5441
▁taka	-11.5443
▁moisespa	-11.5444
▁tupachis	-11.5451
▁chaman	-11.5466
▁hawan	-11.5474
▁tratado	-11.5477
▁aspam	-11.5479
▁willakup	-11.5479
▁ankutaq	-11.5479
▁listo	-11.5485
kasukusqankurayk	-11.5488
▁sacerdotes	-11.549
▁yachis	-11.5492
▁rikurqan	-11.5493
▁haypa	-11.5497
▁yuyarini	-11.5507
▁promete	-11.5512
▁colegio	-11.5517
▁estudiarqak	-11.5518
▁esteban	-11.5527
▁watachayoq	-11.5529
▁rikchayniyoq	-11.5529
▁aguantanankupaq	-11.553
▁espadanta	-11.5531
▁kamachiptin	-11.5533
▁cambianay	-11.5534
▁yapamanta	-11.5534
▁kajayw	-11.5534
▁imaniraq	-11.5535
▁diosn	-11.5536
▁qellqasqanp	-11.5538
▁pichqayoq	-11.5538
▁servinaykupaq	-11.5539
▁yacharqanik	-11.554
▁sant	-11.5541
▁rurankichik	-11.5542
tachu	-11.5542
▁uykun	-11.5546
▁kami	-11.555
▁juzganq	-11.5553
▁munaykun	-11.5556
▁ruraspankum	-11.5556
▁karqanki	-11.5558
▁llaqtakunata	-11.556
▁riqsina	-11.5562
▁apostolninkunam	-11.5564
▁qespimun	-11.5564
kurq	-11.5564
▁rrafo	-11.5565
▁be	-11.5571
▁nisqawan	-11.5571
▁llaqtakunapiqa	-11.5572
▁khuya	-11.5574
pay	-11.5576
▁uqaw	-11.5581
kusqankumant	-11.5582
▁predicacionmant	-11.5583
▁qawarisp	-11.559
▁kanchar	-11.5591
▁qonqanapaq	-11.5592
▁qollqellapaq	-11.5596
is	-11.5599
▁yanapaptin	-11.5605
▁mala	-11.561
▁plato	-11.5611
▁misionerokun	-11.5616
▁urman	-11.5617
▁ruwasqanwan	-11.5621
▁saulp	-11.5624
▁paqta	-11.5632
▁ruwaspanku	-11.5637
▁macedonia	-11.5638
▁kachay	-11.5643
▁ruwaspank	-11.5646
▁qoykurq	-11.5657
▁etiopi	-11.566
▁kata	-11.5661
▁kamachirqak	-11.5662
▁churinkunam	-11.5667
▁wanaku	-11.5672
▁josueyp	-11.5678
▁testigonm	-11.5678
▁noqanchej	-11.5681
▁cortep	-11.5682
▁tukuruqll	-11.5685
ychik	-11.5686
rayach	-11.5687
▁qokurqak	-11.5698
▁paka	-11.5702
wanchej	-11.5703
▁toqll	-11.5705
▁sha	-11.571
▁ca	-11.5711
▁oray	-11.5712
▁lic	-11.5716
▁kuyananpaq	-11.5722
▁qochat	-11.5724
▁yanqapaq	-11.573
▁quspa	-11.5732
▁abogado	-11.5732
▁queja	-11.5732
▁ananman	-11.5738
▁promesankunap	-11.574
taqy	-11.5742
▁estudiarq	-11.5743
▁lot	-11.5755
▁tante	-11.5762
▁sapaqcha	-11.5763
▁aqkunam	-11.5766
▁sipasm	-11.5774
▁wisqa	-11.5777
▁chayn	-11.5781
▁nacionninm	-11.5781
▁hatunchas	-11.5783
▁bandera	-11.5785
▁mayqen	-11.5785
▁awip	-11.5791
▁imajt	-11.5795
▁rikuriptin	-11.58
▁jeroboan	-11.5802
▁hurqusqa	-11.5806
▁tukurupt	-11.5815
▁yupa	-11.5816
▁qawakunanchik	-11.5823
▁cristianot	-11.5829
re	-11.5833
▁sipasta	-11.5836
▁hamunqa	-11.5839
▁ll	-11.5843
▁wawakunata	-11.5848
▁yachaqa	-11.5856
▁tic	-11.5863
▁kallpasqa	-11.5864
▁malla	-11.5866
▁yuyayta	-11.5867
▁tukusqant	-11.5871
llanm	-11.5875
▁testigosni	-11.5876
▁predicasqanmant	-11.5881
chkarq	-11.5883
▁angelt	-11.5892
▁contestas	-11.5897
▁away	-11.5898
kuspankum	-11.59
▁juanta	-11.5903
▁yaw	-11.5903
▁josueyt	-11.5903
chay	-11.5914
▁iqmasink	-11.5921
▁preocupaku	-11.5924
▁aypu	-11.5928
▁hayt	-11.5929
kunapi	-11.5932
▁qoq	-11.5933
▁isaacp	-11.5937
ykichejt	-11.5939
▁amistadninkunam	-11.594
wananchikpaqq	-11.5942
▁chinkanqa	-11.5943
▁qatipakuspa	-11.5944
▁kamachisqanp	-11.5949
▁ot	-11.5949
uspankum	-11.595
tapi	-11.5955
▁riqsikun	-11.5955
▁wakinta	-11.596
▁qipancha	-11.5961
▁ped	-11.5962
▁allinnikipaq	-11.5963
▁maestro	-11.5963
▁james	-11.5963
▁qellqachirq	-11.5963
▁rijch	-11.5964
▁efe	-11.5964
▁mikuymant	-11.5964
▁isabel	-11.5965
▁yapakurqa	-11.5966
▁runamasinku	-11.5971
▁asaf	-11.5971
▁carmen	-11.5972
▁qamtaq	-11.5972
▁per	-11.5972
▁predicasq	-11.5972
▁lico	-11.5975
▁cheqnikuq	-11.5977
▁carpa	-11.5978
▁rumiwan	-11.5979
sqanchikp	-11.5979
▁olla	-11.598
▁hukkun	-11.5981
▁rimayllapi	-11.5982
sqanta	-11.5994
▁kachari	-11.5994
le	-11.5996
▁kusichiwan	-11.6
usqankuwanm	-11.6002
▁servisqanchikp	-11.6002
▁estudiananpaq	-11.6003
kunatapas	-11.6006
▁musyakurqan	-11.6007
▁yanapawasqan	-11.6009
▁wasiymanta	-11.6012
▁kasukusqanta	-11.6013
▁chinkach	-11.6013
yawasqanchikrayk	-11.6014
▁confian	-11.6014
▁estudiarqan	-11.6015
▁bernabey	-11.6017
▁kawaq	-11.6017
▁reqsikunchik	-11.6018
▁carnerot	-11.6019
▁kusikuna	-11.602
▁intita	-11.6022
achus	-11.6025
▁salonm	-11.6027
▁chaqruku	-11.6033
▁saqenanpaq	-11.6034
ado	-11.6036
▁judiosp	-11.6036
▁lawkunapi	-11.6037
▁afanaku	-11.6039
▁casarakurqan	-11.6041
▁cumpliq	-11.6043
▁saqerqak	-11.6046
smant	-11.6048
ytaq	-11.6052
▁kawsachiku	-11.6052
▁ruwayninkut	-11.6054
▁confiasqant	-11.606
▁qarim	-11.6063
▁kashajti	-11.6066
▁amistadnikit	-11.6067
▁tarikusqanchikt	-11.6069
▁com	-11.607
▁ruraqmi	-11.6073
▁religionninp	-11.6073
▁rumita	-11.6082
kunapim	-11.6086
▁desgracia	-11.6087
una	-11.6093
nint	-11.6094
▁llaqtanmi	-11.6096
▁car	-11.6098
▁qonchu	-11.6099
▁qatipakuy	-11.61
▁hukmanyarusp	-11.6102
waptinchikpa	-11.6107
▁qawachisp	-11.6111
▁munanik	-11.6117
▁saqerurqak	-11.6117
▁pakisqa	-11.6119
▁cimiento	-11.612
▁aqta	-11.6127
llanp	-11.6128
▁churasqant	-11.6147
▁runachu	-11.6156
▁warminp	-11.6173
▁unqus	-11.6177
▁wasinchik	-11.6178
▁cambiayt	-11.6181
ert	-11.6181
▁riqsiy	-11.6183
▁jonat	-11.6183
▁iqmasinkunap	-11.6185
anpaq	-11.6187
lo	-11.6188
▁kuyawanchik	-11.6189
▁cebadilla	-11.6192
kunk	-11.6194
▁apuy	-11.6197
▁wasiqa	-11.6203
erqank	-11.6204
▁chiwchi	-11.6204
▁kasukuchw	-11.6207
▁aguanta	-11.6208
▁amparasq	-11.621
▁rurarun	-11.6213
koj	-11.6213
▁kawsarimuqkuna	-11.6218
ti	-11.6219
parurqak	-11.6223
▁waqan	-11.6223
▁kachkas	-11.6224
▁panaku	-11.6226
▁rikucherq	-11.6232
sqanchikrayku	-11.6232
▁achis	-11.6233
▁qosaykit	-11.6233
▁et	-11.6238
▁precursorkun	-11.6238
▁wasinp	-11.6246
▁inanku	-11.6248
▁saqeyt	-11.6251
▁admirakurqak	-11.6252
kuchkank	-11.6254
▁qawaspanku	-11.6258
▁tanteakuyt	-11.6261
chkaqt	-11.6269
▁kapuy	-11.6277
spankuq	-11.628
▁usuchi	-11.6289
▁oraykit	-11.629
▁qonqayt	-11.6294
▁leespaq	-11.6296
chirqak	-11.6298
▁aqmasi	-11.6299
▁ayllunkuna	-11.6299
▁qarip	-11.6303
▁tim	-11.6304
▁tanteasqankum	-11.6306
▁sonqon	-11.6314
▁uqap	-11.6314
▁buqu	-11.6322
▁qonk	-11.6326
▁mapa	-11.6329
▁ruwaykunamant	-11.6338
▁ikun	-11.634
▁pacienciaku	-11.6342
▁li	-11.6346
▁reym	-11.6355
ayq	-11.6358
kamaqa	-11.6361
▁romano	-11.6363
yanapawaqninchik	-11.6367
▁tanteachkasp	-11.6371
▁tentacionkun	-11.6373
▁familias	-11.6373
ana	-11.6373
rakunay	-11.638
▁gustawan	-11.6382
nkich	-11.6382
▁pers	-11.6384
▁deja	-11.6386
▁masa	-11.6389
▁imayn	-11.6391
▁qawaspay	-11.6396
▁cartanp	-11.6396
chanay	-11.6398
▁puru	-11.64
antapa	-11.64
nqa	-11.6401
kaq	-11.6402
▁danielm	-11.6406
▁listr	-11.6407
▁pisillata	-11.6409
ha	-11.6411
▁diana	-11.6412
▁mision	-11.6414
jt	-11.6415
▁distrito	-11.6417
▁millones	-11.6417
▁unidas	-11.6417
▁kamachiyninpi	-11.6417
▁apuest	-11.6418
▁rikhuri	-11.6419
▁columb	-11.6419
▁juzgananpaq	-11.6419
▁chaymantataq	-11.642
▁josias	-11.6421
▁tapuwarq	-11.6421
▁jue	-11.6422
▁ukhupi	-11.6422
▁parawan	-11.6422
▁predicaspa	-11.6423
▁llaqtamas	-11.6423
niyuq	-11.6424
▁kachkasqanta	-11.6425
▁cumplinankupaq	-11.6426
▁predicanaypaq	-11.6426
▁kilo	-11.6427
▁humildem	-11.6428
▁qowaqninchik	-11.643
▁chinmanku	-11.6433
▁religionkunam	-11.6435
▁casada	-11.6435
▁willasqay	-11.6436
▁necesitasqant	-11.6437
▁josu	-11.6438
▁warmikunamanta	-11.6439
yn	-11.6441
▁qallaris	-11.6444
▁iqmasiykunat	-11.6447
inchu	-11.6448
▁umanta	-11.6448
▁gary	-11.6453
▁imasmanta	-11.6455
▁wi	-11.6457
▁kuyakuymant	-11.6459
▁chayllapi	-11.646
▁noeyt	-11.6462
▁sirvi	-11.6463
▁qellqasqanpi	-11.6466
▁reqsinanchik	-11.6467
sa	-11.6471
▁lloqsinanpaq	-11.6471
▁kallpanch	-11.6471
▁akunanta	-11.6473
▁mikuchichka	-11.6473
▁yuyasqa	-11.6477
▁pasaptin	-11.6483
▁chaykunanpaq	-11.6484
▁chukcha	-11.6487
▁martin	-11.6487
▁chaychik	-11.649
▁mesa	-11.6493
▁oranm	-11.6495
▁anachisqan	-11.6497
▁kapuynin	-11.65
▁rawra	-11.6501
▁alabayku	-11.6502
▁discipulonkun	-11.6505
▁efra	-11.6508
▁manar	-11.651
▁plaza	-11.6512
▁hukllawaku	-11.6513
▁templop	-11.6516
▁pampachayku	-11.6517
▁tariwaq	-11.6521
▁olivo	-11.6522
▁awpari	-11.6528
▁urqupi	-11.6534
▁vi	-11.6535
▁uyariwaqninchik	-11.6538
▁hukmanyarurq	-11.654
▁kiraykum	-11.654
▁oranpa	-11.654
▁noqaq	-11.6546
▁hukmanya	-11.6548
▁gobiernaq	-11.6548
▁des	-11.655
▁munaychakusqanm	-11.6551
▁hinaraq	-11.6556
▁precio	-11.6559
▁usqant	-11.656
▁ankamaqa	-11.6563
▁qellqakunap	-11.6567
▁kayninqa	-11.6568
▁wayqo	-11.6569
▁eli	-11.6573
▁amistadni	-11.6576
▁iskayraya	-11.6579
▁atikun	-11.6579
wanchik	-11.6582
▁yachachiwaq	-11.6582
▁pallan	-11.6586
▁saqerqa	-11.6587
▁tarpuna	-11.6591
▁qosanm	-11.6595
▁qocham	-11.6606
▁reqsikun	-11.6606
akusqant	-11.6612
▁consuel	-11.6614
urqak	-11.6614
warqank	-11.6622
▁tutata	-11.663
▁umay	-11.6633
▁yaykuy	-11.6635
▁qawarqanchik	-11.6639
▁kamunan	-11.664
▁tap	-11.665
▁agradecekusun	-11.665
▁manachus	-11.6651
▁churanku	-11.6654
▁entiendey	-11.6654
▁cuidana	-11.6658
▁diccionario	-11.6662
▁aguantarq	-11.667
kuyanakunankupaq	-11.6671
▁rebec	-11.6672
▁honrad	-11.6675
▁ninawan	-11.6675
uynint	-11.6675
▁costumbrekunat	-11.6677
▁rimanaku	-11.6685
▁kusirikuyt	-11.6691
manpas	-11.6692
▁lloqsimun	-11.6694
▁ruwasaq	-11.6697
▁amistadninkunat	-11.6698
▁akurusp	-11.6701
▁yaykuyt	-11.6701
▁qillqas	-11.6709
aykit	-11.6711
▁qawachinank	-11.6715
▁revistan	-11.6716
▁hukllan	-11.6718
ptiki	-11.6721
▁munayta	-11.6722
qank	-11.6725
▁talli	-11.6729
▁rikuriramu	-11.6731
▁doctorm	-11.6733
▁akariqkunat	-11.6734
▁mamakunap	-11.6743
▁willakur	-11.6755
▁vers	-11.6756
▁qarikunaw	-11.6764
▁unakuypi	-11.6767
▁ispa	-11.6767
pan	-11.6768
▁qillqarqak	-11.6772
▁munanchikm	-11.6784
kupi	-11.6788
▁rikchanachisqan	-11.6792
kama	-11.6797
▁chinkachisqan	-11.6801
▁qosanw	-11.6805
▁yachachikuykuna	-11.6808
▁kuni	-11.6813
▁videokunat	-11.6819
▁kamapas	-11.6821
▁cap	-11.6824
▁yanapakuchw	-11.6826
maymi	-11.6833
▁qawaqk	-11.6833
▁buquep	-11.6841
ntam	-11.6841
▁nacionw	-11.6843
▁entiendeqm	-11.6849
▁du	-11.6849
ayta	-11.685
kich	-11.6853
▁patters	-11.6854
rqanikum	-11.6856
▁us	-11.6857
▁ede	-11.6857
▁yanaparurq	-11.686
▁takisqan	-11.6861
▁willanay	-11.6862
▁qawanank	-11.6864
ip	-11.6867
▁nisyu	-11.6867
ong	-11.6867
▁promesankun	-11.6868
▁llaqtay	-11.6871
▁pampan	-11.6871
▁munachkan	-11.6874
piw	-11.6876
▁gracias	-11.6877
▁tiempoyoqll	-11.6879
ing	-11.6884
▁asuykusun	-11.6884
▁bill	-11.6887
▁uta	-11.6888
▁col	-11.6891
▁awinchasp	-11.6893
▁hitler	-11.6893
▁humanos	-11.6893
▁allillamanta	-11.6893
▁alabaychik	-11.6895
▁mosqoyninp	-11.6895
▁ruwanaykupaq	-11.6895
▁sasachakuyniyoq	-11.6896
▁kuyanakunapaq	-11.6898
▁canc	-11.6899
▁oh	-11.6902
▁isqun	-11.6904
▁ruwarurq	-11.6905
▁payaymanta	-11.6906
▁hapipaku	-11.6909
▁leykuna	-11.691
▁libr	-11.6911
▁urachiyt	-11.6913
sunch	-11.6914
▁qosay	-11.6915
▁yachinman	-11.6916
▁hawanman	-11.692
▁qallarirqak	-11.692
▁hab	-11.6922
▁pakallap	-11.6928
▁qawanaypaq	-11.6932
▁niqkuna	-11.6937
▁consejasqant	-11.694
▁autoridad	-11.6944
▁wachakuq	-11.6945
▁yachaykuna	-11.6946
▁orq	-11.6948
▁cordero	-11.6949
▁saqewanchik	-11.6952
suqnik	-11.6954
▁adanmant	-11.6957
▁ruwankum	-11.696
▁islam	-11.6967
▁fariseokuna	-11.6969
▁uqataq	-11.6976
▁yakupa	-11.698
▁kasqanchikp	-11.698
▁sucede	-11.699
▁esta	-11.6991
▁estudiaqmasin	-11.6996
▁cigarrota	-11.6998
▁sientichi	-11.7005
chk	-11.7007
▁kanq	-11.7012
▁anti	-11.7013
▁aws	-11.7013
▁chimu	-11.7014
▁urup	-11.7015
▁llaqtas	-11.7015
▁utu	-11.7018
▁rikukurq	-11.7023
▁chaskisqanmant	-11.7025
▁qokururq	-11.7029
▁reqsikusp	-11.7032
▁corregirq	-11.7034
▁culo	-11.7039
uta	-11.7042
▁qawasqa	-11.7043
qomurq	-11.7046
▁allichanq	-11.7047
▁ujn	-11.7049
▁yanqacharunm	-11.7053
▁mozot	-11.7057
▁yup	-11.7058
▁qawachiwarq	-11.7059
▁pachalla	-11.706
▁ruwana	-11.706
▁tanteakusp	-11.7061
▁maqanaku	-11.7062
run	-11.7064
▁jeh	-11.7064
▁yanq	-11.7069
▁parlari	-11.7069
▁diablota	-11.707
▁allichas	-11.7071
▁sonqoyw	-11.7075
▁tutay	-11.7076
aqk	-11.7077
sqankutapa	-11.7078
▁apa	-11.7081
nchiktaqmi	-11.7087
▁akarisqanmant	-11.7091
▁chiqniq	-11.7091
▁manataq	-11.7093
▁puyu	-11.7098
▁libranq	-11.7099
▁atiku	-11.7105
▁rueda	-11.7109
▁uqanchikw	-11.7113
▁orqom	-11.7115
▁copia	-11.7118
▁yanapakuynin	-11.7127
▁qokurun	-11.7135
▁aparq	-11.714
▁parlaq	-11.7143
▁pinta	-11.7146
▁saqenanchik	-11.7151
warqayk	-11.7152
▁yachakuy	-11.7158
▁qokuru	-11.7162
▁musquy	-11.7162
▁makinchik	-11.7163
▁estudiaqkunat	-11.7163
qach	-11.7168
▁admirakurq	-11.7169
▁imaynamant	-11.717
iwasqanchikkunat	-11.7171
niyoj	-11.7172
▁jarka	-11.7172
nch	-11.7175
▁qusaq	-11.7179
llach	-11.7187
aqq	-11.7188
▁kallpachan	-11.7188
▁yachaspam	-11.7189
▁creenapaq	-11.7191
▁gobiernonpaq	-11.7196
▁chayaramun	-11.7197
▁purirqa	-11.7201
▁estudiaspa	-11.7207
▁sutiy	-11.7209
iz	-11.721
▁tapukunk	-11.721
▁qorimant	-11.7211
akus	-11.7214
▁nillantaq	-11.7217
▁yachasqanchik	-11.7218
jinataq	-11.7224
▁tanteasqan	-11.7233
▁aparqak	-11.7238
▁kaptiki	-11.7251
▁tantearqak	-11.7255
▁kikillay	-11.7258
▁horqon	-11.7259
ychejch	-11.7262
▁payakuy	-11.7268
▁paginank	-11.7272
▁wask	-11.7278
▁qatiy	-11.7281
upa	-11.7282
▁willk	-11.7282
▁bautizakorqan	-11.7284
▁unapi	-11.7288
▁baruc	-11.7302
▁adanpa	-11.7304
wasunm	-11.7306
qkunat	-11.7307
▁chiriy	-11.7309
▁saqen	-11.7313
▁diabl	-11.7315
▁kayninwan	-11.7315
▁yachachiwarqak	-11.7316
or	-11.7316
chkanik	-11.7317
▁josefo	-11.732
▁profetan	-11.7324
▁reqsiyt	-11.7324
▁novia	-11.7325
▁qonqanqa	-11.7326
▁musyaku	-11.7331
▁beni	-11.7336
uspanm	-11.734
▁casarakusqayk	-11.7345
▁anamanta	-11.7346
▁tapurqan	-11.7349
▁kuyanakunanchik	-11.7354
▁orayw	-11.7356
▁amal	-11.7362
▁ruwaspayki	-11.7366
▁amistadniki	-11.7367
▁precursoram	-11.7373
▁pitay	-11.7376
▁chaychu	-11.738
▁kallpanchanq	-11.7385
▁agradecekunk	-11.7386
sqanchikm	-11.7388
▁alemaniap	-11.7388
▁asiku	-11.7389
▁gobiernonw	-11.7392
▁austria	-11.7393
▁senaquerib	-11.7393
▁stephen	-11.7393
▁encyclopedia	-11.7393
▁orden	-11.7393
▁contraykip	-11.7394
▁incienso	-11.7394
▁mikuchirq	-11.7394
▁discipuloykun	-11.7396
▁predicanaykipaq	-11.7397
▁europe	-11.7398
▁poloni	-11.7399
▁taksalla	-11.7402
▁sept	-11.7405
▁umanpi	-11.7407
▁son	-11.7407
▁ruranki	-11.7409
▁fred	-11.7409
▁huntay	-11.7411
▁awparinapaq	-11.7415
▁sirvientem	-11.7416
▁atieneku	-11.7418
▁yanapaykuy	-11.742
▁sonqoyt	-11.742
▁llaqtakunapipas	-11.7421
▁lluchk	-11.7424
▁qallusp	-11.7425
▁kallpaylla	-11.7444
▁llajtant	-11.7444
nkunapi	-11.7445
▁britann	-11.7447
▁asnaq	-11.7448
▁tantearu	-11.745
▁kuyarqak	-11.7451
▁arqanki	-11.7451
▁diospuni	-11.7451
▁herida	-11.7452
▁rikurichiq	-11.7453
▁familiayt	-11.7453
waqchik	-11.7459
▁kallpanchanapaq	-11.7463
▁ruwaykunataq	-11.7466
▁viudap	-11.7466
▁computadora	-11.7467
▁costumbrenkum	-11.7474
▁wawqinkun	-11.7474
▁llullu	-11.7476
▁atirqak	-11.7479
▁tarina	-11.748
▁yanqalla	-11.748
kuyninchikq	-11.7481
▁churarurq	-11.7483
ptinchik	-11.7486
sqankum	-11.7488
▁awiriqkun	-11.7488
▁mamachata	-11.749
▁qepanchasp	-11.7491
▁valen	-11.7492
▁kayninmanta	-11.7493
▁rikurqak	-11.7499
▁discipulonkunam	-11.7502
▁ruwasqankutaq	-11.7504
▁anankama	-11.7505
ikuy	-11.7505
▁kikillanku	-11.7516
▁jobm	-11.7517
▁telefonontakam	-11.7518
▁lawnint	-11.752
▁huchallichi	-11.7522
▁qusqa	-11.7524
▁kikikit	-11.7525
▁kawsarimuq	-11.7525
lef	-11.7526
▁onqoywan	-11.7527
▁quychik	-11.7529
▁rak	-11.753
▁list	-11.7531
▁munanm	-11.7532
▁pus	-11.7532
▁riqkunap	-11.7535
asqan	-11.7538
▁rurarqan	-11.7539
▁creen	-11.7542
korqank	-11.7547
▁inter	-11.755
▁takina	-11.755
▁capitulokun	-11.7554
▁huchayuq	-11.7555
▁poqo	-11.7561
vr	-11.7566
▁salvacion	-11.7567
▁uywakuna	-11.757
▁ruwachk	-11.7572
▁hatarichinq	-11.7573
▁hermanota	-11.7578
ykun	-11.758
▁kutichiyta	-11.7583
et	-11.759
▁qawarqam	-11.7593
▁hukmanyachi	-11.7594
▁predicarqak	-11.7595
▁tina	-11.7599
▁chayaykamu	-11.7602
▁templont	-11.7603
▁hageo	-11.7604
▁santiagop	-11.7611
nkun	-11.7614
▁qawasqanmant	-11.7615
▁ruwakunanmant	-11.7619
▁sumaqcha	-11.7624
▁warmis	-11.7626
▁qawaspam	-11.7628
▁desp	-11.7629
▁religionninkup	-11.7631
▁reqs	-11.7638
inm	-11.7643
▁atikuptin	-11.7644
▁venceru	-11.7646
▁lloqsirq	-11.7663
▁rimaris	-11.7664
qallaykusqanmant	-11.7667
▁wawankuna	-11.7672
mantat	-11.7672
toq	-11.7673
▁adoraq	-11.7678
▁confiarq	-11.7679
ychej	-11.7684
spank	-11.769
▁ruwanqak	-11.7707
▁willasqanmant	-11.7708
▁jukn	-11.7708
▁tukuqm	-11.771
▁penqakusp	-11.7712
▁wawqenkun	-11.7719
▁rimayni	-11.7729
▁hor	-11.7731
▁asllata	-11.7731
▁anakun	-11.7735
anku	-11.7736
▁allinninpaq	-11.7741
▁leerq	-11.7742
▁wakinkunap	-11.7743
▁confiasqanchikt	-11.7748
▁maquina	-11.7753
▁leesqayki	-11.7758
▁oranp	-11.7758
▁wawachan	-11.7759
wananchikmanta	-11.7761
▁israelita	-11.7763
chkaptink	-11.7766
▁yachachinan	-11.7771
▁tupanach	-11.7771
▁qonamant	-11.7781
▁pasu	-11.7789
▁nisqapa	-11.7792
▁folletot	-11.7799
▁qollqellat	-11.7799
▁dol	-11.7815
▁tapuriku	-11.7816
▁tropankun	-11.7817
kupt	-11.782
▁servisqankut	-11.7821
▁chuyam	-11.7825
▁yachachkas	-11.7826
▁chichi	-11.7831
▁mancharisq	-11.7831
▁allinninta	-11.7834
▁aqtaq	-11.7839
▁jatuch	-11.7839
▁tanteakun	-11.784
antar	-11.7848
▁qell	-11.7857
▁qal	-11.786
▁regalokunat	-11.7861
▁ruwasqankurayk	-11.7866
▁toca	-11.787
▁uchirq	-11.7879
▁kawsayniy	-11.7882
▁cuidakunanchikm	-11.7884
▁kasukusqanku	-11.7886
▁resp	-11.7887
▁eric	-11.7893
▁hukmanyay	-11.7899
▁tanteasun	-11.7907
▁inapaq	-11.7916
▁sonqoyp	-11.7919
▁aaronp	-11.7919
▁alcohol	-11.7919
▁encyclop	-11.7919
▁tuval	-11.7919
▁llajtam	-11.7919
▁joseph	-11.792
▁creeyniyoj	-11.792
▁zacar	-11.792
▁culpayoq	-11.792
▁thomas	-11.7921
▁tarikuwaq	-11.7924
▁liliana	-11.7925
▁conseja	-11.7927
▁sutiyoj	-11.7929
▁awirisp	-11.7929
▁atinkuman	-11.793
▁sientekurqan	-11.793
▁yachinapaq	-11.793
▁oseas	-11.793
▁periodicop	-11.793
▁ratolla	-11.7933
▁rikurirunk	-11.7935
▁africa	-11.7935
▁urqu	-11.7936
▁tanteanaykipaq	-11.7936
uny	-11.7936
▁yanapasqanm	-11.7938
▁ruwasunchik	-11.7939
akuch	-11.7941
▁rantiyta	-11.7941
▁casarakururq	-11.7941
▁estudianaypaq	-11.7942
▁video	-11.7942
▁haywa	-11.7944
▁favoreces	-11.7945
▁qepanchanapaq	-11.7945
▁munayninmanjin	-11.7946
▁urmay	-11.7946
▁chakinta	-11.7948
sqanchejt	-11.7953
▁silas	-11.7954
▁paykupas	-11.7957
▁reqsisqanchik	-11.7959
▁yachaqkunata	-11.7963
▁nispam	-11.7964
▁predicayp	-11.7964
▁corregin	-11.7965
▁religioso	-11.7965
▁yachayninqa	-11.7967
▁rej	-11.7968
▁ruwananchikmant	-11.7974
▁rirqanku	-11.7978
▁kayniyuq	-11.7978
▁tiemponpi	-11.7987
▁tabla	-11.7988
▁apostoles	-11.7988
▁ankunata	-11.7989
▁reinonta	-11.7989
▁tanteow	-11.7991
▁oqaykupa	-11.7993
▁pra	-11.7993
▁wamp	-11.8
▁oficinan	-11.8001
▁musquyp	-11.8005
▁babiloniamant	-11.8009
achu	-11.8011
▁predicador	-11.8012
▁qosayp	-11.8012
▁kachinqa	-11.8014
▁abrahant	-11.8016
▁muspay	-11.8022
▁pawank	-11.8022
▁asuykun	-11.8025
▁pagin	-11.8029
▁jinapi	-11.8029
▁huchap	-11.8031
▁samachi	-11.8032
▁kayllap	-11.8038
▁rikurimurq	-11.8039
spaykim	-11.8039
▁bautista	-11.8043
▁monte	-11.8048
▁yachakuna	-11.805
kupa	-11.805
▁uqat	-11.805
▁alabarq	-11.8054
▁kuma	-11.8057
▁uyarirqani	-11.8058
▁tapuwaq	-11.807
▁qellqayt	-11.8072
▁religiones	-11.8072
▁rupayp	-11.8072
▁yachachisqanm	-11.8074
rusp	-11.8076
▁allichay	-11.8078
▁qawachiq	-11.809
▁chino	-11.8091
▁hukninpa	-11.8092
▁niwasqanchikm	-11.8098
▁rikunku	-11.8098
▁kuyaym	-11.8099
▁watallapi	-11.8101
▁uqan	-11.8105
▁hukllam	-11.8107
▁qonanmant	-11.8109
▁sello	-11.8111
▁ame	-11.8115
apun	-11.8117
▁akuruq	-11.8118
▁creencia	-11.812
ankumant	-11.8125
▁bendiciont	-11.8134
▁fiestapi	-11.8136
llikur	-11.8138
▁casarasqa	-11.8138
▁ayllunp	-11.8139
▁librakuyt	-11.814
▁chawpin	-11.814
▁asaq	-11.8143
akuptinchikq	-11.8143
▁qawawaq	-11.8145
▁llajta	-11.8147
▁invitaciont	-11.8148
▁gobiernonm	-11.8148
▁paginas	-11.8148
rik	-11.8153
▁rebeca	-11.8154
▁qawaym	-11.8158
▁tikranq	-11.8163
▁discipulonkuna	-11.8165
▁willawarq	-11.8167
▁kusichiwanchikm	-11.8174
naypaq	-11.8177
▁estudiaspank	-11.8178
▁chaypipas	-11.8178
▁espejo	-11.8205
▁munaspanchik	-11.8207
▁risaq	-11.8211
▁costa	-11.8223
▁direccionm	-11.8226
▁andres	-11.8231
▁publicacionest	-11.8233
▁aparatokuna	-11.8237
▁atisu	-11.8237
▁taytayt	-11.8241
▁wasikiman	-11.8242
ptikim	-11.8244
▁armagedo	-11.8246
▁munaptink	-11.8248
▁qonanchik	-11.8249
▁pe	-11.825
▁kawsaypi	-11.8253
▁talon	-11.8253
▁amistadninkunap	-11.8256
▁hatarichinanku	-11.8259
aqch	-11.8259
▁chayraykutaq	-11.8262
▁sapakamap	-11.8268
▁ejemplonmant	-11.8268
kuwanm	-11.8272
▁payay	-11.8272
▁tanteasqanku	-11.8285
▁piensarqaku	-11.829
▁pusas	-11.8293
▁kachan	-11.8304
apaqm	-11.8308
▁buque	-11.8316
▁inanchik	-11.8321
▁punchawp	-11.8323
sqankuq	-11.8325
rusqanmant	-11.8325
waspanchik	-11.8327
▁taytanman	-11.8333
▁ruwanik	-11.8334
▁vidanq	-11.8337
itaqm	-11.8339
▁ruwasqanrayk	-11.8339
schus	-11.834
▁yachachiwa	-11.8344
piwanm	-11.8346
▁aaront	-11.8349
▁uqkunap	-11.8352
▁suyanapaq	-11.8352
▁kawsachkaq	-11.8352
▁kasukusu	-11.8353
▁kamachichkapt	-11.8354
▁ukhu	-11.8358
▁kuyasqanchikm	-11.8362
▁qaparis	-11.8363
▁judiokunaw	-11.837
▁aguant	-11.8373
▁gabriel	-11.8378
▁amistadkunamant	-11.8386
▁bar	-11.8388
▁paway	-11.8391
ikch	-11.8393
▁kasukunan	-11.8394
▁atisqayt	-11.8396
▁qollqep	-11.8398
▁munanim	-11.8401
▁kaqtaqa	-11.8408
▁mu	-11.8409
▁amistadniykunam	-11.8413
nkichikch	-11.8419
▁limpi	-11.8421
▁testamentot	-11.8423
▁saqenqa	-11.8424
▁nacionnin	-11.8424
llaw	-11.8425
▁her	-11.8425
aku	-11.843
▁prometeku	-11.843
▁runamasiki	-11.8437
▁rimapt	-11.8439
▁cheqninm	-11.844
chisqanmant	-11.8443
▁raymi	-11.8444
▁ruwaptin	-11.8446
▁amistadninkut	-11.8446
▁chaskinapaq	-11.8453
▁tarisu	-11.8461
▁henry	-11.8465
▁parlana	-11.8465
el	-11.8466
▁qellqasqanm	-11.8466
▁loco	-11.8468
▁malaqu	-11.8473
▁kallpanchachw	-11.8473
▁nehem	-11.8473
▁jefteyp	-11.8474
▁gomorra	-11.8475
▁mosoj	-11.8475
▁novela	-11.8475
▁office	-11.8475
▁superintendente	-11.8475
▁michael	-11.8475
▁menor	-11.8475
▁qollqesap	-11.8475
▁martes	-11.8475
▁sonso	-11.8476
▁michin	-11.8476
▁amistadniyoq	-11.848
▁saq	-11.8481
▁kaptinkum	-11.8481
▁umanm	-11.8482
▁rikurichirq	-11.8486
▁akariyt	-11.849
▁ruwasqa	-11.849
▁niwasqant	-11.849
▁qowananchikmant	-11.849
▁qepancharu	-11.8491
▁tiyakuq	-11.8493
▁seg	-11.8495
▁qallarisqan	-11.8496
▁paloma	-11.8497
▁religionninku	-11.8499
▁umayuq	-11.8501
▁qosayt	-11.8502
▁saqesqanmant	-11.8505
wasp	-11.8505
▁kawsaqkunata	-11.8505
▁tarirurqan	-11.8511
▁pag	-11.8514
▁parrafop	-11.8518
eqe	-11.8522
▁muhuta	-11.8525
▁buquem	-11.8526
▁periodico	-11.8528
▁phichq	-11.853
yllach	-11.8532
▁wawap	-11.8534
▁qonqasaq	-11.8534
▁yupaychaqk	-11.8539
▁kayninmi	-11.854
▁willarqam	-11.8541
▁kawsakus	-11.8544
▁mamayku	-11.8545
▁uywanay	-11.855
▁umalla	-11.8551
rus	-11.8553
▁yuyayninta	-11.8553
▁documento	-11.8553
▁asa	-11.8553
▁amistadm	-11.8554
▁consuela	-11.8561
▁munasqallan	-11.8563
▁jacobt	-11.8563
▁kuyakuyninkut	-11.8564
▁qotuchakuy	-11.8564
▁salvay	-11.8566
yanapawaptinchik	-11.8566
▁sonqomantapun	-11.8568
mantapacham	-11.8571
▁suy	-11.8572
pijin	-11.8572
▁yan	-11.8575
ntakam	-11.8576
▁yachachisqas	-11.8578
▁aylluyki	-11.8578
▁munaykuna	-11.8579
kurqa	-11.8579
▁gt	-11.8583
▁chiqnina	-11.8584
▁van	-11.8585
▁churakuy	-11.8587
▁mis	-11.8589
▁saqey	-11.859
▁terremoto	-11.8591
▁oracionp	-11.8599
▁qawachinamant	-11.8601
▁pantasqanta	-11.8606
▁yaywan	-11.8612
▁hoqari	-11.8614
▁cumplikunant	-11.8617
▁uruptin	-11.8625
▁kallpayta	-11.8628
▁kachkaptinkum	-11.8628
▁achkiy	-11.8629
▁librawanchik	-11.8629
▁willasqanta	-11.8633
▁qatiqninkunap	-11.8635
jinach	-11.8636
▁mikhu	-11.8637
▁akarichisq	-11.8637
▁imastaq	-11.864
▁chinkarachina	-11.864
▁kallpanchaykiku	-11.8641
▁uylla	-11.8644
▁z	-11.8645
chikuyninkunawan	-11.8649
▁tapuyta	-11.865
▁ruwananchikt	-11.8651
todo	-11.8675
▁wasa	-11.8683
▁orankut	-11.8686
▁tiempoyoq	-11.87
▁kanka	-11.8702
▁makillan	-11.8702
▁conciencianku	-11.8706
▁versiculokunap	-11.8711
▁willkan	-11.8713
cumplikusqanmant	-11.8717
▁qallaykun	-11.8718
▁mikururq	-11.8718
▁kusikunim	-11.8721
▁mikusp	-11.8724
▁pachataqa	-11.8725
▁kuchun	-11.8726
▁gedeon	-11.8733
▁cumplikuchk	-11.8736
▁anchatapuni	-11.874
▁willanku	-11.874
▁bendicionninkun	-11.8751
▁hinata	-11.8752
▁reparas	-11.8754
▁pinqayp	-11.8757
▁tel	-11.876
▁sasachakuyn	-11.876
▁aylluykit	-11.8762
ruwaq	-11.8768
▁amisp	-11.8768
▁libronp	-11.8769
rikurimusqanmant	-11.8773
▁rimarisqan	-11.8775
▁imap	-11.8776
▁chinkarun	-11.8779
wasqanchikmant	-11.878
▁tomayt	-11.8781
kasukusqankumant	-11.8782
▁imanaw	-11.8785
▁amparaku	-11.8785
▁idiomap	-11.8788
▁maqan	-11.8791
▁maskayp	-11.8793
naku	-11.8794
ajr	-11.8799
oj	-11.88
▁unquykuna	-11.8801
▁paqar	-11.8804
panchikq	-11.8806
▁discipulosnint	-11.8807
▁qampi	-11.881
▁nisqayt	-11.8815
▁estudiaqkuna	-11.8815
▁pakan	-11.8823
▁sirvientekun	-11.8823
▁piensani	-11.8826
▁publicaciones	-11.8828
▁hatariy	-11.8828
▁takis	-11.8829
▁qonqan	-11.883
▁leerqankich	-11.8832
▁rikusqant	-11.8832
▁iqmasin	-11.8837
▁taytaykichik	-11.8838
▁atipaspa	-11.8839
▁qipata	-11.8843
▁na	-11.8846
nintaq	-11.8847
chun	-11.8853
▁annin	-11.8859
▁apun	-11.8859
▁vicio	-11.8862
▁qallaykupt	-11.8867
▁churaspa	-11.8868
chakusqanchikta	-11.8887
▁wasiyku	-11.8888
▁kawsaqkuna	-11.8891
▁tenta	-11.8892
▁opera	-11.8896
▁rimayp	-11.8896
▁pachakuy	-11.8902
▁wayram	-11.8904
chisqant	-11.8906
▁rimaywan	-11.8907
chirq	-11.8908
▁uchi	-11.8918
▁horas	-11.892
sqankurayku	-11.892
▁angelkunaw	-11.8924
▁necesitarqak	-11.8926
▁ndic	-11.893
kunaman	-11.8932
▁kamay	-11.8932
▁divorciasq	-11.8933
▁pawar	-11.8937
▁qawasuntaq	-11.8943
▁anachina	-11.8944
▁qhawas	-11.8946
▁iynikit	-11.896
▁kallpancharqak	-11.8963
▁tantearurqanik	-11.8963
▁qhawanan	-11.8965
▁saqerurqan	-11.8967
lanpi	-11.8969
▁reqsinm	-11.897
▁tawna	-11.8972
▁ichiy	-11.8975
▁albert	-11.8987
▁kallpanku	-11.8989
▁jatuncha	-11.8989
▁sitiot	-11.8991
▁oraym	-11.8994
▁cumplin	-11.8995
▁testigos	-11.8995
▁qawachichkank	-11.8997
▁confiakuych	-11.8998
llikuy	-11.8998
▁kuyapayakuy	-11.8999
▁yanapasqankut	-11.9003
▁yaykuru	-11.9004
▁respetasqankut	-11.9004
kuychik	-11.9005
▁casarasqakunat	-11.901
▁saqerusp	-11.9014
▁qukun	-11.9017
▁reqsisp	-11.9019
▁taris	-11.9023
▁bautizakusqan	-11.9026
▁admiraku	-11.9035
▁yachachinm	-11.9043
▁disc	-11.9044
▁llup	-11.9046
yninchikp	-11.9046
▁yakunay	-11.9047
▁ruwaykuna	-11.9047
▁suerte	-11.9049
id	-11.9049
▁tiempoyt	-11.9052
▁sepultu	-11.9053
▁qarqo	-11.9054
▁kasukunapaq	-11.9055
▁sas	-11.9055
kusqanrayk	-11.9057
▁unant	-11.9062
uestas	-11.9063
▁joven	-11.9063
▁california	-11.9063
▁decreto	-11.9063
▁portugue	-11.9063
▁suiza	-11.9063
▁sinai	-11.9064
▁pasawaptinchik	-11.9064
▁versiculokun	-11.9064
▁kikinchakun	-11.9066
▁vaca	-11.9067
▁chaykama	-11.9068
▁yachakunchu	-11.9068
▁qechu	-11.9069
▁chakrayoq	-11.9069
▁willarqanku	-11.9071
estudiaqmasinkun	-11.9072
▁rurakurqa	-11.9074
▁payawanchik	-11.9074
▁lloqsin	-11.9075
▁lluqsiy	-11.9077
▁amapuni	-11.9079
▁pusawaqninchik	-11.908
▁waturiq	-11.908
▁reparasun	-11.908
▁kasukurqa	-11.9081
▁chaskispa	-11.9081
▁mayninta	-11.9083
▁uyarikuq	-11.9084
pachikus	-11.9085
▁qallarirqanku	-11.9085
▁payanapaq	-11.9087
▁kuyasqanm	-11.9088
ptin	-11.909
▁salvaqninchik	-11.9091
▁rantiku	-11.9092
puerto	-11.9095
▁yanqam	-11.9096
▁qollqent	-11.91
▁gal	-11.9101
▁yuyasqanta	-11.9102
▁kachiq	-11.9102
antinpi	-11.9103
▁payayqa	-11.9103
▁iymanta	-11.9107
ninta	-11.9107
▁hapiq	-11.9108
▁rico	-11.9111
▁chaskisqankuta	-11.9113
▁servichikuwaq	-11.9114
▁warku	-11.9116
▁aguantanakusp	-11.9122
▁chinkachi	-11.9123
▁rimanakuy	-11.9128
▁quchap	-11.9138
▁paniy	-11.9139
▁servichikun	-11.914
▁apostolninkunap	-11.9141
▁atuq	-11.9144
▁awinchik	-11.9145
▁pascuata	-11.9146
▁partenta	-11.9148
rayku	-11.9149
▁ayniy	-11.9149
rayani	-11.9155
▁creej	-11.9161
▁yachachisqanp	-11.9162
▁kamalla	-11.9163
▁yachakusqan	-11.9164
machiwasqanchikt	-11.9167
kichikq	-11.9167
▁munakuynin	-11.9169
▁misa	-11.9173
▁mikunk	-11.9175
▁nombrasq	-11.9175
▁qamrayku	-11.9177
▁tupanay	-11.918
▁yuyaspa	-11.9187
▁llakichi	-11.9188
sniyoj	-11.9189
▁predicaptinchik	-11.9191
▁ruwarurqak	-11.9191
▁sonqollam	-11.9192
kuchkapt	-11.9194
▁qillqayta	-11.9195
▁si	-11.9196
▁rikukusp	-11.9199
▁casarakuy	-11.92
▁anka	-11.9201
sqallaykipiqa	-11.9203
▁waspi	-11.9205
▁lima	-11.9212
▁chayamurqa	-11.9215
▁isaiasm	-11.9216
▁amenaza	-11.9217
▁niwasqanchikkun	-11.9217
▁ruwayta	-11.9219
▁familiaykit	-11.9221
▁pampaman	-11.9223
▁bautizakorq	-11.9224
▁aqarwa	-11.9225
▁rejsi	-11.9226
▁yupaychasqanku	-11.9226
▁makis	-11.9226
▁predicasqankut	-11.9234
▁tentacionkuna	-11.9243
▁was	-11.9243
▁ruwaynin	-11.9255
▁lawkunap	-11.9265
▁ruwarunk	-11.9267
sqanmanta	-11.9271
▁awparisqanchikt	-11.9273
▁amistadniykun	-11.9274
waqaychasqanmant	-11.9277
tan	-11.9279
▁santont	-11.928
▁hatuncharqa	-11.928
▁parata	-11.9281
▁tanteakurq	-11.9281
kuchk	-11.9287
▁ukupi	-11.9288
▁agradecekunapaq	-11.9289
▁wichiykuchw	-11.9291
▁tiyasqa	-11.9293
▁ruwasqankup	-11.9298
▁rikchakunm	-11.93
▁kichk	-11.9305
▁angelkunamant	-11.9305
▁ruraqpa	-11.9312
▁chaymantapacha	-11.9312
▁ruwachkasp	-11.9314
▁watakamam	-11.9319
▁poqosq	-11.9323
▁ruwarqanik	-11.9325
▁munasqanp	-11.9326
▁akunay	-11.9328
▁kanayta	-11.934
▁evelyn	-11.9341
▁atirqan	-11.9342
▁tarden	-11.9344
rachirq	-11.9344
▁unanchasqant	-11.9348
kunamantapas	-11.9351
▁agradecekusp	-11.9351
▁kutichipu	-11.9361
▁qonqana	-11.9364
▁aparatokunat	-11.9365
rqankich	-11.9368
anpaqm	-11.937
▁wapu	-11.9375
ruwasqankunamant	-11.9375
▁tanteasqanchikt	-11.9385
▁qillqapim	-11.9387
▁saqespank	-11.9394
▁reqsink	-11.9397
▁sisa	-11.9401
▁atipasqa	-11.9408
pam	-11.9416
▁siglop	-11.9417
▁leespam	-11.9417
▁arurq	-11.9418
chkanchik	-11.942
kasukusqanraykum	-11.9432
▁qawachisqanmant	-11.9433
▁cierto	-11.9442
▁kallpanchi	-11.9448
▁atiptin	-11.945
▁australi	-11.945
▁rikurich	-11.9452
▁sacerdotekunat	-11.9461
▁angelninkunaw	-11.9463
▁amistadninchikp	-11.9468
nanchej	-11.9469
▁karunchaku	-11.9473
▁qosun	-11.9476
▁amistadnikikuna	-11.9486
▁kapuwaq	-11.9498
▁aych	-11.9498
▁kuyakuyllaw	-11.9499
▁takiq	-11.95
▁achkaq	-11.9507
▁akar	-11.9507
ptintaq	-11.9515
▁escuelan	-11.9518
▁librawasqanchik	-11.9521
▁payayta	-11.9521
shajt	-11.9522
▁musyakururqan	-11.9524
▁mesiasp	-11.9525
ia	-11.9525
▁kasqanchik	-11.9534
▁mikhuna	-11.9539
kipim	-11.9544
▁yachachichw	-11.9545
▁yuyaqy	-11.9545
om	-11.9545
▁ungidokuna	-11.9551
anqa	-11.9551
▁tiyaq	-11.9553
▁copa	-11.9556
▁qallayku	-11.9559
▁ruwasqantaq	-11.956
▁kasukunanchik	-11.9561
▁kamachiqm	-11.9565
anik	-11.957
▁gobiernanq	-11.9572
stole	-11.9573
▁warmayki	-11.9576
▁dere	-11.9577
sqanchiktam	-11.9578
▁rikikuna	-11.9582
▁karqam	-11.9583
▁reparasp	-11.9584
▁bendeciyku	-11.9588
nza	-11.959
▁imallap	-11.9592
▁mawk	-11.9593
▁nisqanp	-11.9594
▁este	-11.9602
▁akuqk	-11.9602
▁leepu	-11.9603
▁reqsichikunk	-11.9607
▁luz	-11.9607
▁yanapakurqak	-11.9608
▁chuk	-11.961
rimus	-11.9611
▁qepaq	-11.9612
▁payrayku	-11.9615
▁ungidokunat	-11.9616
▁kasqaku	-11.9621
▁derecho	-11.9622
sukusqankuraykum	-11.9622
▁iscariote	-11.9624
ptinchikpas	-11.9629
▁qarikuna	-11.963
▁qusun	-11.9634
▁casarakuynin	-11.9636
▁patanp	-11.9636
▁kuyaqkun	-11.9638
▁vencey	-11.9639
ura	-11.9642
▁vengakuyt	-11.9646
▁rikurisqant	-11.9647
chiwarqak	-11.9648
▁ngel	-11.9653
sqanchiktapas	-11.9654
▁gasto	-11.9655
kay	-11.9658
waptinchikqa	-11.9659
sqaykip	-11.9661
anchiktaqm	-11.9664
▁qosan	-11.9665
kaspanchikm	-11.9666
▁churanqa	-11.9674
▁willaykuna	-11.9678
▁qosqanm	-11.9681
▁qallarerqan	-11.9684
▁sucurs	-11.9687
▁rikukoj	-11.9687
▁sarepta	-11.9688
▁hotel	-11.9688
▁usqhayt	-11.9688
▁estudianaykupaq	-11.9689
▁costumbreyoq	-11.9689
▁pantana	-11.9689
▁roso	-11.9692
▁kusikuyniyoj	-11.9692
ykurqak	-11.9692
▁atinkichu	-11.9693
▁llink	-11.9695
▁reqsiqkunam	-11.9696
▁chinkachiy	-11.9697
▁apuya	-11.9699
▁cambio	-11.9699
▁sutichakun	-11.97
▁rikurimunanmant	-11.9701
▁awparinanpaq	-11.9701
▁rimariyta	-11.9702
▁urucha	-11.9702
▁gobiernananpaq	-11.9702
▁ce	-11.9702
awan	-11.9704
wantaqm	-11.9705
▁llasa	-11.9705
▁taytayki	-11.9705
▁iskayniyuq	-11.9705
▁entienderqam	-11.9706
▁payana	-11.9706
▁libraykunq	-11.9709
▁lawninpim	-11.9711
▁mero	-11.9715
▁kusikuq	-11.9717
▁kupuni	-11.9719
▁qawachisunchik	-11.9719
▁tropakunap	-11.9721
▁saqinay	-11.9721
▁ruraykunamanta	-11.9721
▁pulo	-11.9724
▁qipi	-11.9724
▁tarikurqank	-11.9725
▁hatarichiyta	-11.9726
▁veneno	-11.9732
▁qonqaymantam	-11.9733
▁samayt	-11.9733
▁chapu	-11.9735
▁chaykuwan	-11.9736
▁kawsaykunata	-11.9739
illay	-11.9741
▁huertay	-11.9743
▁utqayll	-11.9744
▁cuidakunapaq	-11.9745
▁aguantananpaq	-11.9746
▁uqanchikt	-11.9747
▁rurasqam	-11.9749
tawanm	-11.975
▁qayas	-11.9751
▁willakusun	-11.9752
▁kuyayninchik	-11.9763
▁tukuna	-11.9764
▁saqesq	-11.9768
▁saqenk	-11.9768
▁angeles	-11.9769
rqanitaqm	-11.9769
▁willasqanm	-11.9772
▁tiempont	-11.9779
▁awinchayt	-11.9781
▁kusiyta	-11.9782
▁tapukurqan	-11.9786
▁cosechap	-11.9787
anqak	-11.9789
▁iyninkupi	-11.9789
akunap	-11.979
▁qokusun	-11.9791
▁gustawaq	-11.9793
▁salvakuyt	-11.9794
▁rimaymi	-11.9796
▁qawanaykipaq	-11.9803
▁pastor	-11.9804
▁qonqasq	-11.9807
▁nisuptiki	-11.9812
▁suyan	-11.9812
▁nacekusqan	-11.9814
▁salont	-11.9816
jinallataq	-11.9819
▁sunquyta	-11.9824
▁ikuspa	-11.9825
▁jinall	-11.983
ikuyninkunamanta	-11.9831
▁riqsichi	-11.9834
▁angelninkun	-11.9835
▁temprano	-11.9835
sqanchikmant	-11.9838
▁tapukunanchik	-11.9839
▁anachisqa	-11.9845
▁richis	-11.9845
chkanm	-11.9847
▁estudiank	-11.9851
▁mastaq	-11.9852
▁onqoyniyoq	-11.9852
▁llave	-11.9855
mik	-11.9855
▁hatarichin	-11.9857
sunaykit	-11.986
▁leerqan	-11.9861
▁kasus	-11.9862
▁kusikunk	-11.9864
▁chaypit	-11.9871
▁kusirikuykunap	-11.9871
▁riqsisqan	-11.9873
▁akllakuy	-11.9873
anpi	-11.9876
▁aysachiku	-11.9877
niqt	-11.9885
▁yuyayniki	-11.9886
▁corey	-11.989
sninp	-11.9894
▁llakikuni	-11.9895
niqpi	-11.99
▁ruraykunap	-11.9903
▁karunchakuq	-11.9904
▁kuyakuym	-11.9905
▁sacrell	-11.9905
aqkunaq	-11.9906
▁versiculokunat	-11.9913
▁apamuq	-11.9914
▁sientekusqant	-11.9915
▁tarirqak	-11.9916
▁avion	-11.9918
aypaqmi	-11.993
▁negociot	-11.9937
hu	-11.9937
em	-11.994
▁familiata	-11.9942
▁apolo	-11.9946
▁sepultura	-11.9947
▁maskaspa	-11.9948
▁kallpanchakuni	-11.9954
▁reqsikurq	-11.9956
qawachichkanchik	-11.9956
▁qowasqanchikt	-11.9957
nkunap	-11.9958
▁uyarisqay	-11.9964
▁ovejankun	-11.9966
▁librar	-11.9967
▁watacha	-11.9967
sqanmantaq	-11.9974
▁taku	-11.9976
▁taytanm	-11.9986
▁noemi	-11.999
do	-11.9992
▁onqoymant	-11.9992
▁yanapakuyninta	-11.9996
asta	-11.9996
▁qipam	-11.9997
▁saqirurqan	-11.9998
▁qallariq	-12.0002
▁uyaripti	-12.0002
▁nu	-12.001
▁qonqaru	-12.0012
▁iqkunam	-12.0013
▁pipi	-12.0014
▁tur	-12.0014
▁allpaqa	-12.0018
▁betelt	-12.0021
▁ikuy	-12.0024
unk	-12.0024
▁qespi	-12.0029
▁iyniyp	-12.0033
▁tikr	-12.0035
▁anantaq	-12.0037
▁ayllukuna	-12.0038
▁mikunank	-12.0039
▁diosnikita	-12.0044
▁chayp	-12.0044
▁aschall	-12.0044
bert	-12.0048
tukuqkunap	-12.0051
▁aupajm	-12.0051
▁ampara	-12.0052
▁orqho	-12.0053
▁reyman	-12.0057
▁kutimuq	-12.0057
▁willarqan	-12.0058
▁orayki	-12.0058
te	-12.0063
pasunay	-12.0063
▁ro	-12.007
▁leesqaym	-12.0071
sqanp	-12.0073
▁kasukur	-12.0074
▁capitul	-12.0077
▁escoci	-12.0078
▁panikuna	-12.0087
▁cheqaptapuni	-12.0092
▁qayakuq	-12.0096
▁lluqsi	-12.01
▁servin	-12.0102
▁reqsirq	-12.0102
▁hatunmi	-12.0103
▁yanapawananchik	-12.0107
▁sar	-12.011
▁derechon	-12.0111
▁ayma	-12.0114
▁kuyasqayt	-12.0115
▁trenp	-12.0116
▁akarisqankut	-12.0118
▁tanteasqanmant	-12.0119
▁ruwakusqan	-12.0123
▁leo	-12.0124
▁yachachkan	-12.0125
▁pasto	-12.0126
▁corte	-12.0127
▁kasukuptin	-12.0129
▁waya	-12.013
▁afanakuspa	-12.0132
▁revelacionp	-12.0133
▁agar	-12.0133
▁suyus	-12.0136
▁kilometro	-12.0139
ptinku	-12.0146
▁munapaya	-12.015
▁qarikunam	-12.0151
▁kachasqan	-12.0151
▁puk	-12.0155
▁chuyancha	-12.0163
▁reqsisqa	-12.0168
▁rikusq	-12.0168
wasqanchikkunata	-12.0172
▁favornin	-12.0174
kunapaq	-12.0174
chkanchikm	-12.0176
▁pirqa	-12.0179
▁chullu	-12.018
▁pak	-12.0183
kuyninkunamanta	-12.0184
kunan	-12.0186
▁rakiy	-12.0187
▁paykunataq	-12.0187
▁mikuykunat	-12.0189
▁salomont	-12.0191
▁payjin	-12.0194
▁jap	-12.0197
kunapaqwan	-12.0198
▁librost	-12.0205
▁watej	-12.0206
taqmi	-12.0207
▁tarikupt	-12.0209
▁hikutarq	-12.0211
▁amo	-12.0212
▁anrayku	-12.0216
▁tarikusqanku	-12.0221
▁paychik	-12.0223
▁kananchej	-12.0224
▁atiywan	-12.0224
ita	-12.0226
▁betelman	-12.0235
aypaq	-12.0241
▁josiasp	-12.0242
▁cus	-12.0244
▁hurqun	-12.0247
▁tapukuq	-12.0248
▁nacechkapt	-12.0248
▁estoni	-12.0251
▁callep	-12.0251
▁akuni	-12.0252
▁iqmasint	-12.0253
▁mikhuy	-12.0265
▁yuyana	-12.0282
▁qhelqasqa	-12.0282
▁qonm	-12.0284
▁altos	-12.0288
▁estudiaqmasiki	-12.0294
▁prometekuy	-12.0299
▁tarikuptin	-12.0305
▁eunic	-12.0305
▁benjam	-12.0306
▁misioner	-12.0311
sta	-12.0313
▁repararq	-12.0317
▁ukunpi	-12.0317
▁kallpanchakunik	-12.0318
▁suyanchik	-12.0322
▁willka	-12.0325
▁ruwasqaymant	-12.0326
▁uchinakuy	-12.0332
▁hatalli	-12.0332
nanchik	-12.0334
▁predicaci	-12.0335
▁apostolkunam	-12.0337
▁gobernante	-12.0338
cherq	-12.0339
▁debe	-12.0345
hio	-12.0345
▁pampachasqan	-12.0347
▁confiasun	-12.0348
▁orqokunap	-12.0349
▁jaracz	-12.0355
▁noruega	-12.0355
▁roald	-12.0355
▁bautismo	-12.0355
▁ismael	-12.0355
▁magog	-12.0355
▁cuartel	-12.0355
▁llalliriq	-12.0355
▁qallarishajt	-12.0355
▁akllasqanmant	-12.0355
▁museo	-12.0356
▁pilar	-12.0356
▁margarita	-12.0357
▁tikranankupaq	-12.036
▁predicanaykupaq	-12.0361
▁librawaqninchik	-12.0361
▁kutinay	-12.0361
▁yarunapaq	-12.0365
▁tuksi	-12.0367
▁kuyachiku	-12.037
▁niwasun	-12.0371
▁aykun	-12.0371
▁jamoj	-12.0373
▁valeqpaq	-12.0374
aymant	-12.0375
▁quchapi	-12.0377
▁llakiku	-12.0378
▁tukuruspan	-12.0378
▁qowaspanchik	-12.038
▁papelta	-12.038
▁vasota	-12.0381
▁mamanchi	-12.0383
▁astakuq	-12.0385
rimuy	-12.0385
▁salvayta	-12.0386
▁kirus	-12.0387
▁ruwasqanraykum	-12.0388
▁afanasq	-12.0388
▁wakchay	-12.0389
▁chukchan	-12.0392
▁runanchik	-12.0394
▁ukuchkasp	-12.0395
▁fono	-12.0396
▁llaqtakunamanta	-12.0396
▁yanapakuchkan	-12.0396
richkaq	-12.0397
▁kicharin	-12.0398
▁agradecesqam	-12.04
▁japin	-12.0402
▁yachayninku	-12.0404
▁mariaman	-12.0405
▁kayqaya	-12.0408
▁qarinchaku	-12.0414
▁kuyakuyninchikt	-12.0415
▁creta	-12.0415
▁sonqonkut	-12.0417
▁vengaku	-12.0418
▁qamri	-12.0418
erq	-12.0423
▁wichiykuptin	-12.0423
▁muyuriq	-12.0423
▁qawawanchik	-12.0424
▁barac	-12.0425
▁kuyanki	-12.0432
▁willapti	-12.0434
▁niwaqk	-12.0435
▁atena	-12.0435
▁nirqanim	-12.0436
atachus	-12.0436
▁yachachikuyp	-12.0438
▁levitakuna	-12.0444
▁humildadw	-12.0445
▁masiy	-12.0445
▁yuyariku	-12.0445
▁llakin	-12.0446
▁kuyakuynintam	-12.0448
▁wakchayay	-12.0449
▁qarikunapa	-12.045
▁kaws	-12.0451
▁tumpay	-12.0454
▁ruwayman	-12.0455
▁musyakururqa	-12.0457
▁entienden	-12.0461
▁atich	-12.0462
▁sipascha	-12.0462
▁tapukuwaq	-12.0463
▁viudo	-12.0463
▁bel	-12.0465
▁rilla	-12.0466
▁kir	-12.0468
naykit	-12.0468
▁watallan	-12.0468
▁wakintaq	-12.0471
olog	-12.0471
▁preocupakun	-12.0472
▁uyarinay	-12.0474
▁reqsichiku	-12.0474
▁wasikunap	-12.0479
▁chinkar	-12.048
▁iskayrayaq	-12.0481
▁willakuqm	-12.0482
▁suegran	-12.0487
▁watallap	-12.0489
▁churinn	-12.0491
▁pachapas	-12.0495
▁jann	-12.0496
▁razonkunam	-12.0499
▁payt	-12.0499
▁anankumanta	-12.05
▁kutichisqan	-12.0503
▁concienciant	-12.0504
kuyasqanchikrayk	-12.0507
kupaq	-12.0517
waqch	-12.0518
icaci	-12.0521
▁kuyapayakuyw	-12.0522
▁takita	-12.0523
▁qellqasqan	-12.0523
▁yachaspankum	-12.0524
sunkim	-12.0525
▁anakus	-12.0526
▁karulla	-12.0531
▁prometesqanm	-12.0531
▁churasqanmant	-12.0533
▁rikchar	-12.0533
▁rikuyt	-12.0537
▁nirqanik	-12.054
▁munaychakuy	-12.0541
▁cumplisqant	-12.0543
anchej	-12.0544
▁yanapawaqniy	-12.0549
▁yuyaychasqant	-12.0551
▁videop	-12.0551
▁purinay	-12.0553
▁niwarqan	-12.0555
▁qatina	-12.0556
▁nikun	-12.0556
▁kachayta	-12.0557
▁po	-12.0557
▁noqat	-12.0558
wanch	-12.0561
▁bautizakuchkasp	-12.0568
llasq	-12.0571
▁evam	-12.0572
▁qullqipaq	-12.0573
▁lloqsirqak	-12.0575
▁mikusq	-12.0576
nankum	-12.0576
▁kallpaypi	-12.0576
▁tanteanayk	-12.0578
▁cheqninaku	-12.0578
▁nisqankum	-12.0578
▁creesqanku	-12.0581
▁promes	-12.0588
▁makiy	-12.059
lli	-12.0591
▁predicanchik	-12.0592
▁rurachkan	-12.0592
▁usp	-12.0593
▁tanteawaq	-12.0598
▁yanapaw	-12.0601
▁kuyapaya	-12.0604
▁yugoy	-12.0606
nchikt	-12.0608
▁unakuykunapaq	-12.0609
▁flechan	-12.0609
▁leenchik	-12.0609
▁profecia	-12.0613
▁congregacionpi	-12.0615
paykiq	-12.0615
▁millo	-12.0617
▁mary	-12.0625
▁desprecia	-12.0628
▁uyarikun	-12.063
▁karunchakuru	-12.0633
▁karunchakuruq	-12.0636
▁qollqewan	-12.0637
▁qoqm	-12.064
▁manu	-12.064
▁kamache	-12.064
▁akarichisqant	-12.064
▁cambiana	-12.0644
▁qepanchaq	-12.0645
▁suq	-12.0649
nanmant	-12.0653
▁sull	-12.0656
▁wiksan	-12.0661
▁sutinp	-12.0661
▁librananmant	-12.0662
ykichikm	-12.0662
▁leche	-12.0662
▁kallpanchan	-12.0662
▁imastach	-12.0663
▁cosechaqkuna	-12.0664
▁lloqsimu	-12.067
▁valorniyoqt	-12.0675
▁cainp	-12.0677
▁qaqcharq	-12.0677
▁asipaya	-12.0681
▁rurakunqa	-12.0684
▁iynikichikp	-12.0686
▁sovi	-12.0687
▁chawpinpim	-12.0689
▁riporq	-12.0689
▁aqpuni	-12.0692
▁v	-12.0693
▁kamamanta	-12.0694
▁bicicletaw	-12.0694
▁sillakuq	-12.0698
▁iqmasinkuna	-12.0707
▁kanchariy	-12.0708
▁up	-12.071
▁apostolkunaw	-12.0714
▁qawachikun	-12.0714
ne	-12.0717
▁munasqanku	-12.0717
yw	-12.0721
aykichik	-12.0727
qowasqanchikmant	-12.0731
▁akusqayt	-12.0732
▁kutirqan	-12.0736
▁piensanku	-12.0736
▁panikun	-12.0739
▁religionnint	-12.0743
▁casarakuchkasp	-12.0745
▁pantarachi	-12.0755
▁millpu	-12.0756
▁rabia	-12.0757
nankam	-12.0764
▁maskaspank	-12.0766
▁riwan	-12.0766
▁muralla	-12.0766
▁kachkasqa	-12.0768
▁qawachw	-12.0769
▁urmachi	-12.0769
▁runasimi	-12.077
sqankuwanq	-12.077
sqanm	-12.0773
▁ataj	-12.0779
▁paychu	-12.078
▁yanchik	-12.078
sqanw	-12.0781
▁aqmasinchik	-12.0783
llinninchikpaqm	-12.0783
▁diosp	-12.0784
▁ruth	-12.0786
▁ref	-12.0788
▁awiki	-12.0791
sqaykim	-12.0791
▁hukmanyaru	-12.0792
▁lloqs	-12.0795
▁munachkank	-12.0795
▁tarikuspanchik	-12.0796
▁punchawkunap	-12.0797
▁dibuj	-12.0797
▁predicasqanku	-12.0801
▁reqsichikurq	-12.0803
▁willanaypaq	-12.0805
▁umall	-12.0805
▁ruwas	-12.0807
ster	-12.0808
▁puraq	-12.0814
▁cumpliyt	-12.0823
▁qilla	-12.0823
▁leesqanchikp	-12.0827
▁estudiasqayki	-12.0827
▁kallan	-12.0828
ann	-12.0833
▁prometekurq	-12.0839
▁kuskata	-12.0845
▁akunamanta	-12.0845
ykim	-12.0849
▁discipulonkunat	-12.0852
▁mechero	-12.0855
▁mayuman	-12.0857
▁sem	-12.0857
▁kallpachawa	-12.0857
▁contratop	-12.086
▁yaykurus	-12.0861
▁kajkunat	-12.0862
▁makiki	-12.0867
▁yachant	-12.0868
▁confiakusp	-12.0871
jr	-12.0875
▁lugarp	-12.0876
▁kasqaykip	-12.0876
▁qat	-12.0878
▁at	-12.0886
▁versiculot	-12.0891
▁sentenciasq	-12.0893
▁manase	-12.0897
▁orqhonk	-12.0899
▁nacionman	-12.09
▁sanoya	-12.09
▁contentakun	-12.0905
▁saqeych	-12.0907
▁lind	-12.0909
sjin	-12.0909
▁toda	-12.0909
▁rurasqayki	-12.0917
▁isaiast	-12.0926
▁qallaykunq	-12.093
▁kayniy	-12.093
▁sonqollaw	-12.0935
▁jukchasqa	-12.0941
▁rakikun	-12.0942
▁asuykunk	-12.0943
▁taytata	-12.0943
▁kusikurqa	-12.0946
▁wakiqnin	-12.0949
chiy	-12.0949
anw	-12.095
▁qepallant	-12.0959
▁oqaykupaq	-12.096
▁documentot	-12.096
▁admirakun	-12.0962
wachwanm	-12.0965
▁quej	-12.0966
▁uyarispanku	-12.0971
▁precursorm	-12.0974
▁cheqamant	-12.0977
chikt	-12.0978
▁protestante	-12.0984
chka	-12.0988
▁qawachispan	-12.0993
▁llajtan	-12.0993
wananchikt	-12.0997
▁chaskinm	-12.1
▁kutichinapaq	-12.1
▁rimaypa	-12.1001
chiwasqanchikt	-12.1001
▁uywas	-12.1002
▁criston	-12.1006
▁willakuynin	-12.1007
▁tes	-12.1017
▁chipre	-12.1021
yl	-12.1021
▁cambiar	-12.1022
▁lawkunam	-12.1025
▁kallpanchanm	-12.1029
sqanmanjin	-12.1029
sapa	-12.103
▁uporq	-12.1032
▁kayni	-12.1032
▁iqmasiykun	-12.1035
▁prende	-12.1036
▁presocharu	-12.1037
▁rimanik	-12.104
▁pitis	-12.1042
▁dina	-12.1042
▁fi	-12.1046
▁ciro	-12.105
▁anani	-12.1052
▁perdona	-12.1053
▁awint	-12.1059
▁wasikichik	-12.1061
▁voluntad	-12.1062
▁rimapayas	-12.1065
▁diezmo	-12.1069
▁internacional	-12.1069
▁querub	-12.1069
▁jamushajt	-12.1069
▁autoridadniyoq	-12.1069
▁qhariwarmi	-12.1069
▁salvador	-12.1069
▁unquyniyuq	-12.107
▁kamachiwasqan	-12.1071
▁bajo	-12.1071
▁ghan	-12.1071
▁nigeri	-12.1071
▁siki	-12.1071
▁cesar	-12.1071
▁estudioso	-12.1071
▁ayllukunap	-12.1071
▁time	-12.1073
▁maypacha	-12.1073
▁allinniypaq	-12.1075
▁qoykichik	-12.1075
▁ruwachkanchik	-12.1075
▁qepall	-12.1077
▁sasachakunkum	-12.1077
▁predicacionm	-12.1079
▁payaykunata	-12.1079
▁orqhokun	-12.1079
▁sabina	-12.1081
▁usuta	-12.1082
▁costumbrekun	-12.1082
▁chinkachinapaq	-12.1083
▁uyarirqam	-12.1083
▁hornoman	-12.1084
▁runataq	-12.1084
▁rimayninpi	-12.1085
▁kinanku	-12.1086
▁qeparq	-12.1086
▁apamuy	-12.1087
▁pikunap	-12.1088
▁qorqan	-12.1088
▁leespayki	-12.1089
▁diosm	-12.1089
▁aschallam	-12.1091
▁chaynej	-12.1093
▁hukllawasq	-12.1093
enqank	-12.1094
▁adanta	-12.1095
▁atiyniyuqmi	-12.1096
kunanchikm	-12.1097
▁rikurichisq	-12.1098
▁amistadniyuq	-12.1099
▁potifarp	-12.1099
nanchikch	-12.11
▁killanp	-12.11
▁makinku	-12.1104
▁sirviyt	-12.1105
▁confiasp	-12.1105
▁atinchej	-12.1106
▁uywana	-12.1106
▁necesitasqan	-12.1106
▁feso	-12.111
br	-12.111
▁onqorusp	-12.1112
▁leenku	-12.1113
▁urukuna	-12.1115
▁qhapaq	-12.1116
▁chaypa	-12.1116
▁yapatawan	-12.1116
▁qallarinku	-12.1119
▁cuerpoyoq	-12.1122
▁precurso	-12.1122
▁consuelasq	-12.1123
▁kachunku	-12.1123
▁upyay	-12.1125
▁sutikuna	-12.1125
▁uyninwan	-12.1126
▁yachaptin	-12.1128
▁israelitasta	-12.113
▁kutisp	-12.1131
▁je	-12.1132
▁munaptiki	-12.1136
▁casarakuq	-12.1136
▁waqaychay	-12.1141
▁art	-12.1143
▁llaqtaykip	-12.1146
▁rimaqkuna	-12.1146
▁director	-12.1146
▁fara	-12.1147
▁kaqchu	-12.1147
▁capilla	-12.1151
▁pacienciayoq	-12.1152
▁kawsakuyninp	-12.1153
▁religiontaq	-12.1155
▁kawsari	-12.116
▁unakuynin	-12.1164
▁qoyu	-12.1164
▁rurawaptinchik	-12.1166
▁runamasinchikp	-12.1167
▁saqrata	-12.1167
▁tapuykuna	-12.1172
▁onqoyt	-12.1175
▁yupasqa	-12.1176
kunankamam	-12.1177
▁admirachiwarq	-12.118
▁betsabey	-12.1188
▁wakap	-12.1195
▁chayanman	-12.12
▁jarkarq	-12.1203
▁rimaykunaqa	-12.1203
▁yachaytawan	-12.1204
▁diosninchikman	-12.1211
▁kuyakuyt	-12.1213
▁panata	-12.1215
▁haykam	-12.1215
kichikm	-12.1219
▁hukmanyarachi	-12.122
▁rikurimusqant	-12.1225
▁ruwasqanmantam	-12.1225
sunchiky	-12.1226
▁yanapaykus	-12.1226
▁kamin	-12.123
▁kutist	-12.123
▁munaspay	-12.1231
▁magdalena	-12.1243
▁amistadninkunaw	-12.1247
▁jefe	-12.1252
▁chaykunamant	-12.1253
▁yakuqa	-12.1254
▁naciontam	-12.1257
▁ap	-12.126
▁ryan	-12.1263
▁tele	-12.1264
aymi	-12.1265
chikuq	-12.1266
▁wakman	-12.1267
▁richkas	-12.1268
▁churikichik	-12.127
▁cena	-12.1272
▁diosllap	-12.1276
▁qay	-12.1277
▁anaku	-12.1282
sqanchikmantaqa	-12.1284
▁tanteakuq	-12.1286
▁parlasqa	-12.1287
▁chayan	-12.1287
▁ruwaqkunam	-12.1288
▁maqaq	-12.1289
▁hatarichisq	-12.1291
kunawan	-12.1292
▁yachaqk	-12.1293
▁niwarqam	-12.1294
▁kusikunqak	-12.1295
▁kurqu	-12.1296
▁apachimu	-12.1297
▁vende	-12.1297
▁akllarun	-12.13
▁qeparurq	-12.1304
▁predican	-12.1304
iraqm	-12.1309
▁yanapasqan	-12.1313
▁cristoj	-12.1313
▁rinrint	-12.1314
▁lett	-12.1317
▁ruwasqankuwan	-12.1322
qanchikq	-12.1323
nmanta	-12.1327
▁lloqsiq	-12.1329
▁yachayninwan	-12.1331
▁marca	-12.1331
▁watakunata	-12.1332
▁orm	-12.1334
▁qoykun	-12.1335
▁ruwarqan	-12.1336
▁carreta	-12.134
▁burlaku	-12.1343
▁bombakuna	-12.1346
▁versiculopi	-12.1347
▁saulm	-12.1354
▁tijracherq	-12.1354
sunaykichikpaq	-12.1355
▁qepant	-12.1355
▁iti	-12.136
▁anne	-12.1361
arik	-12.1362
▁yanqacharu	-12.1363
▁campo	-12.1363
▁espiritutaq	-12.1363
▁chiriyaru	-12.1368
▁azarias	-12.1369
kusqanwanm	-12.137
▁astakun	-12.1377
▁saqenapaq	-12.1384
▁agrada	-12.1384
▁rikusqanchik	-12.1391
ell	-12.1394
▁sacerdotem	-12.1409
▁kaqqa	-12.1412
▁reqsisqam	-12.1413
▁celulakun	-12.1414
▁trigota	-12.1418
▁runastaq	-12.142
chkachw	-12.1421
▁qollqew	-12.1427
chakusqankumanta	-12.1427
▁angelninkunat	-12.1431
▁admirasqa	-12.1434
▁ruwasqayk	-12.1434
▁agradecekuchw	-12.1437
▁mosojyachi	-12.1438
chan	-12.1439
kusqanraykum	-12.144
▁jehu	-12.1442
saraq	-12.1444
▁tren	-12.1444
▁akunapim	-12.145
▁flavi	-12.1455
▁watukurqak	-12.1457
▁qowarq	-12.1458
▁kachkanman	-12.1468
▁japink	-12.1469
▁regalonm	-12.1474
qar	-12.1477
▁quspan	-12.1479
▁paypim	-12.1484
▁ullat	-12.1484
▁qawamusqanchik	-12.1484
▁viajarq	-12.149
▁asno	-12.1495
▁sonqoym	-12.1496
akurqanik	-12.15
▁yachasqaykit	-12.1506
runk	-12.1506
▁llimp	-12.1507
▁pukllanay	-12.1508
▁rantiy	-12.1508
▁unakuq	-12.1509
▁no	-12.1513
nat	-12.1523
▁awinchananchik	-12.1526
▁ruwaqm	-12.153
▁mikuykun	-12.1532
▁cuentallikuqkun	-12.1533
kuyq	-12.1535
▁miran	-12.1535
▁rikurisqanmant	-12.1538
▁michiy	-12.1541
▁noqap	-12.1542
▁simon	-12.1544
▁israeli	-12.1544
▁pagana	-12.1545
▁bautizakururqan	-12.1555
▁sus	-12.1557
ninchik	-12.1559
▁nacesqa	-12.1568
susqaykit	-12.1572
▁rimariy	-12.1573
▁uqapaq	-12.1574
▁tiyakun	-12.1575
▁rantinay	-12.1575
▁kusikunq	-12.1578
▁zapato	-12.1584
nanku	-12.1585
▁gasta	-12.1587
▁yuyarichi	-12.1588
▁iskayniyku	-12.1595
▁kallpachak	-12.1596
▁contentaku	-12.1597
▁mario	-12.1598
▁mamam	-12.16
▁yuyayninchikp	-12.1606
▁aguantasp	-12.1611
▁esdra	-12.1612
▁miraru	-12.1613
▁uqanchiktap	-12.1616
▁casarakururqan	-12.1621
▁revis	-12.1622
ruwarqak	-12.1624
▁urqani	-12.1626
ill	-12.1626
▁kasukuchkank	-12.1627
ifi	-12.1627
nchi	-12.1627
▁rapran	-12.1631
▁macedoniam	-12.1634
nmankuch	-12.1635
▁papelp	-12.1639
th	-12.1641
▁qawananchikpaq	-12.165
tapun	-12.1654
▁estudiaqmasinku	-12.1655
ctica	-12.1657
▁lloqsisp	-12.166
▁asuriku	-12.1675
▁qawanankut	-12.168
▁dorca	-12.1681
luy	-12.1683
▁maypit	-12.1684
▁platon	-12.1687
▁kananp	-12.1689
▁tony	-12.1691
▁orakusp	-12.1694
▁yachaykachi	-12.1695
▁manchachikuq	-12.1696
utaqm	-12.1698
▁riqsis	-12.1698
▁casarakun	-12.1702
▁munaylla	-12.1707
▁munaptinchik	-12.1707
sqantapa	-12.1708
▁payllat	-12.1711
▁angelnin	-12.1713
▁sasata	-12.1719
▁chaypacha	-12.172
▁sonqollat	-12.1721
▁mikurusp	-12.1724
▁cambiay	-12.1724
▁novian	-12.1726
▁pusawasqanchik	-12.1732
▁kamachej	-12.1732
▁sonqoykipi	-12.1733
rurqanik	-12.1733
▁musyakunk	-12.1734
▁qipallata	-12.1736
▁madi	-12.1743
▁ukusqanrayk	-12.1744
▁atiendeq	-12.1745
▁quq	-12.1745
▁tanteakurqan	-12.1746
▁bendicionkunata	-12.1747
▁qowasqanchikm	-12.1751
▁lott	-12.1754
▁urachi	-12.1756
yanapasqanraykum	-12.1758
▁qosunk	-12.1761
▁cad	-12.1761
ruwasqanchikmant	-12.1765
▁uqanchikr	-12.1771
▁watukurqan	-12.1772
▁yawa	-12.1774
nman	-12.1782
ruptinkum	-12.1783
chakusqant	-12.1786
▁qosakunapa	-12.1787
muychik	-12.1794
▁sonqoykichikw	-12.18
▁apachirqak	-12.1801
▁malgach	-12.1802
▁necesitasqanku	-12.1804
▁yuyarichiwa	-12.181
▁akllakuna	-12.1818
▁kallman	-12.1819
lin	-12.1819
asuykachiwanchik	-12.1827
▁mariam	-12.1828
▁togo	-12.1828
▁carl	-12.1828
▁waq	-12.1832
▁imapit	-12.1833
▁piensarqanik	-12.1837
▁elifaz	-12.1838
▁finlandia	-12.1838
▁mercado	-12.1838
▁nabucodonosor	-12.1838
▁pillpintu	-12.1838
▁siempre	-12.1838
▁zelofeh	-12.1838
▁envidioso	-12.1838
▁gisel	-12.1838
▁wiqru	-12.1838
▁edith	-12.1838
▁grace	-12.1839
▁punchawkamam	-12.1839
▁urgent	-12.1841
▁fico	-12.1841
▁cimientasq	-12.1841
▁tulluyoq	-12.1843
▁qawarisun	-12.1844
▁alema	-12.1845
▁chivato	-12.1847
▁apoc	-12.1847
▁amparawanchik	-12.1847
tinm	-12.1847
▁chinayki	-12.1848
▁qamantapun	-12.1849
▁sonqonchej	-12.1849
▁qosaym	-12.1851
▁kachamuwaqniyp	-12.1854
▁churaqk	-12.1854
▁libraykurq	-12.1855
▁barr	-12.1855
▁nispalla	-12.1855
▁tanteakurunk	-12.1855
▁qonapaq	-12.1857
▁manchakuspankum	-12.1859
▁leenaypaq	-12.186
▁rinchu	-12.186
go	-12.186
uano	-12.1861
▁sonqoyoj	-12.1861
▁saqeq	-12.1863
▁atoq	-12.1864
▁alabananchik	-12.1865
▁sunquykip	-12.1865
▁parlasqankut	-12.1866
▁chaysi	-12.1866
▁qowasunchik	-12.1867
▁guiasq	-12.1869
▁uywasqan	-12.187
▁siminta	-12.1872
▁nabot	-12.1873
▁qhipanta	-12.1873
▁chim	-12.1879
▁puwaq	-12.188
▁cumplikuyt	-12.188
▁kut	-12.1884
▁qillqasqanpi	-12.1886
chiwarq	-12.1886
▁anankuman	-12.1889
▁grabasq	-12.189
npa	-12.189
▁mikhunata	-12.189
▁watayp	-12.1891
sqanpim	-12.1891
▁abelta	-12.1893
▁chayasqan	-12.1895
▁perlas	-12.1896
▁qeparun	-12.1896
▁book	-12.19
▁pagapu	-12.1901
▁nacekorq	-12.1902
▁consuelawanchik	-12.1903
rs	-12.1904
▁reqsirurqan	-12.1909
kaspankum	-12.191
▁kawsayninpi	-12.1911
▁achinku	-12.1911
▁mariamanta	-12.1912
▁patronnint	-12.1912
▁familiayoq	-12.1913
▁nero	-12.1913
▁wasilla	-12.1915
ananpaq	-12.1923
▁rimakuyku	-12.1925
▁payasqanta	-12.1925
kachamuwarq	-12.1928
▁qosqankumant	-12.1929
▁payariku	-12.193
▁qallariruptin	-12.193
▁kacharichis	-12.1935
▁organizacio	-12.1936
▁listoll	-12.1939
▁niych	-12.1941
▁llu	-12.1943
onqank	-12.1945
▁warminm	-12.1946
▁yachachiqmi	-12.1947
▁benjamin	-12.195
▁convido	-12.1951
▁llaqtakunapa	-12.1959
▁willakusqanchik	-12.1961
▁librayt	-12.1967
▁oraku	-12.1967
▁tanteaspam	-12.197
▁nikorq	-12.1974
▁oqata	-12.1975
▁astakurqanik	-12.1976
akuq	-12.1976
▁pawayta	-12.1979
▁naceruptin	-12.1983
▁gusto	-12.1985
▁yachache	-12.1986
▁tikraq	-12.1988
▁pation	-12.1991
▁ninaman	-12.1998
▁nanachikusqant	-12.2003
▁qawaspayk	-12.2006
▁qellqasqanmant	-12.2009
kumant	-12.2013
▁nisqaykit	-12.2013
▁manchakuyta	-12.2014
▁kaychej	-12.202
▁haypanapaq	-12.202
▁machit	-12.2022
▁tarikusqan	-12.2022
▁qallariyllanp	-12.2023
▁tarikuptinchik	-12.2025
akururqak	-12.2025
▁nanayta	-12.2026
▁chayamus	-12.2026
inmi	-12.2027
▁chaninchan	-12.2027
▁micro	-12.2029
ptinchikqa	-12.2031
▁munayniyoq	-12.2031
▁ukya	-12.2033
▁animalt	-12.2036
▁uchinakuyt	-12.2037
▁willakusqanm	-12.2037
▁sillakuqkuna	-12.2038
▁wakchaya	-12.2038
▁atisqaykit	-12.2046
▁listap	-12.2049
▁prohibisq	-12.205
▁qunqur	-12.2051
▁murall	-12.2052
llawanm	-12.2056
▁waqaychasqan	-12.2058
▁tiqu	-12.2059
▁sucursal	-12.206
▁anachis	-12.206
▁amistadniykuna	-12.2064
▁asuykurq	-12.2064
▁ankurayku	-12.2065
▁musyakusun	-12.2068
▁raul	-12.2072
▁rakisqa	-12.2075
▁yaymanta	-12.2075
▁lloq	-12.2082
▁paykunalla	-12.2084
▁tarikunay	-12.2095
uptikichikq	-12.2097
▁niwaptinku	-12.2107
▁betel	-12.211
▁policiakun	-12.212
▁tarikusqaykit	-12.2123
▁sentencia	-12.2123
▁purina	-12.2126
▁yanapanman	-12.2128
sqaykichikmanta	-12.2129
erencia	-12.213
▁cadena	-12.2132
▁waka	-12.2132
ari	-12.2133
▁asuykuchw	-12.2135
▁churinkunap	-12.2136
▁amen	-12.214
wasqanchikrayku	-12.2141
▁suegroy	-12.2146
▁imallata	-12.2146
▁kasukuchkanchik	-12.215
▁apamu	-12.2153
qu	-12.2153
▁kuyanakusqanku	-12.2154
▁ovejankunata	-12.216
▁kirunku	-12.2161
▁chayninchik	-12.2161
▁predicank	-12.2161
▁kuyaspa	-12.2163
▁oram	-12.2164
▁jobmant	-12.2177
▁malaquias	-12.2177
▁estudiasqayk	-12.2178
▁tupas	-12.2178
arurq	-12.2179
ykichik	-12.218
▁kuyuchi	-12.2182
▁siglo	-12.2185
▁rapi	-12.2192
▁admirakunchik	-12.2192
wasun	-12.2194
chkasp	-12.2195
▁qospan	-12.2198
pakurqak	-12.2199
▁unakuykuna	-12.2199
aspa	-12.22
▁lino	-12.2202
▁ujnin	-12.2204
anchikq	-12.2204
▁sonqot	-12.2204
▁ventana	-12.2205
▁llut	-12.2211
▁kuyakun	-12.2211
▁maqasqa	-12.2214
▁wawqi	-12.2216
atapa	-12.2218
▁cartap	-12.2219
▁arinan	-12.2226
▁yachaylla	-12.2229
▁wanakuptin	-12.223
waqk	-12.223
▁unakurqanik	-12.2231
kusp	-12.2233
▁chimpan	-12.2237
▁paniykuna	-12.2239
chiq	-12.2241
▁suni	-12.2242
▁ruwarun	-12.2242
▁cheqapta	-12.2243
▁pagasqa	-12.2244
▁qaqchanaku	-12.2245
▁yachachirqam	-12.2247
▁bendicionestat	-12.2247
▁qowa	-12.2249
▁chinkachiq	-12.225
▁chinkachiptin	-12.2254
▁tiyasqan	-12.2256
▁moisesnintakam	-12.2258
▁qepan	-12.226
▁pantachikuq	-12.2261
religionkunamant	-12.2262
▁kuyanakuymant	-12.2268
ptiykiq	-12.2268
▁honrayt	-12.2269
▁qullqiwan	-12.227
▁costumbrenkuna	-12.2272
▁tra	-12.2273
▁llakikuq	-12.2279
rerqank	-12.228
alment	-12.2288
▁kaytawan	-12.2292
▁sasachakuyniki	-12.2294
▁nacionkuna	-12.2296
▁kallpanchakuchw	-12.2296
▁iynink	-12.2296
▁yapakusqant	-12.2301
▁kanqam	-12.2303
sqayk	-12.231
▁yachaqkunam	-12.231
▁vig	-12.2312
▁tuparurq	-12.2324
▁wanakusqant	-12.2325
rullawaych	-12.2327
▁pukyu	-12.2328
▁rinr	-12.2329
▁mil	-12.2329
▁reqsikuq	-12.2332
▁asna	-12.2333
▁willawasqanchik	-12.2333
▁firma	-12.2334
▁musyakurqak	-12.2335
▁aguantaq	-12.2338
ukuptinchik	-12.2339
▁purmachisq	-12.2342
▁celula	-12.2342
naq	-12.2343
▁tikrarq	-12.2344
kumanta	-12.2344
kukama	-12.2345
▁tupana	-12.2345
▁tanteasqay	-12.2348
▁enemigos	-12.2348
▁huchayoqm	-12.2349
▁maykama	-12.2352
▁qukuq	-12.2354
▁hampin	-12.2356
▁flecha	-12.2356
▁ocupa	-12.236
▁kuyasqayk	-12.2361
▁akururqak	-12.2365
▁insulta	-12.2367
pakunay	-12.237
▁rumim	-12.2372
▁uyarinm	-12.2375
▁yanqacha	-12.238
▁kichay	-12.2383
▁churakus	-12.2383
chiktaqm	-12.2387
▁rikchakuq	-12.2388
▁tanteaspay	-12.2391
▁kanaypaq	-12.2393
▁solicitud	-12.2394
▁casarakurqak	-12.2394
ro	-12.2395
▁wakiqninchik	-12.2399
kichikp	-12.2399
▁eliu	-12.24
▁watanku	-12.2403
▁such	-12.2404
▁correg	-12.2405
▁huchallikuqkun	-12.2413
ptinchikm	-12.2413
▁inki	-12.2413
usqant	-12.2414
nkutapa	-12.2416
▁illas	-12.2422
▁pacienciakusp	-12.2422
▁kichaykus	-12.2423
▁yakuru	-12.2425
▁predicasqank	-12.2428
ananpaqm	-12.2428
▁qellqakuna	-12.2431
▁palacionp	-12.2437
▁kiri	-12.2443
▁wasinpim	-12.2449
▁pukllaykuna	-12.2451
anankupaq	-12.2452
▁hait	-12.2452
▁ruwaykunaw	-12.2453
▁jark	-12.2458
▁bendicionest	-12.2458
▁pakakuna	-12.246
▁wawqent	-12.2463
chayta	-12.2464
▁taytakuna	-12.2465
▁tink	-12.2465
▁kamachejkun	-12.2469
▁qollqenchikt	-12.2477
▁amon	-12.2478
▁maytu	-12.2484
▁kallpanchawarqa	-12.2486
▁tanteakunank	-12.2487
nki	-12.2487
▁saqenq	-12.2491
▁chinka	-12.2494
▁rurakuna	-12.2495
sqankumantaqa	-12.2498
▁kayniki	-12.25
▁acusa	-12.2502
▁soqo	-12.2502
▁yanapasusqayki	-12.2505
▁kallpachaw	-12.2505
▁prometewasqa	-12.2516
▁rejsisq	-12.2518
▁confiakun	-12.2521
▁levitakun	-12.2525
▁ayllus	-12.2527
▁rikurirunm	-12.2528
ber	-12.2529
▁ruwakusqant	-12.2531
▁qull	-12.2533
▁jinapun	-12.2534
▁tragot	-12.2536
ayku	-12.2537
▁sientirachi	-12.2541
▁ruwaykunam	-12.2542
▁kapun	-12.2545
▁arca	-12.2546
uag	-12.2547
▁riti	-12.2547
▁sutu	-12.2551
yniyoq	-12.2554
▁uchinank	-12.2555
▁puriptin	-12.2556
▁kacharisqa	-12.2558
▁anan	-12.2561
▁nacionninkum	-12.2569
awanm	-12.2573
▁inkuna	-12.2581
▁qatipakusp	-12.2582
▁acuerdot	-12.2583
▁discipul	-12.2586
▁hamuchkapt	-12.2588
wanchiktaqm	-12.2592
nkim	-12.2593
▁kachas	-12.2597
▁llapay	-12.2598
▁galaad	-12.2602
▁wayt	-12.2605
▁admirakurqan	-12.2608
sm	-12.2612
▁yanapakuytaq	-12.2614
▁asn	-12.2614
▁pakata	-12.2614
acha	-12.2616
▁bendicion	-12.2617
▁ujll	-12.2618
▁ministeri	-12.2619
▁anchan	-12.2621
chaypi	-12.2625
▁corregiy	-12.2635
▁sayapaku	-12.2636
▁absal	-12.2638
▁unakuyman	-12.2639
▁aga	-12.264
▁oqawan	-12.2642
▁nacionn	-12.2645
aykum	-12.2646
▁orninchikp	-12.2646
qmasinchikkunaw	-12.2648
sqaykumant	-12.2649
▁uyarinki	-12.265
▁kallpanchakunku	-12.2651
▁kachkasqan	-12.2659
▁maqay	-12.2659
ongregacionkunat	-12.266
▁ruwakusqanmant	-12.266
▁rurarqanik	-12.2663
▁ispam	-12.2663
▁urquman	-12.2665
▁purirqak	-12.2665
▁abigail	-12.2665
▁ichkan	-12.2669
jos	-12.267
▁organiza	-12.267
▁aguantarqak	-12.2671
▁ankichik	-12.2671
▁qoqk	-12.2671
▁epafrodito	-12.2672
▁booz	-12.2672
▁departamento	-12.2672
▁florida	-12.2672
▁jersey	-12.2672
▁jueves	-12.2672
▁levadura	-12.2672
▁melquisedec	-12.2672
▁saduceo	-12.2672
▁viernes	-12.2672
▁centro	-12.2672
ight	-12.2672
chiwaptinchik	-12.2672
▁kutiramuspan	-12.2672
▁ruegakuykim	-12.2673
▁siwar	-12.2673
▁servisqant	-12.2673
▁chuqllu	-12.2673
▁don	-12.2673
▁alice	-12.2674
▁nazi	-12.2674
▁parachimun	-12.2674
akuspaykichiky	-12.2674
▁leyes	-12.2675
▁librawarqanchik	-12.2675
niwaq	-12.2676
▁ruegakuykichik	-12.2676
▁watasniyuq	-12.2676
▁juchayoj	-12.2676
▁morri	-12.2678
▁entre	-12.2678
▁wichqa	-12.2678
▁qosunchik	-12.268
▁paolo	-12.268
▁tapuna	-12.2681
kusunch	-12.2682
▁kaykunas	-12.2683
▁apachis	-12.2684
▁ruwaqt	-12.2684
▁wasiyuq	-12.2685
▁chamqa	-12.2685
▁correginankupaq	-12.2686
ano	-12.2687
▁urmas	-12.2687
▁amirunapaq	-12.2687
▁qawasqan	-12.2688
▁tusuy	-12.2691
▁musyakurqanim	-12.2692
▁lotpa	-12.2694
▁awiyuq	-12.2695
ard	-12.2701
▁ezequ	-12.2702
▁elena	-12.2707
▁purinku	-12.2708
▁seqaykuyt	-12.2708
▁huklawp	-12.2709
▁geco	-12.2709
hi	-12.271
▁yachayninman	-12.271
▁penqaym	-12.2711
▁risqaykit	-12.2712
▁unakuyninkum	-12.2714
▁karunchakuy	-12.2715
▁prometekusqant	-12.2715
▁sonqoyoqkunam	-12.272
▁aram	-12.272
▁corre	-12.2721
acione	-12.2723
▁ruwaptiki	-12.2724
▁wawakunapas	-12.2725
▁kuyanaypaq	-12.2726
▁yachachinik	-12.2727
dicio	-12.2728
▁yanapawachwan	-12.2729
▁aqo	-12.2729
▁qayllap	-12.2731
▁hichpaykamuchka	-12.2739
▁allqo	-12.2745
▁tanteanaypaq	-12.2746
▁josueym	-12.275
▁ent	-12.275
▁kawsaqkunap	-12.2751
op	-12.2752
▁saqespa	-12.2758
▁servisqanp	-12.2761
▁chayraykut	-12.2762
▁munarqan	-12.2763
▁espirituntakam	-12.2765
▁ananchu	-12.2766
▁pakaspa	-12.2766
nqank	-12.2767
▁rikuriykusp	-12.2769
▁qellqaqp	-12.277
▁alabasunchik	-12.2775
kunamantam	-12.2778
▁rumikunawan	-12.2784
▁admirakunk	-12.2784
▁rep	-12.2785
▁qatirqak	-12.2785
ajch	-12.2788
▁runallam	-12.279
▁poli	-12.2791
▁negociante	-12.2793
▁niymanta	-12.2795
▁saqekunanchik	-12.2796
▁leesqanchik	-12.2798
▁ruwasqasnin	-12.28
▁aylluman	-12.28
▁munana	-12.2801
▁pisiy	-12.2802
▁sutikun	-12.2806
▁simeon	-12.2807
▁hikutasusqayki	-12.2807
▁raman	-12.2808
ypim	-12.2811
▁awinchay	-12.2811
▁mamaypas	-12.2811
▁amistadninkuna	-12.2812
▁atinkim	-12.2813
llapa	-12.2813
▁faraont	-12.2815
▁leejkun	-12.2815
chiwanchikm	-12.2817
▁bendecinanmant	-12.2817
▁tarikusqaymant	-12.2822
▁yachasqankum	-12.2823
▁ruraykunaqa	-12.2823
▁universidadm	-12.2827
▁telefono	-12.2828
▁uchin	-12.2832
▁unanchananpaq	-12.2834
▁akllaspa	-12.2841
▁bomba	-12.2841
▁yantat	-12.2848
▁hampita	-12.2848
uchiyt	-12.2849
▁pacienciakuy	-12.285
▁cambiasqant	-12.285
nanchiktaqm	-12.285
awasqanchikmanta	-12.2851
▁chayaramus	-12.2855
▁kallay	-12.2856
▁kaqpa	-12.286
▁pakuru	-12.286
▁machaypi	-12.2862
▁irqan	-12.2868
▁suticha	-12.2872
▁tikrananchik	-12.2876
▁cartast	-12.2882
▁tarinkichik	-12.2883
plicay	-12.2886
▁hamunan	-12.2886
wasqanchikq	-12.2887
▁saqekusun	-12.2895
nchikjin	-12.2896
▁qipaman	-12.2897
▁ninkichik	-12.2897
▁rerq	-12.2903
▁uc	-12.2904
sqanchikta	-12.2908
▁yachinqa	-12.291
▁muyuy	-12.291
▁kasukuyninchik	-12.2911
▁kusirikuykun	-12.2914
▁terremotokun	-12.2915
▁rikurirachirq	-12.2917
ed	-12.2923
▁ruwanaykit	-12.2923
qanchikraykum	-12.2924
▁munakusqan	-12.2928
npi	-12.2928
▁leypi	-12.293
▁yachaypas	-12.2932
▁carrerap	-12.2932
▁qillqasqanta	-12.2933
ramun	-12.2936
▁gua	-12.2939
▁noqanchejp	-12.2939
▁ninanta	-12.294
▁yachachiqniki	-12.2942
▁riyman	-12.2943
ci	-12.2944
▁ger	-12.2944
▁kamuch	-12.2954
▁jenny	-12.2958
▁iqmasiykunaw	-12.2961
▁kuyakuyllawan	-12.2963
▁maskaymant	-12.2964
▁hawaman	-12.2969
▁punchaynin	-12.297
ankuch	-12.2972
▁yakukuna	-12.2974
▁yanaparqam	-12.2975
▁ruwaruptin	-12.2977
▁creerqak	-12.2977
▁reza	-12.2979
▁watapipas	-12.2979
▁qosankut	-12.298
▁kallpanchayku	-12.2983
▁kuyanakuylla	-12.2985
▁aysachikun	-12.2985
▁willawaspanchik	-12.2989
wasqankut	-12.299
kik	-12.299
▁filo	-12.2992
▁versi	-12.2992
▁llaqtakuna	-12.2994
▁tuksisq	-12.3001
predicasqanchikt	-12.3004
▁hukninta	-12.3008
▁uqaykupaq	-12.3008
▁qamkunamant	-12.3017
▁hukninman	-12.3019
▁ukuna	-12.3022
▁tapuwaptinchik	-12.3027
▁ecuador	-12.3029
▁judiosm	-12.303
arq	-12.3033
▁concienci	-12.3038
uyumanta	-12.3041
▁rarqa	-12.3045
▁sacerdotekunam	-12.3046
▁kuchus	-12.3047
sqaykichikp	-12.3051
antaqm	-12.3055
▁tre	-12.3058
▁sink	-12.3058
▁uqallay	-12.3059
▁kawsakunapaq	-12.3059
ol	-12.3061
▁familiaykip	-12.3064
llamant	-12.3067
▁chinkayku	-12.3071
▁cuidaku	-12.3072
▁qatipakuychik	-12.3074
▁eliseop	-12.3076
▁reqsinaku	-12.3076
▁policia	-12.3078
▁miqueasp	-12.3081
no	-12.3083
allapun	-12.3084
▁rikorq	-12.3085
▁aysa	-12.309
▁chinkaruq	-12.309
▁afanakunk	-12.3091
▁lantis	-12.3092
▁ungido	-12.3098
▁historia	-12.3098
▁reqsikunk	-12.3098
▁akunk	-12.31
▁yuyaymanarqak	-12.3104
▁ruwasqayt	-12.3106
▁computadorap	-12.3109
▁warm	-12.3113
▁chani	-12.3119
▁libros	-12.3119
▁qillqakunawan	-12.3126
▁mikuyp	-12.3135
▁histor	-12.3136
▁hinastinm	-12.3136
nim	-12.3136
▁kutichiw	-12.3138
wasqanmant	-12.3138
▁vidanw	-12.314
▁atipay	-12.3142
malta	-12.3145
▁tarikusqankup	-12.3146
▁bomb	-12.3148
▁qill	-12.3152
▁nisqayki	-12.3164
ykik	-12.3166
▁pisipu	-12.317
▁janaqpachamant	-12.3177
nankumant	-12.3179
▁lanza	-12.3189
▁impuestota	-12.3192
dam	-12.3193
hina	-12.3198
▁mastar	-12.3203
▁discipulosnin	-12.3204
▁qullqip	-12.3205
▁jeremiasm	-12.3207
▁tupu	-12.3208
▁gobiernonman	-12.3213
▁lliwp	-12.3216
▁sans	-12.3218
▁amistadniym	-12.3218
▁naceptin	-12.3222
▁asuykuq	-12.3224
▁munaptiy	-12.3227
▁kajm	-12.3228
▁aymas	-12.3229
▁venta	-12.3231
tu	-12.3234
waspanchikm	-12.3238
ykunap	-12.3241
▁reqsiy	-12.3241
▁oranpiw	-12.3241
▁runaykuna	-12.3244
▁kanchej	-12.3246
chasqantaq	-12.3247
▁chaykus	-12.3249
▁uqaykuw	-12.325
▁takay	-12.3251
kuwaq	-12.3257
char	-12.3258
▁entiendenanku	-12.3259
▁yachanchej	-12.3261
▁ram	-12.3262
▁bicicleta	-12.3264
▁payaku	-12.3265
anpaqpa	-12.3267
kur	-12.3267
▁ruk	-12.3269
▁leeqk	-12.3269
emant	-12.3273
▁abusa	-12.3273
▁rurasqankuna	-12.3274
▁onqoynin	-12.3276
▁herenci	-12.3282
▁kuyaspank	-12.3285
▁iykun	-12.329
▁reqsisqayk	-12.3291
▁karpap	-12.3291
▁denni	-12.3293
▁kanchan	-12.3294
▁jefte	-12.3298
aqn	-12.3298
▁sira	-12.3299
▁yachachina	-12.3299
▁tikrarun	-12.3302
▁enocp	-12.3303
▁kamachispa	-12.3304
▁llaqtapipas	-12.3304
nikutaqm	-12.331
▁tanteaspank	-12.331
▁chaskisqanm	-12.3311
chkantaqm	-12.3311
▁jamurq	-12.3311
▁masnint	-12.3318
▁yachakunay	-12.3322
▁qhatiykachasq	-12.3322
shanchej	-12.3324
aykip	-12.3324
▁penqaku	-12.3327
▁casarakuym	-12.3333
▁congregacionnin	-12.3341
▁maskayt	-12.3343
▁mamach	-12.335
▁kallpanchaykik	-12.3351
▁kurku	-12.3364
▁qonank	-12.3366
▁maskaym	-12.3368
▁iqmasiki	-12.3373
▁lu	-12.3384
▁saqerqan	-12.3384
▁kaykunawan	-12.3385
▁uqp	-12.3385
▁jon	-12.3388
▁julia	-12.3389
▁sandr	-12.3391
▁rebecap	-12.3392
▁uywakunap	-12.3393
▁tarinqa	-12.3397
jkunat	-12.3398
▁palabray	-12.3398
▁kallpatam	-12.3399
▁maneja	-12.3402
▁rikurisq	-12.3403
ykichikq	-12.3404
nankut	-12.3404
nchikch	-12.3405
▁kachamu	-12.341
▁prometenaku	-12.3414
▁leesp	-12.3415
▁jaywan	-12.3416
▁chaninchank	-12.3419
▁segund	-12.3419
▁judios	-12.342
llayt	-12.3422
mana	-12.3423
▁ujkun	-12.3423
▁japirqan	-12.3425
▁gustas	-12.3426
▁amistadninchikw	-12.3431
▁ukuqkun	-12.3438
▁precursorkunat	-12.3441
nanmantaq	-12.3443
▁pagon	-12.3445
iwanchiktaqm	-12.3448
▁unqun	-12.3451
adp	-12.3454
▁jenn	-12.3455
▁uwas	-12.3456
▁divorcianaku	-12.3458
▁kichara	-12.346
tiendeyt	-12.3462
▁especiales	-12.3464
▁runankunap	-12.3467
yanapawasqanmant	-12.3473
▁reqsikurqa	-12.3475
▁reqsirurq	-12.3475
▁gobierna	-12.3479
▁onqoqt	-12.3481
pak	-12.3482
▁qhisa	-12.3486
sk	-12.3487
▁chaypuni	-12.3494
▁cuidarq	-12.3497
▁entiendeni	-12.3497
▁ruwaqkuna	-12.35
▁qosqank	-12.3501
▁nacionniki	-12.3502
apakurqak	-12.3502
▁qunqas	-12.3514
▁prometesqankuna	-12.3515
▁italiap	-12.3523
▁sientekusqan	-12.3529
▁urmana	-12.353
▁unakusqankup	-12.3531
▁rimapayawa	-12.3532
qanwanm	-12.3533
itaq	-12.3533
▁kawsachw	-12.3538
chikusqankumanta	-12.3544
f	-12.3546
▁karunchas	-12.3548
▁akakurq	-12.3548
▁visita	-12.355
▁sutincha	-12.355
▁wichay	-12.355
▁carrete	-12.356
▁taz	-12.3562
▁kilometrot	-12.3562
▁iqmasinkup	-12.3562
llanchikp	-12.3565
▁tukuruq	-12.3569
▁bendic	-12.3569
▁qellqakurq	-12.3573
ymantam	-12.3574
▁origen	-12.3577
▁jezab	-12.3579
▁religionninm	-12.358
▁makinchi	-12.358
▁kusichis	-12.358
▁institu	-12.358
▁lengua	-12.3581
▁giuseppe	-12.3581
▁jezreel	-12.3581
▁silistr	-12.3581
▁lunes	-12.3581
▁tukupayninp	-12.3581
▁natanael	-12.3581
▁lutero	-12.3581
▁muyurirurqak	-12.3581
▁burro	-12.3581
▁betania	-12.3581
▁puramint	-12.3581
▁tarso	-12.3581
▁testimoni	-12.3581
▁tarirqan	-12.3581
▁nimrod	-12.3581
▁dustin	-12.3581
▁canal	-12.3581
▁portug	-12.3582
▁qumurq	-12.3582
▁kachiptin	-12.3583
▁kachkanraqmi	-12.3583
▁michiqniyoq	-12.3583
▁francisco	-12.3584
▁qonaykipaq	-12.3585
▁carpintero	-12.3585
▁rimapaya	-12.3586
▁artes	-12.3586
▁lagar	-12.3586
▁padres	-12.3587
▁ecuadorman	-12.3588
▁camer	-12.3588
▁qayachimu	-12.3588
▁aychant	-12.3589
▁chaqa	-12.359
▁qawachiychik	-12.359
▁qonqaruspay	-12.359
ayqa	-12.3591
sw	-12.3591
▁qawasqankum	-12.3591
▁urqhurqa	-12.3593
▁qawachkanchik	-12.3593
▁castigasaq	-12.3594
▁sarah	-12.3594
▁janet	-12.3594
▁waqaychanqa	-12.3594
▁chinay	-12.3596
▁kawsachkanku	-12.3597
▁bendecinanpaq	-12.3597
▁chaninninp	-12.3599
▁nat	-12.36
▁huchallikuqt	-12.3601
▁samaykachikuq	-12.3602
▁kutimuy	-12.3604
▁mayupi	-12.3605
▁rurasunchik	-12.3606
▁qepallat	-12.3609
▁llamkayninchik	-12.3612
▁entienderqan	-12.3612
▁pantarachiyt	-12.3613
▁qellqananpaq	-12.3613
▁qayasqant	-12.3613
wank	-12.3617
▁yapaku	-12.362
▁rabiakuq	-12.3622
▁tanteasqayki	-12.3622
▁predicasun	-12.3623
▁bere	-12.3623
▁kaqninku	-12.3624
▁puquynin	-12.3624
▁sonqoykiwanq	-12.3629
▁librasqanmant	-12.3629
▁sime	-12.363
qanchiktapa	-12.363
▁amistadninp	-12.3631
▁richka	-12.3632
▁atikusqant	-12.3632
▁humillakuspay	-12.3635
▁felipet	-12.3636
▁yaykur	-12.3638
▁geniont	-12.3639
▁yachakunapaq	-12.3639
▁rikurqani	-12.364
▁llakipaya	-12.3643
▁pasakurqak	-12.3643
▁akayt	-12.3645
▁kuyawaqninchik	-12.3646
aykiq	-12.3647
▁qosqanku	-12.365
ymanch	-12.3652
punich	-12.3653
▁judap	-12.3653
▁iskaynikichik	-12.3659
▁pakaykusqan	-12.3659
▁chinkachirqa	-12.3662
▁kachip	-12.3664
▁sasachanm	-12.3668
▁contrat	-12.3669
▁hikutasuptiki	-12.3669
▁kawsayninchik	-12.3669
▁angelo	-12.3672
▁chile	-12.3677
▁wasim	-12.3677
▁chaqwap	-12.3678
▁unakusqanchik	-12.3679
▁paninku	-12.3683
▁watukurqanik	-12.3684
▁yachaykunata	-12.3684
▁qawachichkanm	-12.3685
hw	-12.3686
▁sonqomantach	-12.369
▁gobiernasqan	-12.369
▁chilla	-12.3691
yninchikm	-12.3694
▁aylluyt	-12.3694
▁mosoqmantam	-12.3695
▁kawsaqkunam	-12.3697
▁qowanchikm	-12.3698
▁media	-12.37
▁akllasqant	-12.3701
▁lisa	-12.3708
rurqan	-12.371
▁revela	-12.371
▁tarjeta	-12.3712
▁pasapt	-12.3713
▁hikutawanchik	-12.3714
utaq	-12.3714
▁risqanp	-12.3715
▁hatarichirqak	-12.3717
▁ankupas	-12.3718
▁rispay	-12.3718
▁atienekusqant	-12.3719
wasqanchikman	-12.372
▁chinkananpaq	-12.3723
▁qonqarqa	-12.3724
▁kuyarqam	-12.3726
▁wawaykichik	-12.3726
nchejt	-12.3728
▁kunkan	-12.3731
▁maskananpaq	-12.3732
▁chinankup	-12.3734
▁maskanamant	-12.3735
▁harkaq	-12.3737
▁gs	-12.3741
▁sonqonchikm	-12.3742
▁haypanqak	-12.3742
▁orqokunat	-12.3743
▁kaqkunapim	-12.3744
▁kaqwan	-12.3746
▁rantikururqa	-12.3747
▁ukuptinku	-12.3747
▁bautizakuqkuna	-12.3749
sniyuq	-12.3749
▁akuru	-12.3751
▁theodo	-12.3751
▁yachaychej	-12.3751
▁paykunat	-12.3752
kunankupaq	-12.3753
llapim	-12.3753
nqakum	-12.3756
▁muju	-12.3757
▁qawakunm	-12.3757
▁rinman	-12.3759
nawanchikpaq	-12.376
▁sientekusqayki	-12.3763
▁chayamunqa	-12.3768
▁waqaychana	-12.3768
▁mikunanchikpaq	-12.3771
▁vences	-12.3773
▁tukukuyninp	-12.3776
▁niwaptin	-12.3778
▁llamkaylla	-12.3781
▁predicaspanchik	-12.3782
uente	-12.3783
▁uqkunam	-12.3784
▁juknin	-12.3785
▁sanoyachi	-12.3785
▁amachay	-12.3789
▁pakayku	-12.3798
▁kallpalla	-12.3799
▁sinq	-12.3799
▁orayp	-12.38
▁onqochkan	-12.3801
▁saqerqam	-12.3802
▁rub	-12.3802
▁respetasqaykit	-12.3803
▁nacionninkumant	-12.3805
defiendenankupaq	-12.3807
▁sir	-12.3809
▁ruraptin	-12.3811
▁bibliantakam	-12.3812
▁tukuchin	-12.3812
▁pelo	-12.3812
▁muhun	-12.3812
▁gustaq	-12.3813
▁akaristin	-12.3814
▁hatariq	-12.3817
▁seqaykunankama	-12.3817
▁jim	-12.3818
▁reinonpi	-12.3818
▁rimaykunap	-12.3819
ev	-12.3822
▁honrasq	-12.3826
▁confiachw	-12.3827
▁galaadm	-12.3827
▁reqsichi	-12.3828
▁iqmasinkunapaq	-12.3828
piraqm	-12.3831
▁lluptikurq	-12.3832
▁akusqaykit	-12.3834
▁uchirqak	-12.3835
▁uyanta	-12.3835
▁jubilaku	-12.3835
▁sirvienten	-12.3836
▁pachas	-12.3839
▁invitawarqak	-12.3843
▁asurikun	-12.3853
▁musyakun	-12.3855
▁piensasu	-12.3855
▁harkay	-12.3858
▁tikrachi	-12.3858
sojt	-12.3859
▁asuntomant	-12.3863
▁tocaq	-12.3865
▁reqsinchik	-12.3866
▁utqayman	-12.3867
▁consuelaq	-12.3867
▁predicachw	-12.3871
▁jefteyt	-12.3872
▁karen	-12.3875
span	-12.3876
▁qollqellap	-12.3877
▁kuyanakuyt	-12.388
▁rurapti	-12.3881
▁utupasp	-12.3881
▁runamantapas	-12.3881
▁orakuyt	-12.3882
▁qawanamant	-12.3885
▁iyllawan	-12.3887
▁usuchis	-12.3889
kuqm	-12.389
▁uchinankut	-12.389
▁ejemplon	-12.389
▁munaqk	-12.3892
waqninchikkunata	-12.3894
▁kachayku	-12.3898
▁kaqllap	-12.3899
▁mayqanta	-12.39
▁apari	-12.3901
▁uyariruspan	-12.3901
▁costumbrenkut	-12.3902
▁tarirusp	-12.3903
▁sucursalm	-12.3904
▁caifas	-12.3905
▁wawqinkunat	-12.3906
ning	-12.3914
▁marc	-12.3914
▁romam	-12.3917
▁ayqeku	-12.3917
▁kuyawasqant	-12.392
▁anap	-12.3921
yarurq	-12.3922
▁qillqawaq	-12.3923
▁aran	-12.3925
▁asikacha	-12.3927
▁wasikunam	-12.3929
▁danielt	-12.393
▁milla	-12.3931
▁mikuyw	-12.3931
▁rikchakuwarq	-12.3935
▁tarikusqayki	-12.3937
▁pukllas	-12.3938
▁kanam	-12.3945
▁kawsariramu	-12.3946
▁salmop	-12.3946
▁chayanku	-12.3946
▁mikurqak	-12.3947
▁yachakusqank	-12.3948
▁trata	-12.3951
▁willawarqak	-12.3953
▁uqtaq	-12.3954
▁asuykamu	-12.3954
▁tupasqa	-12.3955
▁ja	-12.3958
▁mashkh	-12.3964
▁ruranaykita	-12.3965
apim	-12.3966
▁confianchik	-12.3966
▁qawachinanmant	-12.3966
▁lluptiku	-12.3967
▁kawsayni	-12.397
▁cosechaq	-12.3974
ruptin	-12.3981
jtinchej	-12.3985
▁mirayninkunap	-12.3985
▁raquelp	-12.3988
▁cast	-12.399
▁gedeont	-12.3991
▁apasqant	-12.3992
▁ruruq	-12.3995
▁uchink	-12.3996
▁ruwayninku	-12.3996
▁tikrank	-12.3998
▁predicasqayku	-12.4004
▁servisqanmant	-12.4009
▁qhatiykacha	-12.401
▁uyariwaptinchik	-12.401
▁adanman	-12.4014
▁cal	-12.4017
▁priscil	-12.4018
▁ruwaru	-12.4019
llikus	-12.4023
▁discursokunat	-12.4026
kunataq	-12.4031
▁uchkan	-12.4031
wananchikpaqmi	-12.4032
▁hamurusp	-12.4035
▁allpam	-12.4039
▁qallaykusqan	-12.404
▁puchuruq	-12.4042
▁qawakunapaq	-12.4042
▁mina	-12.4043
▁ujchasq	-12.4043
▁espiritukun	-12.4052
▁huchapaku	-12.4052
so	-12.4053
▁lawt	-12.4055
▁mayllaku	-12.4058
▁tro	-12.4059
ykunata	-12.4061
▁sientin	-12.4061
ama	-12.4064
▁qaparirq	-12.4064
▁mikunant	-12.4069
▁qepanchank	-12.4071
▁kaylla	-12.4072
▁sutis	-12.4074
▁makinman	-12.4077
▁sientekusqanku	-12.408
tin	-12.4082
▁costumbre	-12.4084
▁mikunkichik	-12.4087
▁vin	-12.409
▁mayukuna	-12.4091
▁iqmasikikuna	-12.4095
▁pantasqay	-12.4097
sunk	-12.4098
▁ak	-12.4103
▁gene	-12.4104
▁ken	-12.4105
▁qawasqankumant	-12.4108
npim	-12.4108
anay	-12.4109
▁babiloniam	-12.411
▁mamayman	-12.4112
▁comisio	-12.4113
▁espiritukunam	-12.4114
▁llullam	-12.4115
▁kuyaymant	-12.4117
rqun	-12.412
▁kachka	-12.4126
▁acan	-12.4129
▁aguantan	-12.4131
sqayraykum	-12.4132
▁qunqaru	-12.4135
▁unquptin	-12.4136
gan	-12.4136
inq	-12.4138
▁ced	-12.4139
▁parl	-12.414
▁qollqenkut	-12.4145
▁rikurin	-12.4145
▁estudiaqt	-12.4146
sqanmantapacha	-12.415
▁lil	-12.415
stachu	-12.4155
▁noeypa	-12.4165
▁qukuru	-12.4165
▁iqmasi	-12.4166
▁hermana	-12.4167
▁encargakuqkun	-12.4167
▁anawan	-12.4168
▁kuyawanchikm	-12.4169
▁tanteaspa	-12.4171
▁imaraq	-12.4173
lam	-12.4175
▁taqri	-12.4177
▁apostolkunat	-12.4178
▁ukurqak	-12.4178
▁lanti	-12.4181
▁cumplinanmant	-12.4181
▁takyas	-12.4182
▁ananpi	-12.4185
▁ruraptinchik	-12.4189
▁rikuq	-12.4194
▁musyakuspa	-12.4198
▁imasta	-12.42
▁mirayniki	-12.4201
▁qawachiwa	-12.4204
▁muchu	-12.4206
▁alabay	-12.4207
▁rakikuyt	-12.4209
▁chinkananta	-12.4211
▁musyakururqak	-12.4212
▁cumplisp	-12.4213
▁qawamuchkan	-12.4213
kunapas	-12.4213
orq	-12.4214
qam	-12.4216
▁hamuchkaptin	-12.4217
▁cumplinanchik	-12.4226
▁entiendenkich	-12.4226
awanq	-12.4226
▁tanteasqanchikm	-12.4227
▁estadio	-12.4229
▁millwan	-12.4231
▁tanteakuy	-12.4233
▁yanapachikuchw	-12.4233
▁qepanchananchik	-12.4235
▁absalon	-12.424
kusun	-12.4241
▁kaqk	-12.4244
ung	-12.4245
▁vengakuy	-12.4246
▁pago	-12.4246
▁jukchasq	-12.4251
▁amistadninkup	-12.4252
▁payawan	-12.4252
▁viud	-12.4253
▁sutinpim	-12.4255
npaq	-12.4256
mantaw	-12.4257
▁imasp	-12.4262
▁kuraj	-12.4264
▁sirvientew	-12.4264
▁aypa	-12.427
▁rakis	-12.427
▁chinkachisqam	-12.4271
▁bendecinq	-12.4272
oso	-12.4274
▁anpim	-12.4278
▁amistadninku	-12.428
yninta	-12.4286
▁akuchw	-12.4287
▁sanson	-12.4287
▁phi	-12.4289
▁qawanm	-12.4293
▁ruwasqasninp	-12.4293
▁akariqm	-12.4294
▁anllam	-12.4294
tivo	-12.4295
▁kuyanank	-12.4296
ruwarq	-12.4297
piqa	-12.4298
▁loid	-12.4299
▁cornetilla	-12.4299
▁qepanp	-12.4299
mu	-12.4304
karqa	-12.4306
▁qillqana	-12.4308
▁unanchaq	-12.4308
▁chinkachinq	-12.4313
sqaykichik	-12.4315
lac	-12.4318
uk	-12.4319
amp	-12.4319
▁kawsasqankup	-12.4322
nawanchejp	-12.4324
▁unakuymant	-12.4324
▁misioneros	-12.4327
▁tinkast	-12.4331
▁kuskay	-12.4331
▁uchirqa	-12.4334
▁yacharuni	-12.4335
ptillanm	-12.4335
moz	-12.4337
▁qullqin	-12.4339
chin	-12.4341
ul	-12.4344
▁eliseot	-12.4348
▁cumpliy	-12.4349
▁toqllankunam	-12.4351
▁pachayoq	-12.4351
▁kuyasqanchikta	-12.4352
ptinchikpa	-12.4355
que	-12.4358
▁qawasqaym	-12.4361
▁urqun	-12.4362
▁tanteaspanku	-12.4362
▁asllam	-12.4365
ero	-12.4367
▁defienderq	-12.4368
▁rurasqaykichik	-12.437
▁qosqa	-12.4371
▁willawaptinchik	-12.4374
pasch	-12.4375
▁qopa	-12.4376
▁inanpaq	-12.438
▁riqsisqay	-12.4381
▁hinaspan	-12.4381
▁penqakuq	-12.4383
▁hanay	-12.4387
▁hind	-12.4389
▁leerusp	-12.4395
▁kantu	-12.44
chinankupaq	-12.4405
▁inglest	-12.4406
suqnikichik	-12.4406
▁rakiynin	-12.4408
▁cumplikusqan	-12.4408
▁saqerunk	-12.441
▁hapipakurqa	-12.4419
runmank	-12.4425
▁kusikunik	-12.4428
▁estudiasqaym	-12.443
▁asikun	-12.4433
▁diosniki	-12.4437
▁divorciakuyt	-12.4438
▁josueyw	-12.444
▁rurapt	-12.4441
▁nacionkunapa	-12.4442
▁japirq	-12.4442
▁ukum	-12.4443
▁kuyapayasp	-12.4443
▁kuyanamant	-12.4449
▁avi	-12.4451
▁oqaykuw	-12.4454
▁kallpanchakuq	-12.4455
▁alab	-12.4457
hon	-12.4464
▁servichikusqant	-12.4471
▁qillqakusqan	-12.4472
▁qawaymant	-12.4473
▁kiyku	-12.4474
▁aywi	-12.4475
▁kawsasqan	-12.4478
▁bombakun	-12.4478
wasqanchikp	-12.448
▁iqmasiykunap	-12.448
▁qotuchakuykuna	-12.4481
▁purispa	-12.4486
▁weq	-12.449
▁kusikunchik	-12.4491
▁awparirq	-12.4491
pank	-12.4491
▁predicasqant	-12.4491
▁kanaykipaq	-12.4494
▁tanqas	-12.45
▁venceq	-12.4501
▁taqs	-12.4502
▁tariru	-12.4503
▁musyakunqak	-12.4504
▁ruwasqayku	-12.4504
▁orakuy	-12.4508
▁wakiqn	-12.4511
▁ruwayninchikt	-12.4513
ykuwarq	-12.4513
▁waynas	-12.4514
▁takikun	-12.4518
achi	-12.4518
▁saqiq	-12.4521
asun	-12.4523
▁alan	-12.4523
▁ruwaymant	-12.4525
▁willapt	-12.4525
▁riptink	-12.4529
▁divorciaku	-12.4536
▁qosank	-12.4542
▁yaykunq	-12.4543
▁qaparin	-12.4548
▁purisqa	-12.4551
▁etiop	-12.4554
▁sayaynin	-12.4554
▁wateqaq	-12.4554
araqm	-12.4558
▁ruraptiki	-12.456
▁riqsini	-12.4561
gr	-12.4561
▁makinp	-12.4564
▁jesusmantam	-12.4569
▁allinm	-12.457
▁saqench	-12.4573
qch	-12.4577
▁afranio	-12.4581
▁elisabet	-12.4581
▁elsebeth	-12.4581
▁eritrea	-12.4581
▁filadelf	-12.4581
▁iconio	-12.4581
▁meguido	-12.4581
▁pensilvani	-12.4581
▁quebec	-12.4581
▁teocr	-12.4581
▁militar	-12.4581
▁trinidad	-12.4581
▁cruz	-12.4581
▁willariwanchej	-12.4581
▁arameo	-12.4581
▁enfer	-12.4581
▁papiro	-12.4581
▁uzias	-12.4581
▁jorge	-12.4581
▁suelo	-12.4581
▁newton	-12.4581
▁daal	-12.4581
cerca	-12.4581
▁ponc	-12.4582
▁aguantanaykipaq	-12.4582
▁emilia	-12.4582
▁syd	-12.4582
▁italiano	-12.4582
namant	-12.4583
▁saqenaykipaq	-12.4583
▁munakuyniyoj	-12.4583
▁alejandro	-12.4583
▁masniyoq	-12.4583
▁makiyuq	-12.4584
▁creenki	-12.4584
▁yanke	-12.4585
▁christine	-12.4585
▁sonqoykichikt	-12.4585
▁mikuspa	-12.4585
▁asuykunanpaq	-12.4585
▁yakuyuq	-12.4585
chkawaq	-12.4585
▁awparinaykipaq	-12.4586
▁kusikusaq	-12.4587
erio	-12.4588
▁lloqsinankupaq	-12.4588
▁pend	-12.4589
▁estudiachi	-12.459
▁qhasilla	-12.459
ntaj	-12.4591
▁conden	-12.4591
▁tiro	-12.4592
▁qalaypaqt	-12.4592
▁wiksu	-12.4592
▁rikichi	-12.4593
▁kachamusaq	-12.4593
▁titom	-12.4593
ko	-12.4595
▁doris	-12.4595
nanp	-12.4595
▁kankichej	-12.4596
▁kipipas	-12.4596
▁wawasniykichej	-12.4596
▁paulo	-12.4596
▁nucle	-12.4597
▁khuskachasq	-12.4598
▁rurayninpi	-12.4598
▁presochasq	-12.4601
▁qumir	-12.4601
▁hinastinpim	-12.4602
▁reqsikuqkun	-12.4602
▁rantipakuq	-12.4603
▁horasta	-12.4605
▁kuyakuyniyuq	-12.4605
▁salvawaqninchik	-12.4605
chakunankum	-12.4606
chasqanmanjin	-12.4606
▁fecha	-12.4607
▁rimarina	-12.4607
▁qayllapi	-12.4609
▁rimayniy	-12.4609
niym	-12.4611
tario	-12.4611
▁kusikunay	-12.4612
khat	-12.4612
▁pac	-12.4614
▁maskanaypaq	-12.4614
▁urachinanpaq	-12.4616
▁janaqpacham	-12.4616
▁chinankumanta	-12.4616
▁kuticherq	-12.4617
▁tarpusq	-12.4618
▁rikurimu	-12.4619
▁yachachini	-12.462
▁ruwasqam	-12.462
▁riqsiyta	-12.4621
▁insultanaku	-12.4622
▁karpan	-12.4622
▁contray	-12.4623
▁nichkas	-12.4623
pichu	-12.4623
▁llaqtawan	-12.4624
▁eduardo	-12.4625
▁tarpuyta	-12.4631
▁taripay	-12.4631
▁kusikunkum	-12.4633
▁galaci	-12.4634
▁asirio	-12.4635
▁chaninchay	-12.4637
▁chinkichik	-12.4638
▁cuadro	-12.4639
▁intuchikunapaq	-12.4639
anchikt	-12.464
▁tikranapaq	-12.4642
▁riqsiwan	-12.4644
▁estudiaym	-12.4644
▁kutimup	-12.4645
▁qaparisp	-12.4646
▁ripuy	-12.4646
▁ukunm	-12.4648
▁mamanchikp	-12.465
▁riychik	-12.4651
▁kuyapayakusp	-12.4651
▁judiokunapa	-12.4652
▁negan	-12.4652
▁carmel	-12.4654
qnikichikm	-12.4656
▁pataman	-12.4656
▁rimaychu	-12.4656
▁chhikata	-12.4658
▁american	-12.4659
▁richkani	-12.466
▁defiendenanpaq	-12.4661
▁kikinchi	-12.4661
▁jatuncharq	-12.4663
▁awsakunat	-12.4663
mistadninchikkun	-12.4663
▁tobias	-12.4666
▁paki	-12.4666
▁kaspalla	-12.4667
▁casara	-12.4668
▁katkatata	-12.4671
▁intuchiku	-12.4674
▁pentecostesp	-12.4675
▁wichinapaq	-12.4675
▁qawarqanik	-12.4677
▁madrugaw	-12.4678
▁yachaypi	-12.4678
▁noeym	-12.468
wasqant	-12.4682
▁tinka	-12.4683
▁takyay	-12.4685
▁rimayniyuq	-12.4687
▁iii	-12.4688
▁yachkan	-12.4688
▁kanantam	-12.4692
▁muhuqa	-12.4698
▁onqosqanrayk	-12.4698
▁nisqapim	-12.4699
▁mirarun	-12.47
▁yapakurun	-12.47
▁tapukusunchik	-12.4701
▁unquyta	-12.4701
qniyq	-12.4704
kusqaykit	-12.4705
▁nacional	-12.4707
▁iqmasinkunapa	-12.4707
nkichu	-12.4709
▁makilla	-12.4711
▁tukukun	-12.4711
▁upallay	-12.4712
▁armagedonp	-12.4715
▁sonqonkuwan	-12.4716
▁alberto	-12.4716
▁poqochi	-12.4718
frec	-12.4722
▁aylluyuq	-12.4722
▁paraisom	-12.4723
▁ukusun	-12.4727
▁kasuchi	-12.473
kuspanchikm	-12.4734
▁juzgana	-12.4735
▁capitulon	-12.4736
nchikmanm	-12.4737
▁ura	-12.4737
▁sonqoykit	-12.4737
naykimantaq	-12.4738
▁bautizakuq	-12.4739
▁guiasqan	-12.4742
▁juchas	-12.4744
wasqanchikta	-12.4744
▁tanteanm	-12.4745
▁raquelm	-12.4746
▁asuykamuwasp	-12.4747
▁upya	-12.4747
▁akatanqa	-12.475
▁saqeruspa	-12.4752
qaq	-12.4753
▁sasachakurqak	-12.4755
▁wawayt	-12.4756
▁pasach	-12.4759
▁waylla	-12.476
▁kaymantapas	-12.4762
▁claudia	-12.4763
▁waqyariwarqa	-12.4763
▁mariapas	-12.4763
▁watantin	-12.4763
▁mantieneyt	-12.4765
▁cumplikusqanm	-12.4766
▁wicha	-12.4767
▁kachkaspayki	-12.4772
▁kuyanqak	-12.4773
▁peliculakunap	-12.4774
▁entiendesqant	-12.4775
▁cheqniqninkuna	-12.4775
▁chayay	-12.4776
▁akarichisuqnik	-12.4784
▁lutoku	-12.4785
▁palabrata	-12.4789
uchkaq	-12.4792
dore	-12.4796
▁carroy	-12.4797
▁qatikusun	-12.4798
aychayoq	-12.4799
▁lluqsinay	-12.48
▁uyariyku	-12.4801
▁bendecinm	-12.4801
▁akakun	-12.4801
▁yachaykuspa	-12.4801
▁hut	-12.4802
▁huertata	-12.4804
▁kikillank	-12.4804
▁kasukusq	-12.4807
▁qawachisuntaq	-12.4808
▁kachach	-12.4808
big	-12.4809
▁qollqeyk	-12.4811
▁ruraru	-12.4815
▁aqlla	-12.4815
▁angelninkunapiw	-12.4819
▁kajtin	-12.4823
▁finees	-12.4823
udismo	-12.4825
▁jobpa	-12.4831
▁versiculomant	-12.4832
▁entienderurq	-12.4834
▁estudiaqkunap	-12.4836
▁karunchakurunm	-12.4837
▁chir	-12.4841
▁sio	-12.4843
▁tapusuptiki	-12.4845
▁kunka	-12.4847
nice	-12.4849
▁sipi	-12.4851
▁wischuru	-12.4852
▁maylaw	-12.4853
▁riqsirqan	-12.4854
▁rutun	-12.4858
▁wawqenkuna	-12.4858
▁mikuypa	-12.4861
ymantapa	-12.4862
▁lloqsirusp	-12.4862
▁sobhuz	-12.4862
▁chaskiku	-12.4863
▁hapipakusqant	-12.4864
▁ilaqta	-12.4864
▁kuyakuyninchik	-12.4868
yman	-12.487
▁maskawaq	-12.4876
▁watamant	-12.488
▁kasukuspan	-12.4881
▁anakuyta	-12.4885
▁precursorkuna	-12.4886
▁nacechkaptin	-12.4888
chakuqm	-12.4888
aqkunap	-12.4893
▁sic	-12.4896
▁prometekusqan	-12.4897
▁bautizakuruptin	-12.4898
▁bolsa	-12.4899
▁kichan	-12.4899
▁niwa	-12.4901
▁tarikusqanchikm	-12.4903
▁iqmasikiw	-12.4905
▁castankun	-12.4905
▁costumbrekuna	-12.4908
▁payanku	-12.4909
▁paym	-12.4911
▁qasq	-12.4911
▁predic	-12.4912
▁akarin	-12.4918
akuna	-12.4921
▁ripukurqan	-12.4922
▁edad	-12.4925
▁ejerciciot	-12.493
▁qapari	-12.493
▁amistadninpa	-12.4931
aypi	-12.4932
▁wakcham	-12.4933
▁manat	-12.4935
▁sientekun	-12.4935
▁kutirichi	-12.4935
▁awinp	-12.4937
▁razon	-12.4938
▁arco	-12.4938
▁ruwasqankuna	-12.4939
▁kawsarimu	-12.494
▁qepit	-12.4941
ajt	-12.4941
▁salonkun	-12.4942
▁amunant	-12.4943
▁llikip	-12.4943
▁hurqumu	-12.4947
▁cheqninakuyt	-12.4947
▁tarikusqayt	-12.4949
▁rutuq	-12.4951
▁llapallaykichik	-12.4951
▁nic	-12.4952
▁ovejankuna	-12.4953
ananpaqq	-12.4955
▁atiqt	-12.4962
apuni	-12.4964
▁tomaq	-12.4968
▁awiriyt	-12.4969
▁aquila	-12.4972
wananchiktaqa	-12.4974
▁saqerun	-12.4975
▁amawta	-12.4975
▁agrad	-12.4977
▁tio	-12.4979
▁hanku	-12.498
▁yanapakusun	-12.4981
▁leesqanku	-12.4981
▁pasasuptik	-12.4982
▁qotu	-12.4982
▁anwan	-12.4988
▁predicayninchik	-12.4989
▁kuyawank	-12.4993
▁hamusqay	-12.4994
▁toqllankunamant	-12.4995
▁adorn	-12.4997
▁tomaku	-12.5
ett	-12.5
▁humillasq	-12.5003
▁levitas	-12.5008
chkanchikchu	-12.5008
chaninchasqankut	-12.5013
▁mikuykachi	-12.5017
▁qosqankut	-12.5018
▁rikchanachi	-12.5021
atataq	-12.5023
enia	-12.5027
▁vencenapaq	-12.5028
▁chutu	-12.5029
▁tocan	-12.5031
▁santu	-12.5038
▁kawsarimuqkun	-12.5038
▁seqayku	-12.5039
▁nirqajin	-12.5039
▁pachaykit	-12.504
▁kachkaptiy	-12.504
▁pic	-12.5042
lare	-12.5043
▁kamachisqanm	-12.5044
▁maskachkan	-12.5045
▁rimaykunatam	-12.5046
▁estudiaqmasi	-12.5049
▁saulmant	-12.505
▁tanteakunapaq	-12.505
chiyta	-12.5052
▁manejayt	-12.5055
▁pier	-12.5057
▁wiqin	-12.506
▁saqer	-12.5062
▁takip	-12.5067
llaman	-12.5068
▁rikuriramun	-12.5069
▁josia	-12.5069
yanapakusqanmant	-12.507
▁isaq	-12.5072
▁paraq	-12.5073
▁nico	-12.5077
qmasiy	-12.5077
▁sonqonman	-12.5079
suptikichikq	-12.508
▁jin	-12.508
▁payaya	-12.508
▁tanteakururqan	-12.5081
▁kawsaypa	-12.5082
▁qatipakuchkan	-12.5085
▁bautizakusqanku	-12.5087
▁ac	-12.5089
▁achiwaptinchik	-12.5092
▁hinataq	-12.5096
ymantaq	-12.5097
▁avionp	-12.5098
▁saran	-12.5101
▁qollqeta	-12.5103
▁iyku	-12.5103
▁anyay	-12.5108
▁versiculos	-12.5109
▁sinkaku	-12.5111
▁rurall	-12.5119
▁kuyaqkuna	-12.5125
▁kasukuptiki	-12.5126
▁isaiasw	-12.5126
▁churasqankut	-12.5126
▁alabakuq	-12.513
▁chayaruspanku	-12.513
▁envidiaku	-12.5137
▁yuyaymanaq	-12.5138
anchikpaq	-12.5139
▁willanm	-12.5143
ismo	-12.5146
▁chayjin	-12.5152
achirqak	-12.5153
▁mera	-12.5155
▁maskarqan	-12.516
▁payllapaq	-12.5161
▁payaynin	-12.5162
▁nabotp	-12.5163
▁uqhariku	-12.517
▁suyachw	-12.5171
▁llimpa	-12.5171
▁kawsarimunan	-12.5172
▁mikurq	-12.518
▁rakinar	-12.5181
▁amistadkunaw	-12.5182
▁aysan	-12.5186
ichkaq	-12.519
par	-12.519
▁leerurq	-12.519
▁eu	-12.5191
▁rikorqan	-12.5193
▁makill	-12.5202
▁predicasqa	-12.5202
▁cua	-12.5203
nkupa	-12.5204
▁anachu	-12.5205
nakuy	-12.5207
▁onqorurq	-12.5209
▁qokuspanchik	-12.521
ruwanaykichikpaq	-12.521
▁mamachan	-12.5211
▁cosechanq	-12.5214
▁envidianaku	-12.5215
▁qawaptinku	-12.522
▁hoqarisq	-12.522
▁onqosqankurayk	-12.5221
▁kallpachay	-12.5223
▁qosakunat	-12.5227
▁salvaq	-12.5227
chikmanta	-12.5228
▁sonqoyk	-12.5231
▁onqoykunaw	-12.5234
▁paqarinnintinta	-12.5235
sqaykichikt	-12.5237
ykuq	-12.5239
▁yanapawan	-12.5239
▁kawsasqayki	-12.5242
▁palabraykiq	-12.5246
▁yaykuq	-12.5247
ef	-12.5249
▁casarakuyp	-12.5252
tinmi	-12.5254
▁reqsisqant	-12.5255
▁invitan	-12.5257
▁cumplikuptin	-12.5259
▁wischuyku	-12.5261
uspaykim	-12.5263
▁hichpaykamu	-12.5269
▁kankuman	-12.5273
▁yachachinqa	-12.5275
▁jatunchasq	-12.5276
▁qawachinqak	-12.5277
▁bernabe	-12.5278
▁chaskisqay	-12.5278
▁pusay	-12.5283
▁asqalla	-12.5284
▁yaykunqak	-12.5286
▁predicasqayk	-12.5286
▁kallpanchawasun	-12.5286
musun	-12.5289
▁kawsakuyniki	-12.5289
qant	-12.529
▁atipaq	-12.529
▁nisq	-12.5293
▁lluch	-12.5293
▁qospank	-12.5294
▁kamachimunq	-12.5294
qmasinchikkunam	-12.5295
▁ayllupa	-12.5296
▁sayk	-12.5299
▁casarakunk	-12.5309
▁kichayku	-12.531
illasq	-12.5311
▁qullu	-12.5311
kuptikichikq	-12.5313
▁vidanchik	-12.5317
▁tarikurqani	-12.5319
ijin	-12.5321
llarqat	-12.5323
▁asuykachi	-12.5324
▁ika	-12.5326
▁agradecekuyt	-12.5328
▁predicaspank	-12.5331
▁entiendenki	-12.5335
▁urqach	-12.5338
▁reqsikurqak	-12.5339
▁tarirqani	-12.5341
▁ron	-12.5343
▁watasqa	-12.5344
▁qepi	-12.5346
▁hukllawakuq	-12.5348
▁huntar	-12.535
▁muchay	-12.5354
land	-12.5355
▁amachan	-12.5356
▁kallpanchasq	-12.5361
▁kuyachw	-12.5366
▁yacharurqanik	-12.537
chkasqant	-12.5372
▁rejsin	-12.5373
▁rinrin	-12.5374
▁amiru	-12.5375
▁qellqasqanku	-12.5377
▁consejasq	-12.5379
▁tod	-12.5379
▁qokusqanchikm	-12.5383
▁kasqayki	-12.5385
▁payar	-12.5386
ney	-12.539
▁oqaykup	-12.539
▁warmiyki	-12.5391
▁pantarachirq	-12.5391
chawanchikm	-12.5398
▁amistadniykunaw	-12.54
▁azote	-12.5403
▁sapan	-12.5403
▁servirqan	-12.5404
▁awinchasqanchik	-12.5404
▁yachachikuyn	-12.5404
▁tipi	-12.5404
chiwaptinchikpas	-12.5404
▁achkataraq	-12.5405
de	-12.5406
musqant	-12.5407
▁lawray	-12.5409
jinallatat	-12.541
▁qori	-12.5411
▁aparato	-12.5413
▁profeciamant	-12.5416
▁kawsasqanw	-12.5417
▁onqoykunat	-12.5423
▁georgia	-12.5425
▁ruwaptink	-12.5428
▁razonkun	-12.5429
▁gobiernapt	-12.5432
▁versicul	-12.5444
▁samaykachi	-12.545
▁dolares	-12.5451
▁awpap	-12.5452
▁iqmasik	-12.5458
urq	-12.5463
▁maquin	-12.5466
▁tanteasqanchikw	-12.5466
▁pierdekuy	-12.5468
▁estudiasqank	-12.5469
▁reqsiyll	-12.5469
kusqanchikmant	-12.5472
▁casco	-12.5477
▁flech	-12.5477
▁kuyapay	-12.5479
▁fin	-12.5481
tros	-12.5481
▁angelw	-12.5482
▁intu	-12.5484
▁urmachin	-12.5486
▁qawachkanm	-12.5489
▁cumplisun	-12.549
▁avionkuna	-12.5493
▁achikyaq	-12.5494
▁uyariwasqanchik	-12.5494
llant	-12.5496
▁convencisq	-12.5503
▁hapiqk	-12.5503
▁qepancharurqak	-12.551
▁lloqsink	-12.551
▁yachachichkan	-12.5512
kuyasqankuraykum	-12.5512
riyka	-12.5513
▁cambiarun	-12.5521
ikun	-12.5526
shajtink	-12.5528
▁hawkayachiwa	-12.553
tabl	-12.5533
ez	-12.5534
manpa	-12.5535
▁chupan	-12.5538
kaqnin	-12.554
▁mikuchi	-12.5543
▁iqmas	-12.5543
▁tukurunq	-12.5546
▁constantino	-12.555
▁confiank	-12.5551
▁coron	-12.5552
▁aterq	-12.5552
▁purmachi	-12.5552
▁hikutapt	-12.5553
▁kallpanta	-12.5555
▁cuidakun	-12.5556
▁palta	-12.5557
▁necesitakusqan	-12.5559
▁sientikun	-12.5564
▁cuidakusp	-12.5567
▁akariqkun	-12.5567
niyp	-12.5573
kunamantawan	-12.5586
▁vaso	-12.5591
▁pantaruspa	-12.5592
▁yacharur	-12.5596
est	-12.5601
▁kuyana	-12.5602
▁tab	-12.5603
▁espirituyt	-12.5605
▁chayllap	-12.5609
▁awik	-12.5612
▁patronniy	-12.5612
▁perq	-12.5613
▁yachanik	-12.5614
aspaykichikq	-12.5615
▁invitacion	-12.5616
▁harkarurq	-12.5619
▁hukmanyarurqan	-12.5619
arurqanik	-12.5619
nchikta	-12.562
▁ukusp	-12.5624
ankutaqm	-12.5624
▁alabasp	-12.5625
▁patr	-12.5626
naykichejp	-12.5629
▁tukunay	-12.5631
▁nacerupt	-12.5631
▁tanteana	-12.5642
▁sientiy	-12.5642
▁riysi	-12.5642
▁sumajp	-12.5642
▁orakunanchik	-12.5643
▁quptin	-12.5645
tapunim	-12.5646
▁escale	-12.5646
▁mikuym	-12.5647
▁chaskink	-12.565
▁lidi	-12.5651
▁leesqa	-12.5655
▁sonqoymant	-12.5655
▁yarqha	-12.5659
ykuna	-12.566
▁angelnint	-12.5661
▁fa	-12.5664
▁rikururqan	-12.5671
▁favorec	-12.5672
▁humillaku	-12.5676
▁yanapank	-12.5678
▁ayqikamuq	-12.5679
▁estudiasqan	-12.5679
▁ovejay	-12.5679
▁casarakuyn	-12.5681
rachiwachw	-12.5681
▁kuyasqankum	-12.5681
▁kuyasqaykichik	-12.5682
▁achina	-12.5682
▁urqaku	-12.5683
▁sab	-12.5685
naykim	-12.5688
▁pisill	-12.5689
▁mediterr	-12.5692
▁getseman	-12.5692
▁phishqa	-12.5692
▁cuaderno	-12.5692
▁mongol	-12.5692
▁namibi	-12.5692
▁nucleare	-12.5692
▁tocadisco	-12.5692
▁tyndal	-12.5692
▁abiram	-12.5692
▁gordo	-12.5692
▁jackson	-12.5692
▁kevin	-12.5692
▁planeta	-12.5692
▁oriental	-12.5692
▁smith	-12.5692
▁verdad	-12.5692
▁juntakojt	-12.5692
▁harawi	-12.5692
▁qayninpakunall	-12.5692
▁cancer	-12.5692
▁mildr	-12.5692
▁sutinchaqkunap	-12.5693
▁joram	-12.5693
▁abner	-12.5693
▁lili	-12.5693
▁melis	-12.5694
▁faltayoq	-12.5694
▁secretario	-12.5695
kusqanchikt	-12.5696
▁urachinankupaq	-12.5696
▁qarqonankupaq	-12.5696
▁rurakusqanta	-12.5696
▁rikusqanm	-12.5697
lgic	-12.5697
▁frederic	-12.5697
▁tupaykuyta	-12.5698
▁qhes	-12.5698
ous	-12.5698
▁kawsarirachirq	-12.5698
▁kapusuqnikichik	-12.5699
▁uykuymant	-12.5699
▁cuidakunankupaq	-12.57
▁tiqti	-12.57
▁frank	-12.57
▁esd	-12.57
▁silo	-12.57
▁yupana	-12.5701
▁kuyasqayraykum	-12.5702
▁kasusp	-12.5702
▁grande	-12.5702
▁sella	-12.5703
▁hallma	-12.5704
▁akarichikuq	-12.5704
▁istin	-12.5704
▁saqenaypaq	-12.5705
▁agradayt	-12.5706
▁entiendekuq	-12.5706
▁cuidakusun	-12.5707
▁sofon	-12.5708
▁rachispa	-12.5709
▁niwasqan	-12.571
▁kuyasunchik	-12.571
▁qusn	-12.5711
▁libranaypaq	-12.5711
▁suchurikuch	-12.5715
▁horqonanpaq	-12.5715
▁estudiayninchik	-12.5716
rometewasqanchik	-12.5717
▁agustin	-12.5717
▁sanoyachinanpaq	-12.5718
▁ramon	-12.5719
▁yachanqakum	-12.5719
▁wislla	-12.572
▁dolar	-12.572
onniyoq	-12.5721
▁yachaptinku	-12.5722
▁afanakunapaq	-12.5723
▁entienderunchik	-12.5723
▁hatarichisqanku	-12.5729
▁apurawm	-12.573
▁qillqakunapi	-12.573
▁llasawaqni	-12.573
▁predicasqankum	-12.5732
▁wikapay	-12.5732
▁capitulonm	-12.5732
▁chayamusqanmant	-12.5733
▁abram	-12.5733
▁chaskirqam	-12.5734
▁anankuchu	-12.5734
▁astakuyt	-12.5735
▁pachamant	-12.5735
▁tikrasp	-12.5736
▁fic	-12.5736
▁oqhari	-12.5737
▁hikut	-12.5738
▁crea	-12.5738
▁ratachkaq	-12.574
▁yuyasqankut	-12.5741
▁chichu	-12.5745
▁qalasp	-12.5747
▁nab	-12.5747
▁segurawanchik	-12.5749
▁gue	-12.575
tarikusqaykimant	-12.5753
▁servichikuq	-12.5756
▁kallpanchakurqa	-12.5757
▁entiendenaypaq	-12.576
▁salvakunapaq	-12.5761
▁kuyakuqkun	-12.5762
▁fern	-12.5762
▁qunku	-12.5764
▁wasinchi	-12.5765
▁takiyta	-12.5765
▁kuyaspan	-12.5769
▁preocupakunk	-12.577
▁llapal	-12.5771
▁purini	-12.5772
▁jeroboam	-12.5773
▁qusqanta	-12.5774
▁rik	-12.5775
▁qhawananchej	-12.5776
ruptink	-12.5777
▁costumbren	-12.5778
▁usqakunap	-12.5778
▁masinta	-12.578
▁titi	-12.5781
▁prometerqam	-12.5781
▁willayninchej	-12.5782
▁wasinchikman	-12.5783
▁roberto	-12.5785
▁japiyt	-12.5785
▁virg	-12.5788
qanmant	-12.5789
▁qosqayk	-12.5789
▁atipawaq	-12.5792
da	-12.5793
▁sonqonkum	-12.5793
▁qochamant	-12.5793
▁kumuyku	-12.5794
▁entendimiento	-12.5795
▁alabayt	-12.5795
▁masninm	-12.5795
▁oraykip	-12.5796
▁ota	-12.5803
ankup	-12.5804
▁chiqnisqan	-12.5805
▁kutimuynin	-12.5806
▁yakup	-12.5806
▁alabawaptinchik	-12.5808
▁payllap	-12.581
▁warmap	-12.5812
▁mosqoy	-12.5815
▁yu	-12.5815
wasqanchiktapas	-12.5819
▁quwi	-12.582
▁payakuspa	-12.5823
▁pagay	-12.5824
▁awparisqant	-12.5826
▁bitinia	-12.5827
▁ministerialkuna	-12.5828
▁kachispa	-12.5832
▁qaqchanakuq	-12.5832
▁salvas	-12.5832
ayki	-12.5834
▁wasiwan	-12.5834
▁sutinwan	-12.5834
▁mamapa	-12.5834
asqanchikq	-12.5835
mel	-12.5839
▁yachayku	-12.5844
▁caja	-12.5845
▁kusichiy	-12.5846
▁sacr	-12.5848
▁prest	-12.5848
▁ripun	-12.585
▁parqu	-12.585
▁qaytut	-12.5853
▁suyakuyniyuq	-12.5854
ith	-12.5856
nacione	-12.5856
▁tumpas	-12.5859
mankum	-12.5861
▁kachkarqan	-12.5862
▁cuchillo	-12.5862
▁chayaramu	-12.5863
▁chiqnisqa	-12.5866
▁sasachasqanmant	-12.5866
stakunay	-12.5867
ander	-12.5869
▁kallpachka	-12.5872
▁oraypiw	-12.5873
▁jas	-12.5874
▁brasilpi	-12.5876
▁cri	-12.5878
▁acusasq	-12.588
kusqanmantapacha	-12.5881
ynint	-12.5882
umant	-12.5882
▁agradece	-12.5883
▁sacerdotekunapa	-12.5883
▁pampachaykuwa	-12.5888
▁kent	-12.5888
▁joe	-12.589
▁valle	-12.5893
▁enciclop	-12.5894
▁wanay	-12.5896
▁punkupi	-12.5897
▁musquyni	-12.5898
▁mikuch	-12.5899
▁qayt	-12.59
▁pinqakusp	-12.59
▁cen	-12.5901
▁hinastinmant	-12.5901
?	-12.5902
▁servisqankup	-12.5906
clama	-12.5906
▁envidiakusp	-12.591
▁ukumant	-12.5918
▁pantaru	-12.5922
▁unanchaqninchik	-12.5923
▁yachakorq	-12.593
asqam	-12.593
▁tr	-12.5931
koq	-12.5931
▁qusunkichik	-12.5933
▁kallpayoqm	-12.5936
▁qillqakunap	-12.5936
▁munarqanku	-12.5936
chinanpaq	-12.5937
cer	-12.5938
▁qawaykun	-12.5939
anchikpaqq	-12.5939
▁sonqoch	-12.5941
▁ovej	-12.5941
▁valorchakusqan	-12.5943
puyay	-12.5947
▁mart	-12.5948
uqkunatapa	-12.595
▁sudam	-12.5951
▁faltachkaptin	-12.5952
▁reqsikusqanchik	-12.5956
▁qawakusp	-12.5956
▁semanata	-12.5956
▁watukuy	-12.5959
▁tikraku	-12.596
▁qonqoraku	-12.596
nanchiktaqmi	-12.5962
▁yachak	-12.5968
▁judiokunapaq	-12.5971
▁casarakurqanik	-12.5972
▁rurarurqak	-12.5972
tanteakunankupaq	-12.5975
▁yanapakusqant	-12.598
▁waqasqant	-12.5982
▁yachakusu	-12.5983
▁aparqan	-12.5984
▁warkus	-12.5986
▁ve	-12.5986
▁ruwachirq	-12.5988
▁micha	-12.5993
llaykit	-12.5995
wei	-12.6001
▁suyasaq	-12.6002
▁kutiyta	-12.6005
▁ajlla	-12.6007
▁qosqanchik	-12.601
▁munakuna	-12.6011
▁apanay	-12.6011
▁kusirikuykuna	-12.6011
▁kutirqak	-12.6015
▁fabian	-12.6016
▁ruwawaqchik	-12.6016
unio	-12.6019
aykurqak	-12.6021
▁maskaqninkunat	-12.6021
▁bendeciwanchik	-12.6023
▁wasikit	-12.6024
▁qollqem	-12.6025
▁promesan	-12.6032
spanchikqa	-12.6032
▁purichkan	-12.6033
▁lawman	-12.6035
▁apostolkunamant	-12.6041
▁qamchu	-12.6042
▁kuyapayakuynin	-12.6043
sqaykum	-12.6045
alla	-12.6048
hinam	-12.6048
▁uqharirq	-12.6048
▁ruwasqaykit	-12.6051
▁bendeciwa	-12.6053
▁hukn	-12.6053
▁rispayki	-12.6054
jatunchanapaqjin	-12.6056
▁pensamientokuna	-12.606
llimp	-12.6062
▁waqasqan	-12.6063
nkichikm	-12.6063
tarikusqankurayk	-12.6064
▁seol	-12.6065
sientekusqanmant	-12.6066
▁maqt	-12.6069
▁hamupti	-12.6071
spaykichiky	-12.6075
▁gedeonp	-12.6079
▁qarqorachiku	-12.6082
▁costumbrasqan	-12.6083
▁carga	-12.6085
▁moqop	-12.6085
qkuna	-12.609
niyw	-12.6091
▁qhapa	-12.6094
raykuchu	-12.6097
▁ruwaychej	-12.6097
▁qawaqkun	-12.6099
kunapiwanm	-12.6099
az	-12.61
▁mikuspan	-12.6104
▁saqiru	-12.6104
▁kayninpa	-12.6104
▁valer	-12.6107
▁qawana	-12.6108
▁rumipi	-12.611
▁sonqoykichikp	-12.6111
▁qellqan	-12.6112
▁nabott	-12.6112
▁discipulo	-12.6113
▁hukllata	-12.6117
▁upun	-12.6118
▁kallpanchanaku	-12.6119
▁desgraciapa	-12.612
▁sucedesqan	-12.6121
▁qipanchayt	-12.6124
▁camp	-12.6125
▁asiy	-12.6128
▁usuchichw	-12.6129
▁consejonkun	-12.6131
▁qepanchasun	-12.6131
▁chayarusp	-12.6137
uyaymanananchikm	-12.6138
▁hoqariku	-12.6141
▁arqun	-12.6147
▁sonqollayp	-12.6148
rurqanim	-12.6148
yoqm	-12.6148
chayoq	-12.6152
▁moto	-12.6153
▁tapukurqanki	-12.6153
▁mikunanmant	-12.6154
▁perdonana	-12.6156
▁periodicokunap	-12.6157
▁estudiasqayt	-12.6163
▁ses	-12.6169
▁rimaqt	-12.617
unankamam	-12.6172
▁bri	-12.6173
▁qonqananku	-12.6175
▁cam	-12.6178
▁leesqayk	-12.6181
▁yaytaq	-12.6186
ukunankamam	-12.6187
ris	-12.6189
▁tanteakururq	-12.619
▁ci	-12.6191
kuta	-12.6191
▁kancharin	-12.6191
sunaykichiktaqa	-12.6196
▁kikiypa	-12.6196
▁fran	-12.6196
▁kamachichkaptin	-12.6196
▁qawachiw	-12.6197
▁confiayt	-12.6198
▁bautizakusp	-12.6198
charurqak	-12.6199
▁huchallikusqan	-12.62
▁uyarirusp	-12.62
▁sansa	-12.62
pacienciakuychik	-12.62
▁qosanmant	-12.62
▁cuiday	-12.6202
rqankichik	-12.6204
jpun	-12.6205
▁aquil	-12.6206
▁qawanayk	-12.6206
ytay	-12.621
▁oqaykuwan	-12.6211
▁kilometros	-12.6212
▁wawqinkuna	-12.6219
▁awirisqayki	-12.622
▁kaman	-12.6221
▁polici	-12.6222
▁pantachi	-12.6224
▁ruwakunant	-12.6229
▁tatay	-12.6232
▁forasterokun	-12.6233
▁aracel	-12.6233
ga	-12.6236
▁yuyaqyaruspan	-12.6237
aykim	-12.6242
▁age	-12.625
▁sanoyarachi	-12.6254
▁kallpanchasqan	-12.6255
▁casarakurqayk	-12.626
puram	-12.6261
▁uyariykuq	-12.6261
▁kawsarirusqan	-12.6264
▁escuelaman	-12.6264
nillay	-12.6268
▁ispay	-12.6269
▁riwaqch	-12.6273
▁pasarusqan	-12.6276
wasqanchikrayk	-12.6279
iyt	-12.628
▁saqenm	-12.6281
▁prim	-12.6281
▁toqllankunap	-12.6281
▁jaw	-12.6282
akunqak	-12.6284
▁payanqa	-12.6287
▁abrahanm	-12.6288
▁celulakuna	-12.6289
niraq	-12.6289
▁isaip	-12.6293
▁kuyasqaykichikt	-12.6293
sqankumantapas	-12.6295
▁saqewasun	-12.6298
po	-12.6298
▁qellqakusq	-12.6299
▁misionerokunat	-12.63
▁llakikusun	-12.6303
▁qellqasqankut	-12.6311
▁servichikusqan	-12.6311
▁vol	-12.6312
▁tantearusqant	-12.6314
▁flechaq	-12.6321
▁ruwaqkunat	-12.6326
▁rimayku	-12.6327
▁payawa	-12.6327
ntinpi	-12.6328
▁orninchikt	-12.6328
▁siriy	-12.6329
▁haypasqanm	-12.633
▁akllaptin	-12.6333
ptinkupas	-12.6333
▁versiculokunapi	-12.6334
▁wakinnikichik	-12.6343
▁viaja	-12.6345
▁uymantam	-12.6346
▁apolos	-12.6346
▁respetanay	-12.6348
▁chinkarachinm	-12.635
▁confi	-12.6352
▁paray	-12.6357
▁sasachakuchw	-12.6358
▁rurakunan	-12.6358
mantachu	-12.6359
▁qepanchasq	-12.6359
▁tanteayninchik	-12.6361
▁tukurusp	-12.6363
▁campamenton	-12.6364
amiento	-12.6367
akusqan	-12.637
▁pantarachiwa	-12.6373
▁qullqinta	-12.6374
▁tanteananku	-12.6376
▁kutipaku	-12.6377
▁sacham	-12.6377
▁priscilaw	-12.6379
mus	-12.6379
jmant	-12.638
▁tentacionm	-12.6381
ens	-12.6382
▁kuyanakunk	-12.6382
▁wischumusq	-12.6385
▁niwasqankut	-12.6385
▁qawachiy	-12.6386
▁ruwasqanchikm	-12.6386
▁kuyapayasq	-12.6388
▁rikurirurqa	-12.6389
▁manach	-12.6391
asuykunanchikpaq	-12.6393
▁predicacion	-12.6394
sonqachej	-12.6394
qarik	-12.6395
▁mamaym	-12.6396
▁qawachirqan	-12.6396
▁qipant	-12.64
▁vul	-12.6401
▁piensayninchikp	-12.6402
▁bibliay	-12.6403
▁conciencian	-12.6403
asqant	-12.6414
▁tikrakuq	-12.6416
inapaq	-12.6417
▁usuchink	-12.6419
▁uqkunamant	-12.6421
▁kanaykichej	-12.6424
▁cenant	-12.6425
antaw	-12.6426
▁viciokuna	-12.6429
▁chaskiyku	-12.6429
▁tatasniy	-12.6432
▁preocupakuy	-12.6433
▁puchukachi	-12.6434
▁mikunchik	-12.6438
nakunik	-12.6441
▁hamusqa	-12.6441
▁harina	-12.6442
▁ruwasqaykichik	-12.6443
ton	-12.6444
▁qespichi	-12.6446
▁yanapawanq	-12.6447
▁entienderurqan	-12.6448
▁milt	-12.6448
▁saqirurq	-12.645
▁watukusqan	-12.6452
▁kuyakuyninw	-12.6453
▁qollqellaw	-12.6453
wasqankumanta	-12.6454
▁casarasqakunapa	-12.6459
▁yakun	-12.6461
congregacionninp	-12.6461
▁servinqak	-12.6464
▁tukunqak	-12.6466
▁awinchikw	-12.6467
▁ganay	-12.6467
▁eliyp	-12.6467
tanteasqaykimant	-12.6468
▁cuerpoyki	-12.6474
▁maskachk	-12.6478
▁costumbrenku	-12.6478
▁ruwankichik	-12.648
▁misionerokuna	-12.6481
▁qampuni	-12.6482
wasqanchikm	-12.6485
▁munaqta	-12.6487
▁ho	-12.6493
▁emil	-12.6496
▁saqeykusp	-12.6496
▁tukuru	-12.6497
▁troa	-12.6497
munqak	-12.6498
▁bendicio	-12.6499
kusqanmanjin	-12.6501
eland	-12.6501
▁tanteanqak	-12.6503
ych	-12.6504
sqanmantapa	-12.6508
chiwasqanchikman	-12.651
▁llullaku	-12.651
▁watukusp	-12.6511
▁alabakuqkun	-12.6512
mantapacha	-12.6514
▁phuti	-12.6518
▁cebadill	-12.6519
simita	-12.6523
urer	-12.6524
▁qollqeyt	-12.6525
▁corregiptin	-12.6528
▁qillqasqam	-12.653
▁penqakuni	-12.6532
▁kachamusqa	-12.6536
▁sientesqant	-12.6536
kuwaqch	-12.6539
▁pantarusqant	-12.654
▁kachamus	-12.654
▁dibujokunat	-12.654
▁tratadokunat	-12.6542
▁tentar	-12.6543
▁cristianom	-12.6545
▁pat	-12.6545
▁enemigonchik	-12.6547
▁tukuruspa	-12.655
▁achirqan	-12.655
▁qawaykusp	-12.6553
▁qellqay	-12.6555
▁ayman	-12.6555
▁akakunk	-12.6556
▁rikurimunant	-12.6557
▁tarpun	-12.6561
▁nacio	-12.6565
unqak	-12.6567
▁necesitas	-12.6569
ruwasqankuraykum	-12.6574
▁tanteanmank	-12.6576
▁ruwasqay	-12.6578
▁lis	-12.6579
▁nacey	-12.658
ntaq	-12.6581
spapas	-12.6582
▁reqsirqak	-12.6583
▁cuartoy	-12.6584
▁nacionninchik	-12.6585
▁kachawa	-12.6586
▁salvawasqanchik	-12.6589
▁entiendesqankut	-12.6598
anchikch	-12.6598
▁qayakuqninkunap	-12.6599
▁kutimuptin	-12.66
▁vencer	-12.66
▁qokuspa	-12.6602
▁necesitaq	-12.6602
▁casarakuspank	-12.6603
yninchikpiq	-12.6605
▁juli	-12.661
▁kuyapayakuynint	-12.661
▁cheqninakusp	-12.6613
▁adoray	-12.6615
arqa	-12.6617
▁reparasqant	-12.6617
▁santot	-12.6618
▁diosniy	-12.6618
▁wil	-12.662
aman	-12.662
▁yapay	-12.663
▁bala	-12.6633
▁tiempochaku	-12.6635
▁qawachiwarqak	-12.6636
▁uchikuq	-12.664
▁costumbr	-12.6642
▁tapuwarqak	-12.6643
▁hukmanyachiwa	-12.6646
chwanpa	-12.6649
▁sullka	-12.6651
▁qarqururq	-12.6654
ion	-12.6654
▁cuidakunank	-12.6654
▁conciencianm	-12.6654
▁yawarniy	-12.6655
son	-12.6655
suptik	-12.6655
▁flechankun	-12.6659
tarikusqanraykum	-12.6659
▁munachw	-12.6663
▁chus	-12.6665
▁casarakusqank	-12.6665
▁qochw	-12.6669
▁qhelqasqan	-12.6671
▁tusun	-12.6677
▁yachasaq	-12.6679
▁hikutan	-12.668
▁qallun	-12.6682
ayn	-12.6683
▁fl	-12.6684
▁rikusun	-12.6684
▁rusiap	-12.6685
usp	-12.669
▁entienderqani	-12.6692
qanray	-12.6695
▁qepallam	-12.6696
▁kuyasqankurayk	-12.6699
ecer	-12.6699
▁religionkunaw	-12.6699
kurqam	-12.6703
▁yachachiwasqan	-12.6704
kin	-12.6706
ec	-12.6707
nkuq	-12.6709
▁yuyarisqan	-12.671
▁sipasya	-12.6711
▁qawachichkan	-12.6714
▁kasukunqak	-12.6717
▁akorq	-12.672
▁ukhuncha	-12.6723
chakunanchikm	-12.6723
▁tantearisp	-12.6723
ptiyk	-12.6725
▁cumplisaq	-12.6726
▁kallpancharqa	-12.6727
▁bezaleel	-12.673
▁nich	-12.6733
▁qonqayllamanta	-12.6737
▁wali	-12.6741
▁serv	-12.6741
▁religionw	-12.6742
▁yanapakurqan	-12.6742
▁wawqiy	-12.6745
▁pacienciakusqan	-12.6747
▁sion	-12.6747
▁palabras	-12.6748
▁allinyarun	-12.6751
▁zeu	-12.6757
▁abusasq	-12.6758
▁bautizakuspa	-12.6766
▁reqsikunanchikm	-12.6766
▁hatarirurq	-12.6766
▁josi	-12.6767
▁grat	-12.6769
▁dejas	-12.6773
ig	-12.6774
▁qollqenk	-12.6775
▁rikurqankich	-12.6776
kuspay	-12.6781
▁kull	-12.6781
▁consejasqan	-12.6783
▁kasara	-12.6788
▁qellqakunaw	-12.6791
▁saqeychik	-12.6793
▁uywayt	-12.6796
▁huchalli	-12.6797
▁wawqinkunap	-12.68
▁raz	-12.6803
▁vidayki	-12.6804
▁uqayk	-12.6805
▁versiculokuna	-12.6805
▁manejaq	-12.6806
▁rutpa	-12.6807
qanmantaq	-12.6809
erg	-12.6817
▁alabayk	-12.6818
▁peleachkan	-12.6818
▁kallpas	-12.682
▁orakun	-12.6823
▁unalla	-12.6824
▁maskachkank	-12.6826
▁chiqapta	-12.6828
▁niptiy	-12.6832
▁nacerurq	-12.6834
▁qupa	-12.6834
anchikpaqm	-12.6837
awaptinchikpa	-12.6842
▁cuarton	-12.6842
▁aychanp	-12.6843
▁kikinp	-12.6844
▁mikunanchikpa	-12.6847
▁pantaptink	-12.685
▁atiendes	-12.6852
▁qusunki	-12.6852
▁pantaptin	-12.6853
▁ser	-12.6853
▁hikutarqak	-12.6857
▁qop	-12.6857
ankupa	-12.6858
qanmantam	-12.6859
nkunat	-12.6862
▁huchayoqt	-12.6864
▁mikuru	-12.6865
▁llamkaqk	-12.6866
▁serviqni	-12.6866
▁libraykuw	-12.6866
▁jatunp	-12.6866
▁tuqu	-12.6867
▁carr	-12.6869
▁castigasqant	-12.687
▁perdon	-12.6872
▁joyc	-12.6872
▁promesankunat	-12.6874
▁cumplikupt	-12.6876
▁yachakunap	-12.6876
▁sonqonchikwan	-12.6879
▁invitas	-12.6881
▁niwapt	-12.6881
▁saqesqaykich	-12.6881
▁niwank	-12.6882
▁mayqenta	-12.6884
▁onqoqkun	-12.6885
kan	-12.6885
▁institucion	-12.6888
▁chinkarupt	-12.6893
▁sacerdotep	-12.6893
iyoq	-12.6896
▁kaspikuna	-12.6896
yniykit	-12.6896
▁tar	-12.6897
▁kuyasqan	-12.69
▁precursora	-12.6906
▁sinkakuy	-12.6906
▁qhelqas	-12.6907
▁karupt	-12.6907
▁chaskinan	-12.6908
▁turqu	-12.6908
▁testigokuna	-12.691
▁chump	-12.691
sqanchikkunata	-12.6913
eb	-12.6914
▁tarikoj	-12.6917
▁amparakun	-12.6918
▁yaykupt	-12.6919
▁filemo	-12.692
▁letoni	-12.6922
▁camay	-12.6923
hing	-12.6924
▁rantikusq	-12.6924
sqaykitapa	-12.6924
▁amistadnikikun	-12.6929
▁kallpachana	-12.6932
▁jane	-12.6934
unch	-12.6934
▁jaywa	-12.6936
paqch	-12.6938
kunamanpas	-12.6939
sburg	-12.6941
▁elizabet	-12.6941
▁upupt	-12.6941
▁akakuni	-12.6942
▁mikunanchik	-12.6942
▁agbool	-12.6942
▁bronce	-12.6942
▁capernaum	-12.6942
▁convenio	-12.6942
▁cuneiform	-12.6942
▁laodice	-12.6942
▁luigi	-12.6942
▁monumento	-12.6942
▁musulm	-12.6942
▁occidental	-12.6942
▁palestina	-12.6942
▁thompson	-12.6942
▁gripe	-12.6942
▁nepal	-12.6942
▁seguisunchik	-12.6942
▁onesimo	-12.6942
▁young	-12.6942
▁ruanda	-12.6942
▁madera	-12.6942
▁balanza	-12.6942
▁uchisunaykipaq	-12.6942
▁walej	-12.6942
▁fotostock	-12.6942
▁bolivia	-12.6942
▁stand	-12.6942
▁chayamunqapunim	-12.6942
▁sikinpi	-12.6942
▁patrick	-12.6942
▁onesmu	-12.6942
ional	-12.6942
▁mikukusun	-12.6943
▁utulu	-12.6943
▁camboy	-12.6943
▁atipas	-12.6943
▁ranra	-12.6943
ebed	-12.6943
▁queens	-12.6943
▁qowananpaq	-12.6944
▁akiko	-12.6944
▁llantuy	-12.6944
▁pusaqniyuq	-12.6944
▁augusto	-12.6945
▁puqusqa	-12.6945
amen	-12.6945
▁cumplinaykipaq	-12.6945
▁roboam	-12.6945
field	-12.6945
▁multa	-12.6945
▁qaqchakuq	-12.6946
▁yachaywasipi	-12.6946
▁yuyachkani	-12.6946
▁miyu	-12.6946
▁llakikusqanta	-12.6946
▁felis	-12.6946
▁mikunaykipaq	-12.6946
▁chinkuchu	-12.6947
▁eliezer	-12.6947
▁admirakurqanim	-12.6948
▁qullqisapa	-12.6948
riqkunat	-12.6948
▁tupawaqninchik	-12.6948
▁napayku	-12.6948
▁pichqayuq	-12.6948
▁qawachinaypaq	-12.6949
▁alis	-12.6949
▁bab	-12.6949
llank	-12.6949
▁gregorio	-12.6949
▁killakama	-12.6949
▁annikk	-12.695
guantananchikpaq	-12.695
▁goli	-12.695
▁dario	-12.6951
▁yachaykusun	-12.6951
▁mulli	-12.6951
▁tatna	-12.6951
▁sillakuykusp	-12.6951
▁rachel	-12.6952
▁ruwakunanchik	-12.6952
▁kusikurqakum	-12.6952
wayk	-12.6952
▁babiloniat	-12.6952
▁horqonankupaq	-12.6953
▁chinaykichik	-12.6954
▁usuchinapaq	-12.6955
▁kusikusunchik	-12.6955
▁wamaq	-12.6956
▁wasiyt	-12.6956
nkuman	-12.6956
▁kacharqanku	-12.6957
▁qunchu	-12.6957
warqakum	-12.6957
▁payakuynin	-12.6958
▁idiomat	-12.6958
▁onqoruptin	-12.6958
▁kawsarimunqakum	-12.6958
▁creeyninchej	-12.6959
▁disco	-12.696
▁juntakusqant	-12.696
▁waranqantin	-12.696
▁uyarirqankichik	-12.6961
▁kawsayniyoj	-12.6963
▁dig	-12.6963
▁ukuspa	-12.6963
▁waqcha	-12.6964
▁lecheta	-12.6964
▁king	-12.6964
▁arabia	-12.6964
▁jamusqant	-12.6965
▁contentakusun	-12.6965
▁apostoln	-12.6966
▁jabon	-12.6966
▁cheqappunim	-12.6967
masi	-12.6967
▁kelv	-12.6967
▁maqanakuypi	-12.6967
▁south	-12.6968
▁reqsirqan	-12.6969
▁andrew	-12.697
▁muru	-12.697
▁reqsichiwanchik	-12.697
▁servinki	-12.6971
frat	-12.6972
▁kausayninchej	-12.6972
▁qonqorakuykusp	-12.6973
▁qorit	-12.6973
▁watach	-12.6974
▁wiksayoq	-12.6974
▁sumaqt	-12.6975
▁rikurqakum	-12.6975
▁acaz	-12.6977
▁kallpachkan	-12.6977
▁awya	-12.698
▁pachayuq	-12.698
▁kilos	-12.698
▁pur	-12.6983
▁chiqnikuq	-12.6984
▁japinapaq	-12.6984
chat	-12.6984
▁educa	-12.6985
▁motor	-12.6985
▁pelicula	-12.6986
▁guy	-12.6986
▁testigonkunapa	-12.6987
▁reqsinaykipaq	-12.6989
▁llampu	-12.6989
▁taqsa	-12.6989
▁chakis	-12.699
▁onqoyninchik	-12.6992
▁haypawaq	-12.6992
▁ripukuptin	-12.6993
chakur	-12.6994
▁saqespan	-12.6994
▁yuyachkanim	-12.6996
▁karunchakuyt	-12.6996
▁yanapanqak	-12.6997
iwasqanchikt	-12.6998
▁monomant	-12.6998
▁qurita	-12.6999
▁wasikunaman	-12.7
▁unakuykunapim	-12.7
▁insultaqni	-12.7002
▁castigas	-12.7004
▁ruwaypi	-12.7005
▁rikuriruspan	-12.7007
▁awchi	-12.7007
▁librayku	-12.7011
▁kamachiqn	-12.7011
▁corregiwanchik	-12.7011
nakunaqa	-12.7011
▁llaqtamant	-12.7013
▁reqsikusun	-12.7014
▁nisyuta	-12.7014
▁willawarqanchik	-12.7015
▁willakurqakum	-12.7017
▁hatarichinanpaq	-12.7018
▁abuelonkunap	-12.7018
▁qellqakunam	-12.7019
▁qonqarunkichik	-12.7019
▁sirvientenkun	-12.7021
▁rakikuq	-12.7022
▁tariramunik	-12.7025
▁payawaq	-12.7026
▁cheqnink	-12.7026
▁pagot	-12.7028
▁tanteasqankup	-12.703
▁defiendenapaq	-12.7031
ayp	-12.7031
▁sonqonk	-12.7034
▁marqaynin	-12.7035
▁abrazaykusp	-12.7036
▁kusirikuymant	-12.7036
▁qespin	-12.7037
▁eunice	-12.7038
▁kuyanakuq	-12.7038
▁tawayoq	-12.7038
sqaykimanjin	-12.7038
▁kachita	-12.7038
▁qarikunamant	-12.7038
▁gra	-12.7039
▁tras	-12.7041
▁cheqnin	-12.7041
plan	-12.7042
▁janaqpacha	-12.7044
▁asunto	-12.7045
▁religionman	-12.7045
▁sirk	-12.7045
▁budist	-12.7045
▁dico	-12.7045
▁saqekunchik	-12.7049
▁kuyapayarq	-12.7049
▁yachaqta	-12.705
▁qe	-12.705
haus	-12.7052
ayoq	-12.7052
▁yanuku	-12.7053
▁aguantananchik	-12.7053
▁controlay	-12.7053
▁tarikusqanm	-12.7055
▁padronachiku	-12.7057
llaq	-12.7059
▁pachantin	-12.706
kichikch	-12.7062
ujo	-12.7064
▁rimaspankum	-12.7064
▁saqenanchikpaq	-12.7067
manya	-12.7067
▁nuestr	-12.7069
munay	-12.7069
ione	-12.7069
▁minch	-12.7069
▁religionninmant	-12.707
▁unqururq	-12.707
▁yachanaykichik	-12.7071
kunamantaqa	-12.7072
▁agradecekuspaq	-12.7074
▁entiendechi	-12.7075
▁hamuyta	-12.7078
[...]
