<unk>	0
<s>	0
</s>	0
/	-1.60073
▁́	-2.68629
▁a	-3.07482
▁s	-3.52694
▁de	-3.58296
▁que	-3.69063
▁	-3.94236
▁la	-4.0607
▁y	-4.3009
▁en	-4.34055
▁n	-4.38978
▁el	-4.39818
▁e	-4.41984
▁i	-4.47713
▁los	-4.70498
¿	-4.90138
▁?	-4.96632
▁por	-5.12276
▁se	-5.1527
▁no	-5.25435
▁su	-5.28273
▁las	-5.30411
▁con	-5.32337
▁es	-5.32573
o	-5.35726
▁jehov	-5.37909
▁para	-5.38734
▁lo	-5.42651
▁u	-5.4568
▁un	-5.48182
̃	-5.51831
▁dio	-5.53107
▁an	-5.59047
▁del	-5.63553
▁nos	-5.67133
▁una	-5.73358
▁al	-5.76659
s	-5.79142
▁le	-5.84658
mo	-5.97425
▁sus	-5.98099
▁como	-5.9853
▁o	-5.98762
▁si	-6.04994
▁ma	-6.0576
▁co	-6.0777
▁jes	-6.11947
▁mo	-6.12611
▁l	-6.13251
▁esta	-6.16643
a	-6.24559
▁cuando	-6.29998
▁pero	-6.35948
▁ser	-6.36496
▁ar	-6.39385
i	-6.4168
▁me	-6.43966
emo	-6.44144
▁bibli	-6.47768
n	-6.48904
▁ha	-6.60457
▁as	-6.61981
▁mi	-6.63073
e	-6.64195
▁les	-6.64462
▁este	-6.65687
▁di	-6.71734
▁pa	-6.77759
▁vida	-6.79095
▁os	-6.79677
▁tamb	-6.82386
es	-6.82536
▁asi	-6.82578
▁todo	-6.83262
▁on	-6.84099
▁hermano	-6.87721
▁hab	-6.88063
▁hacer	-6.88679
▁sobre	-6.91152
▁ad	-6.9147
▁todos	-6.92895
▁era	-6.95276
▁personas	-6.95957
▁sin	-6.97743
▁puede	-6.97816
▁muy	-7.02597
▁eso	-7.02807
▁bien	-7.04082
▁tiempo	-7.06088
▁ejemplo	-7.06093
▁gin	-7.06129
▁cosas	-7.06499
▁son	-7.07242
▁nuestra	-7.08225
▁quien	-7.10459
▁dijo	-7.12064
▁or	-7.16605
▁fue	-7.18577
amo	-7.20226
▁porque	-7.21237
▁nosotros	-7.21577
▁cristianos	-7.22468
▁ellos	-7.24189
▁nuestro	-7.25196
▁mundo	-7.25303
▁hay	-7.25438
▁pablo	-7.25557
▁debemos	-7.2562
▁dice	-7.26268
▁han	-7.2797
▁vez	-7.28987
▁esp	-7.29928
ensen	-7.31297
▁ten	-7.33048
▁reino	-7.33199
cio	-7.33427
▁b	-7.33914
▁tu	-7.34495
▁tierra	-7.34822
▁fe	-7.35147
▁rit	-7.35514
▁congregacio	-7.36813
▁aun	-7.38958
▁solo	-7.40409
▁amor	-7.41405
▁hijos	-7.41451
▁siempre	-7.42222
▁ver	-7.42699
▁bi	-7.42953
▁!	-7.43829
en	-7.44019
▁tiene	-7.44107
▁cua	-7.44277
▁mucho	-7.4862
▁verdad	-7.48797
que	-7.49063
▁hasta	-7.49273
▁mismo	-7.49912
▁pues	-7.50145
▁apo	-7.51697
▁toda	-7.51865
▁otros	-7.52425
▁ase	-7.52522
▁pod	-7.52667
▁entre	-7.54872
▁padr	-7.54928
▁ed	-7.54994
▁despu	-7.55472
▁ayuda	-7.56162
▁ni	-7.5722
▁esto	-7.57415
▁algunos	-7.59786
▁ust	-7.60011
▁ese	-7.60048
▁muchos	-7.60703
▁antes	-7.60856
▁podr	-7.60909
▁art	-7.61313
▁hecho	-7.61633
▁hijo	-7.61894
▁hombre	-7.62071
▁ahora	-7.62151
▁tan	-7.62341
▁́?	-7.62399
▁sen	-7.63032
▁palabras	-7.63322
▁tener	-7.63763
▁te	-7.65027
▁nuestros	-7.65062
▁dos	-7.65171
▁siervo	-7.65608
▁corazo	-7.65923
▁estaba	-7.66005
mente	-7.66015
▁gente	-7.66022
▁stol	-7.6607
▁adem	-7.66902
▁israel	-7.66985
r	-7.67249
▁gran	-7.67957
▁tal	-7.68784
▁familia	-7.68837
on	-7.69798
▁ilustracio	-7.71712
▁hizo	-7.71795
▁culo	-7.72098
▁cada	-7.72418
▁pueden	-7.72755
▁tanto	-7.72773
▁testigos	-7.72886
▁estar	-7.73272
an	-7.7379
▁ya	-7.73827
▁tenemos	-7.7483
▁decir	-7.75017
▁mejor	-7.75317
▁palabra	-7.76242
▁ella	-7.76404
ne	-7.76967
▁algo	-7.77581
▁todas	-7.79357
▁casa	-7.79504
▁lea	-7.79986
▁parte	-7.80031
do	-7.80201
▁uno	-7.80524
▁esa	-7.81189
▁hace	-7.81562
▁padres	-7.81705
▁estas	-7.82489
▁cristo	-7.8364
se	-7.83744
▁espiritual	-7.83829
▁d	-7.83964
▁blico	-7.84224
▁manera	-7.84468
▁dar	-7.84494
▁muchas	-7.84886
▁pens	-7.85424
▁disc	-7.85979
▁nombre	-7.86046
▁seguir	-7.86974
▁importante	-7.87908
▁yo	-7.88026
▁er	-7.88741
▁hoy	-7.89191
io	-7.89804
▁tienen	-7.90183
▁estos	-7.91746
▁da	-7.92413
▁pueblo	-7.92556
▁rey	-7.9286
▁fin	-7.92897
▁entonces	-7.93319
▁otro	-7.93446
▁buenas	-7.9347
▁ve	-7.93476
▁lugar	-7.9442
▁vea	-7.95915
▁pulos	-7.96019
▁otras	-7.96762
▁nunca	-7.97045
▁sea	-7.97536
atan	-7.98116
▁amo	-7.98677
▁sino	-7.98763
▁dem	-7.99219
▁desde	-7.99297
▁primero	-7.99583
▁qui	-8.01133
▁forma	-8.01363
acio	-8.01469
▁hablar	-8.01791
▁modo	-8.02369
▁muerte	-8.04314
▁vivir	-8.04839
▁debe	-8.05055
▁ustedes	-8.06249
▁pode	-8.0656
▁caso	-8.0864
▁cil	-8.09133
os	-8.10919
▁persona	-8.11077
▁predicar	-8.11428
▁otra	-8.11529
▁espos	-8.11783
l	-8.11924
▁nuestras	-8.12039
▁santo	-8.12297
▁in	-8.12411
▁contra	-8.12425
▁alguien	-8.13047
▁cuenta	-8.1367
t	-8.14153
▁ven	-8.14344
▁libro	-8.14604
urante	-8.1489
▁mis	-8.15092
▁ayudar	-8.15414
▁embargo	-8.16173
▁mente	-8.16598
ando	-8.16604
▁poco	-8.16628
▁unos	-8.16898
▁david	-8.1693
▁mayor	-8.17062
b	-8.18828
▁ungido	-8.19863
▁hombres	-8.20329
▁ca	-8.22361
ndo	-8.22653
▁preguntas	-8.23996
▁salmo	-8.24019
▁sab	-8.24765
▁pedro	-8.24992
▁jud	-8.25315
▁veces	-8.25469
▁estudio	-8.2568
▁poder	-8.26638
▁escribi	-8.26911
▁cristian	-8.27535
▁servir	-8.28032
▁donde	-8.28222
▁ita	-8.28355
hemos	-8.28641
ab	-8.28718
▁ancianos	-8.29057
▁posible	-8.29128
▁problemas	-8.2921
▁ayudara	-8.29883
▁nuevo	-8.30661
▁juan	-8.30915
m	-8.31243
▁claro	-8.32507
remo	-8.32904
▁estamos	-8.3426
▁cielo	-8.34549
▁cierto	-8.34818
▁obra	-8.34827
▁nada	-8.3545
▁tomar	-8.35477
▁eran	-8.35846
▁nin	-8.36034
▁pai	-8.3734
▁sabe	-8.3756
▁significa	-8.37869
quiz	-8.37959
▁ministerio	-8.38033
▁ley	-8.3871
▁sido	-8.38789
u	-8.38905
▁ante	-8.38958
▁tres	-8.39632
▁pecado	-8.39679
▁habla	-8.39935
is	-8.40873
▁deben	-8.41192
▁tendr	-8.41819
▁paz	-8.41839
▁all	-8.42033
▁saber	-8.42775
▁quiere	-8.42839
c	-8.43025
▁algunas	-8.43192
▁valor	-8.43786
▁pregunt	-8.44298
▁mar	-8.44423
▁sentido	-8.44991
▁dejar	-8.45646
ment	-8.45763
▁amigos	-8.46064
▁trabajo	-8.46507
▁dif	-8.46656
▁nuevas	-8.46685
▁har	-8.46762
▁jo	-8.46853
▁p	-8.47065
▁llegar	-8.47139
▁culos	-8.47431
▁he	-8.47461
▁escrituras	-8.4765
▁seg	-8.47762
▁duda	-8.47769
er	-8.4805
▁mientras	-8.48676
▁mal	-8.49071
▁isa	-8.49215
▁siguiente	-8.49222
▁principio	-8.49667
▁matrimonio	-8.49675
▁luego	-8.49741
▁esperanza	-8.49791
▁sentir	-8.51126
▁aprender	-8.51694
▁buena	-8.51789
▁car	-8.52083
▁quer	-8.52364
▁fueron	-8.52414
▁herman	-8.52443
▁seri	-8.52448
▁humanos	-8.52707
▁fiel	-8.52753
▁gracias	-8.52868
▁fieles	-8.53141
▁reuniones	-8.53343
▁momento	-8.53434
d	-8.53644
▁ntico	-8.53733
▁ngel	-8.54024
▁roma	-8.54528
▁esposo	-8.54735
▁deber	-8.55344
▁jos	-8.56765
▁mateo	-8.57088
▁mensaje	-8.5714
▁fa	-8.57552
▁conocer	-8.57595
▁servicio	-8.57669
▁somos	-8.57924
▁entender	-8.58169
▁propo	-8.58483
▁igual	-8.58674
▁situacio	-8.58731
▁sito	-8.58934
▁buen	-8.59084
as	-8.59293
▁justicia	-8.59778
▁actitud	-8.60326
▁estaban	-8.60897
▁sacrificio	-8.60956
▁je	-8.61105
▁madre	-8.6138
▁ojo	-8.61598
▁ciudad	-8.61725
▁do	-8.6189
▁tuvo	-8.62736
le	-8.6322
▁jesucristo	-8.63726
▁cualquier	-8.63968
▁cual	-8.64141
▁com	-8.64523
▁ndos	-8.64546
▁pro	-8.64872
▁consejos	-8.65326
▁edad	-8.65483
▁aquel	-8.65541
▁joven	-8.65961
▁dinero	-8.66052
▁primera	-8.66077
▁gui	-8.66171
▁futuro	-8.66524
no	-8.66536
ar	-8.66877
▁recibir	-8.67015
nos	-8.67031
▁habr	-8.67367
▁cierta	-8.67531
▁fuera	-8.67654
▁decisiones	-8.677
▁bond	-8.67877
▁cristiano	-8.67939
▁ti	-8.67993
▁abrah	-8.68423
▁mantener	-8.69254
▁ellas	-8.69472
iendo	-8.69629
▁dan	-8.69944
▁razo	-8.70359
▁historia	-8.7061
▁primer	-8.7065
▁haber	-8.70732
▁tras	-8.7087
▁cumplir	-8.71097
▁relacio	-8.71236
▁llevar	-8.71446
▁demostrar	-8.71551
▁ir	-8.71693
▁siglo	-8.71809
▁imit	-8.71974
▁ban	-8.72131
▁cap	-8.72336
▁realidad	-8.72389
▁explic	-8.72437
▁mujer	-8.72648
nte	-8.73744
id	-8.73754
so	-8.74152
▁predica	-8.74285
▁voluntad	-8.74525
▁pequ	-8.74763
▁ltimo	-8.75624
▁demostr	-8.75624
▁consejo	-8.75684
▁acerca	-8.76356
▁cambio	-8.76449
▁nadie	-8.76511
▁realmente	-8.76526
▁efecto	-8.76839
▁cuerpo	-8.77111
▁bendicio	-8.77133
▁alg	-8.77248
▁dado	-8.77258
▁amistad	-8.7733
▁decisio	-8.77782
▁li	-8.77938
▁blica	-8.78098
▁medio	-8.78188
▁final	-8.78857
▁ramo	-8.79092
▁mes	-8.79148
▁menos	-8.79172
▁im	-8.79288
▁pasado	-8.79551
▁va	-8.79756
te	-8.79847
▁haya	-8.80509
▁nacio	-8.80667
▁ning	-8.81073
▁desea	-8.81213
▁etern	-8.81229
▁ada	-8.81301
▁misma	-8.81376
▁bueno	-8.81546
▁paso	-8.81821
▁pra	-8.81834
▁leer	-8.81914
▁tenga	-8.82043
▁oracio	-8.82097
▁tarde	-8.82099
odemo	-8.82279
▁completo	-8.82285
▁informacio	-8.82551
▁noch	-8.82644
▁tiempos	-8.82688
▁inclu	-8.82876
▁ovej	-8.82948
▁respuesta	-8.82965
▁cuanto	-8.83469
▁feliz	-8.83789
▁cualidades	-8.84008
▁aprend	-8.84039
v	-8.85369
▁pasar	-8.85895
▁espirituales	-8.86078
▁camino	-8.86129
▁clase	-8.86241
▁alguna	-8.86282
▁estudiar	-8.86348
▁especial	-8.86371
▁humanidad	-8.86415
▁millones	-8.86415
▁hacerlo	-8.86424
▁hacen	-8.86525
▁haga	-8.86804
▁falta	-8.87147
▁nueva	-8.87399
▁piens	-8.87462
lo	-8.88392
▁felices	-8.88431
▁tulo	-8.88614
▁miembros	-8.89431
▁organizacio	-8.89754
▁profet	-8.89867
▁esclavo	-8.89896
▁nico	-8.89932
▁profe	-8.89986
▁vi	-8.9027
▁res	-8.90455
▁vista	-8.90817
▁celesti	-8.91412
▁sean	-8.91436
▁respeto	-8.91726
▁alegr	-8.91888
▁humild	-8.91933
▁principios	-8.92013
▁sabidur	-8.92115
▁publicaciones	-8.92351
▁ador	-8.92551
▁naciones	-8.92768
▁llego	-8.92941
▁enemigo	-8.93308
▁ado	-8.94101
▁hebreo	-8.94154
▁deseo	-8.94216
▁diablo	-8.94484
▁buenos	-8.94852
▁favor	-8.94888
▁sent	-8.9507
▁unidos	-8.95118
▁aquella	-8.95762
ado	-8.95882
▁tratar	-8.96488
▁vers	-8.96606
▁proverbio	-8.96673
▁salud	-8.97341
▁prueba	-8.97367
▁po	-8.97403
▁seguro	-8.97676
▁escuela	-8.97748
▁punto	-8.97781
▁atencio	-8.98043
▁deb	-8.98188
▁propio	-8.98283
▁evitar	-8.98627
▁encontrar	-8.98688
▁autoridad	-8.99298
▁recuerda	-8.99375
de	-8.99936
▁confianza	-9.00171
▁ama	-9.00245
▁cie	-9.00339
▁ayudo	-9.00377
▁cuidado	-9.00815
▁verdadero	-9.00845
▁ocasio	-9.01087
▁ndo	-9.01379
▁rrafo	-9.01436
▁hicieron	-9.01453
▁responsabilidad	-9.01747
▁and	-9.01882
▁esas	-9.02031
▁religio	-9.0222
▁cerca	-9.02478
▁corinti	-9.02681
▁dispuesto	-9.02886
▁probable	-9.03005
▁job	-9.03567
▁necesario	-9.03655
▁bajo	-9.03829
▁haciendo	-9.03883
▁mundial	-9.03925
▁nica	-9.04086
▁muestra	-9.0426
▁razones	-9.04381
▁simo	-9.04648
▁grupo	-9.05246
▁timoteo	-9.05377
▁obedecer	-9.0539
▁timiento	-9.05409
▁problema	-9.05517
▁visto	-9.05734
▁usar	-9.05839
▁fuerte	-9.06033
▁nes	-9.06535
▁gobierno	-9.06672
▁orar	-9.0683
▁volver	-9.06901
▁oportunidad	-9.07153
▁responder	-9.07229
▁nto	-9.07353
▁amigo	-9.07523
▁superintendente	-9.07556
▁compa	-9.07602
▁hac	-9.07621
▁lleva	-9.07693
▁indica	-9.07849
▁justo	-9.08292
▁dejo	-9.08468
▁parece	-9.08517
▁hubiera	-9.08812
▁obsta	-9.09475
▁morir	-9.09773
▁hechos	-9.10113
▁estado	-9.10209
▁ge	-9.10663
▁promesa	-9.10768
▁hacemos	-9.10947
▁sigue	-9.11057
▁verdadera	-9.11206
▁empez	-9.11284
▁oraciones	-9.11474
▁puesto	-9.11584
▁ero	-9.11651
▁carn	-9.12323
rusa	-9.12729
▁sacerdot	-9.12888
▁templo	-9.13199
▁pesar	-9.13205
▁testigo	-9.13347
▁fi	-9.13383
▁importancia	-9.13463
▁cosa	-9.13622
▁ejemplos	-9.13771
▁t	-9.13876
▁obras	-9.14049
▁lado	-9.143
▁divin	-9.14348
▁agua	-9.14473
▁recibi	-9.14592
▁conciencia	-9.14645
▁siente	-9.14755
▁recuadro	-9.14922
▁cambiar	-9.1528
▁alm	-9.15293
▁mismos	-9.15299
▁cread	-9.1535
▁mero	-9.15406
▁mostr	-9.15412
▁confiar	-9.15536
▁ana	-9.15602
▁conocimiento	-9.16031
▁escuchar	-9.16186
▁propia	-9.16679
▁guerra	-9.16915
▁carta	-9.16951
▁aquellos	-9.17185
▁ndol	-9.17329
▁fuerzas	-9.17369
▁grand	-9.17467
mos	-9.17502
▁cuatro	-9.17733
▁disfrutar	-9.1786
▁cre	-9.18018
▁amar	-9.18178
▁pecados	-9.18223
▁au	-9.18419
▁llegue	-9.18581
▁trata	-9.18594
▁inter	-9.18679
los	-9.18823
▁siendo	-9.18926
▁mano	-9.19194
▁mujeres	-9.19629
▁ello	-9.19648
▁sistema	-9.19659
bamo	-9.19873
▁normas	-9.20129
▁dicho	-9.20914
▁casi	-9.21144
▁necesitamos	-9.21323
▁debido	-9.2136
▁necesita	-9.21544
▁nu	-9.21741
▁dores	-9.2182
▁resurreccio	-9.21939
▁juntos	-9.22003
▁tema	-9.22295
▁empezar	-9.22346
▁pruebas	-9.22448
▁libertad	-9.22573
▁buscar	-9.22887
▁lucas	-9.23207
▁pronto	-9.23224
diante	-9.23332
▁tengo	-9.23364
▁dol	-9.23517
▁oi	-9.2365
▁blic	-9.23736
▁manos	-9.23925
▁revelacio	-9.24086
▁nota	-9.24531
▁mala	-9.24608
▁deja	-9.24744
▁iba	-9.24796
▁precursor	-9.25302
▁espera	-9.25329
▁poner	-9.25571
▁monos	-9.26092
▁viv	-9.26508
▁gobernant	-9.26674
▁analizar	-9.27047
▁alimento	-9.27164
ay	-9.27197
▁man	-9.27427
▁tribulacio	-9.27466
▁pacto	-9.27523
▁idea	-9.27608
▁eva	-9.27868
▁predic	-9.27907
▁junto	-9.28159
▁trabajar	-9.28193
▁pie	-9.28321
▁haci	-9.28576
tuvieron	-9.28644
▁causa	-9.28681
▁importantes	-9.28758
▁perdon	-9.29011
▁mil	-9.29064
▁beb	-9.29545
▁estados	-9.2957
▁recordar	-9.29722
▁aceptar	-9.30029
▁resultado	-9.30147
▁mucha	-9.30191
▁sal	-9.30214
▁perfecto	-9.30276
▁conducta	-9.30471
emos	-9.30712
▁sol	-9.30909
▁cabo	-9.3093
▁contrario	-9.31123
sen	-9.31337
▁nde	-9.31614
▁deseos	-9.31688
▁acuerdo	-9.31838
▁fuerza	-9.31879
▁labor	-9.32168
anza	-9.32383
▁demuestra	-9.32528
▁cabeza	-9.32565
▁ocasiones	-9.32619
▁salo	-9.32939
▁santiago	-9.32953
▁ctic	-9.33545
▁seguros	-9.33545
▁hablo	-9.33603
▁per	-9.33721
▁leales	-9.33922
▁anciano	-9.34012
▁llamado	-9.3403
▁idioma	-9.34328
▁experiencia	-9.34332
▁llega	-9.3448
▁so	-9.3509
ra	-9.35364
▁pu	-9.35455
▁circunstancias	-9.35474
▁mayores	-9.3584
▁actividades	-9.35868
▁asuntos	-9.36501
▁tipo	-9.36512
▁actuar	-9.3661
▁apoyo	-9.3664
▁principal	-9.3669
▁sabio	-9.36864
▁nyug	-9.36908
▁instrucciones	-9.3691
▁malas	-9.37176
▁c	-9.37202
▁ninguna	-9.37292
▁juicio	-9.37333
▁atal	-9.37713
▁dani	-9.3783
▁segundo	-9.38679
▁ciles	-9.38788
▁honr	-9.38965
▁llama	-9.39124
▁luz	-9.39144
▁vio	-9.39195
▁relato	-9.39291
▁explico	-9.39429
▁maneras	-9.39488
▁fruto	-9.39528
▁nesis	-9.39541
▁cambios	-9.39543
▁eng	-9.39667
▁comenz	-9.39693
▁familias	-9.39837
▁parej	-9.40235
▁asamblea	-9.40258
▁malo	-9.40483
▁permite	-9.40536
▁soy	-9.40558
▁respecto	-9.40654
la	-9.40824
▁rescate	-9.41053
▁reunio	-9.4151
▁creacio	-9.41636
▁texto	-9.41813
▁jimo	-9.42295
▁nimo	-9.42523
▁quieren	-9.42535
▁much	-9.42797
▁vino	-9.42932
▁j	-9.43015
▁escuch	-9.43039
▁glori	-9.43146
▁seguido	-9.43283
▁comprender	-9.43489
▁perder	-9.43637
▁bet	-9.43643
▁miedo	-9.43744
gina	-9.43945
▁coment	-9.45214
les	-9.45379
▁grandes	-9.45493
▁preguntar	-9.45747
▁errores	-9.45821
▁trato	-9.45894
▁uso	-9.46121
▁egipto	-9.46122
▁muertos	-9.46404
▁hogar	-9.46419
▁simple	-9.4672
▁poc	-9.46755
▁sentimos	-9.4694
▁ayudarnos	-9.47063
▁puso	-9.47415
▁tampoco	-9.47745
▁van	-9.47914
▁unidad	-9.48236
▁pudo	-9.48354
▁meses	-9.4836
▁empleo	-9.48474
▁gen	-9.48642
▁necesidades	-9.48682
▁ofrece	-9.49066
▁val	-9.49085
▁mir	-9.49226
▁varias	-9.49407
▁cinco	-9.49409
▁existe	-9.49494
▁darle	-9.49609
scendenci	-9.49624
▁record	-9.49671
▁noe	-9.49805
▁ezequ	-9.49815
▁fui	-9.50033
▁verdaderos	-9.50048
▁hora	-9.5024
▁humano	-9.50303
▁leal	-9.50315
▁sangre	-9.50669
▁situaciones	-9.51103
▁llegado	-9.51166
▁jer	-9.51207
▁bol	-9.51423
▁temor	-9.51513
▁dicen	-9.51517
▁habl	-9.51676
▁sucurs	-9.51927
▁ndolo	-9.51971
▁lugares	-9.52071
▁presente	-9.52216
▁pasa	-9.52222
▁siete	-9.52365
▁sola	-9.52552
▁pre	-9.52695
▁llamada	-9.52823
▁revista	-9.5284
▁tico	-9.5286
to	-9.52923
▁r	-9.53068
▁conseguir	-9.53157
▁precursores	-9.5337
▁personal	-9.53524
vemo	-9.53606
▁testimonio	-9.53758
▁imagin	-9.53758
▁orden	-9.53925
▁traduccio	-9.54095
▁gust	-9.54311
▁necesidad	-9.54396
demo	-9.54459
▁implica	-9.5457
▁muri	-9.54745
▁pol	-9.54898
▁necesitan	-9.55119
▁comid	-9.55136
▁obediente	-9.55404
▁largo	-9.55453
▁regalo	-9.55466
▁familiares	-9.55534
▁tenido	-9.55585
▁misericordi	-9.55722
▁honor	-9.55844
▁sufrimiento	-9.5589
▁falsa	-9.56124
ament	-9.56164
▁varios	-9.56282
▁dentro	-9.56351
▁dificultades	-9.56757
▁anim	-9.56821
dio	-9.5708
▁promet	-9.57299
▁justos	-9.57371
▁alcanzar	-9.5751
▁hij	-9.57571
▁conoce	-9.57625
▁siquiera	-9.57651
▁realizar	-9.57744
▁promesas	-9.57804
▁pan	-9.57907
▁jam	-9.58346
▁leyes	-9.58478
▁gozo	-9.59082
▁preparar	-9.59216
▁pueda	-9.59431
▁voz	-9.59442
▁paciencia	-9.59455
▁pidi	-9.59518
▁deje	-9.5954
▁re	-9.59655
ci	-9.59743
▁conclusio	-9.59904
▁advertencia	-9.59921
▁quedar	-9.60304
▁acabar	-9.60466
▁comp	-9.60526
▁divino	-9.60872
▁privilegio	-9.60904
▁derecho	-9.61125
▁hallar	-9.61164
▁actualidad	-9.61317
▁expresio	-9.61318
▁asunto	-9.61393
▁permitir	-9.61483
▁salom	-9.61564
▁conoc	-9.6164
▁maestro	-9.61887
▁eje	-9.6189
▁ximo	-9.61936
▁bautizar	-9.61954
▁miles	-9.62186
▁pregunto	-9.62187
▁proteger	-9.62194
▁aqu	-9.6222
ieron	-9.62282
▁hablando	-9.62422
▁papel	-9.62688
▁creo	-9.62744
▁pastor	-9.62766
▁tra	-9.62835
▁ayudan	-9.62873
▁lenguaje	-9.63238
▁felicid	-9.6333
▁diferencia	-9.63484
▁esperar	-9.63488
or	-9.63585
▁alto	-9.63988
▁sigan	-9.64055
▁tentacio	-9.64115
▁decidido	-9.6414
▁discurso	-9.6416
▁seguridad	-9.64166
▁marcos	-9.64217
▁publica	-9.64384
▁enfermedad	-9.64521
▁reban	-9.64654
▁adelante	-9.64669
da	-9.64732
▁to	-9.64871
ist	-9.64998
▁rcito	-9.65118
nes	-9.65132
▁pudiera	-9.65367
▁siguientes	-9.65431
▁leccio	-9.65438
ambi	-9.65656
▁salir	-9.65703
▁casos	-9.65801
▁sufrir	-9.65808
atch	-9.65824
▁dij	-9.65979
▁misionero	-9.66104
▁menudo	-9.66104
▁hagan	-9.66151
▁ingl	-9.66179
▁dicha	-9.66333
▁samu	-9.6709
▁demasiado	-9.67203
▁supuesto	-9.67313
▁menciona	-9.67401
▁libros	-9.67467
▁iglesia	-9.67682
▁estudiantes	-9.67783
▁animales	-9.68137
▁lograr	-9.68367
ndono	-9.68475
▁cultivar	-9.685
▁sienten	-9.6856
▁idiomas	-9.68639
y	-9.68657
▁objetivo	-9.68708
▁comentario	-9.68719
▁port	-9.69304
▁imperfecto	-9.69603
▁dec	-9.69644
▁horas	-9.70044
▁tic	-9.70233
▁predicando	-9.70244
▁error	-9.70523
▁creen	-9.70579
▁participar	-9.7068
▁prometido	-9.70707
▁religiosos	-9.70752
▁miento	-9.70889
▁total	-9.71005
▁culpa	-9.71176
▁fuego	-9.71186
▁asistir	-9.71221
▁aprendido	-9.71238
▁diez	-9.71456
▁oh	-9.71607
▁beneficios	-9.71655
▁queda	-9.71659
▁entusiasmo	-9.72201
▁mald	-9.72531
▁lleno	-9.72638
▁fico	-9.72661
▁segunda	-9.72719
▁firme	-9.72758
▁ahi	-9.729
▁campo	-9.72904
▁des	-9.73002
▁seis	-9.73013
▁perfecta	-9.73088
▁capacidad	-9.73136
▁demuestran	-9.73212
▁bautiz	-9.73552
▁has	-9.73668
▁cri	-9.73863
▁manda	-9.73895
▁asegura	-9.74213
ido	-9.74267
▁recuerd	-9.7429
▁ira	-9.74319
▁mejorar	-9.74542
▁fueran	-9.74544
▁puedo	-9.74638
▁aguantar	-9.74733
▁ayudado	-9.74775
▁llegara	-9.74846
▁portad	-9.74893
▁recibido	-9.74948
▁formas	-9.74959
▁qu	-9.75052
▁meditar	-9.75386
▁saben	-9.7539
▁zona	-9.75464
▁oro	-9.75913
fesio	-9.75995
▁diferentes	-9.76189
▁fortalecer	-9.76312
▁llamo	-9.76338
▁convencido	-9.76398
▁metro	-9.76479
▁resultados	-9.76539
▁cuidar	-9.76645
comp	-9.76737
▁segura	-9.76972
▁reconoce	-9.77055
▁tant	-9.77091
▁grave	-9.77121
▁peligro	-9.77135
▁creer	-9.77182
▁respuestas	-9.7746
▁ponga	-9.77507
▁babiloni	-9.77531
▁inmerecid	-9.7754
▁montan	-9.7762
ante	-9.77661
▁jacob	-9.78022
▁tomo	-9.78067
▁siglos	-9.78167
▁estuv	-9.78203
▁sucesos	-9.7828
▁explicar	-9.7854
▁decidi	-9.78542
▁rbol	-9.7866
▁excelente	-9.7881
▁considera	-9.79134
▁estuviera	-9.79171
▁encontr	-9.79185
▁griego	-9.79215
▁dirigir	-9.79311
▁perdido	-9.79404
▁parecer	-9.79422
▁real	-9.79579
▁perdo	-9.79822
▁consuelo	-9.79846
▁busca	-9.79853
▁ropa	-9.8037
erg	-9.80617
▁salvar	-9.80747
▁pedirle	-9.8093
▁milagro	-9.80945
▁mira	-9.80948
▁pensamientos	-9.81022
▁personalidad	-9.81347
▁opinio	-9.81495
▁viene	-9.81502
▁llena	-9.81821
res	-9.8186
▁reflexion	-9.821
▁amado	-9.82142
▁momentos	-9.82339
▁cree	-9.82452
▁anz	-9.82571
▁vivimos	-9.82651
cluso	-9.82755
▁malos	-9.82764
▁general	-9.82808
▁piensan	-9.82884
▁vive	-9.83069
▁gala	-9.83091
▁hub	-9.8314
▁caer	-9.83252
▁interesa	-9.83584
▁nac	-9.83589
▁convertir	-9.83682
▁pena	-9.83688
▁cumplimiento	-9.83797
▁acepto	-9.84043
▁muerto	-9.84088
▁siga	-9.84121
▁invitacio	-9.843
qu	-9.84333
▁deres	-9.84689
▁decidir	-9.84727
ban	-9.84735
▁mejores	-9.84792
amente	-9.84815
gamo	-9.84964
▁seguimos	-9.84975
▁olvidar	-9.85168
▁entrar	-9.85229
▁soberan	-9.85298
▁dedicar	-9.85311
▁representa	-9.85371
▁duro	-9.85479
▁actos	-9.85513
▁sirviendo	-9.85646
▁lecciones	-9.85672
▁frente	-9.85708
▁quiso	-9.85792
▁conf	-9.85921
▁propios	-9.85927
▁llevo	-9.8597
▁llevan	-9.86429
▁predij	-9.86794
▁abril	-9.868
▁controlar	-9.86826
▁relaciones	-9.86842
▁ideas	-9.86882
▁comprend	-9.86914
las	-9.87036
▁produce	-9.87176
▁reconocer	-9.87267
▁magn	-9.87382
▁servirl	-9.87391
▁cambiado	-9.87407
▁ala	-9.87419
▁semana	-9.87446
▁gusto	-9.87504
▁refiere	-9.87513
▁propias	-9.87559
▁mentir	-9.87743
▁motivo	-9.87823
▁recompensa	-9.87834
▁cantidad	-9.87986
▁diciendo	-9.88027
▁ri	-9.88177
▁mandato	-9.88215
▁terminar	-9.8822
▁amab	-9.88289
▁esfuerzo	-9.88356
▁significado	-9.8842
▁anterior	-9.88476
▁contiene	-9.88529
▁gan	-9.88563
▁evangelio	-9.88621
vamo	-9.88664
▁consecuencias	-9.88803
▁casados	-9.88929
ale	-9.89059
▁pide	-9.89212
▁lectores	-9.89311
▁til	-9.89331
▁pedir	-9.89401
struccio	-9.89507
▁examinar	-9.89553
▁of	-9.89865
▁sexuales	-9.89908
▁ndic	-9.90047
▁librar	-9.90073
▁vaya	-9.90228
▁toma	-9.90347
▁visita	-9.90436
▁ambos	-9.9047
▁universo	-9.9047
▁resulta	-9.90626
▁influencia	-9.90681
▁celo	-9.90755
▁juda	-9.91046
▁creencias	-9.9122
intio	-9.91294
g	-9.91551
▁m	-9.91558
▁par	-9.91572
▁estudios	-9.91701
▁lectura	-9.9172
▁obtener	-9.91844
▁z	-9.92013
▁contestar	-9.92152
▁mando	-9.92182
▁direccio	-9.9235
▁internet	-9.92358
▁entend	-9.92689
▁viaje	-9.92817
▁pocos	-9.92896
▁xito	-9.92995
▁resto	-9.93349
▁metas	-9.93392
▁merece	-9.93435
▁esfuerzos	-9.93449
▁ere	-9.93455
▁odi	-9.93501
▁persecucio	-9.93645
▁discreto	-9.93687
▁acepta	-9.93835
▁pensando	-9.93875
▁beneficia	-9.93897
▁atr	-9.93902
▁ba	-9.93971
▁vendr	-9.94098
▁inmoral	-9.94159
▁suced	-9.94176
▁segu	-9.94323
▁asambleas	-9.9433
▁ticos	-9.94334
ienes	-9.94561
▁puerta	-9.94563
▁vei	-9.94566
▁sau	-9.94665
▁control	-9.94795
▁formar	-9.94944
▁siguen	-9.94945
▁bautismo	-9.94947
▁protec	-9.95014
▁lejos	-9.95038
▁rein	-9.95145
▁cai	-9.95224
▁mantenga	-9.95235
h	-9.9538
▁vencer	-9.95517
▁usa	-9.95566
▁pentecost	-9.95605
▁pe	-9.95621
▁religiones	-9.95629
▁herencia	-9.95636
▁rmino	-9.95668
▁acab	-9.95746
▁demostra	-9.95761
▁the	-9.95856
▁medida	-9.95901
▁ac	-9.96158
p	-9.96229
▁septiembre	-9.96272
▁demonio	-9.96319
▁julio	-9.96339
▁educa	-9.96387
▁comisio	-9.96536
▁amoros	-9.9662
▁lista	-9.96689
▁contin	-9.96706
▁visio	-9.96807
▁gustar	-9.97076
▁nta	-9.97304
▁viven	-9.97401
rem	-9.97405
▁indic	-9.97629
▁agosto	-9.97656
▁espan	-9.97691
▁detalles	-9.97749
▁circuito	-9.97851
▁presencia	-9.97919
▁impresion	-9.97966
▁respondi	-9.98059
▁ctica	-9.98094
▁sigui	-9.98173
▁apoyar	-9.98338
▁extran	-9.98362
▁pida	-9.98518
▁aguante	-9.98657
▁pone	-9.98778
▁superar	-9.98849
▁voy	-9.98954
▁podamos	-9.98973
▁encontra	-9.98979
▁imagen	-9.9908
▁falsos	-9.99121
▁sirven	-9.99239
▁sar	-9.99577
▁ganar	-9.99712
▁buscando	-9.99715
▁animar	-9.99831
▁tulos	-9.99888
▁despert	-10.0013
▁verdaderamente	-10.0041
▁resistir	-10.0041
▁agradecidos	-10.005
dicacio	-10.0059
▁econo	-10.0067
▁tengan	-10.0068
▁graves	-10.0084
▁at	-10.0089
▁preocupa	-10.0097
▁muchedumbr	-10.0103
▁materiales	-10.0107
▁aparece	-10.0118
▁ben	-10.0136
▁hacerse	-10.0167
▁mont	-10.0167
▁sucedi	-10.0168
▁median	-10.0171
▁riquezas	-10.0178
▁hija	-10.0199
▁aspectos	-10.0205
▁emocional	-10.0223
▁esclavos	-10.0229
▁cumpli	-10.0232
▁enseguida	-10.0245
▁ego	-10.0258
▁normal	-10.0263
ilo	-10.0296
▁humana	-10.03
▁inmediato	-10.0326
▁mantenerse	-10.0333
▁planeta	-10.0344
▁profundo	-10.0346
▁clave	-10.0346
▁dieron	-10.0366
▁media	-10.0376
▁visitar	-10.0383
▁nacimiento	-10.0386
▁paciente	-10.0386
▁conmigo	-10.0386
▁regresar	-10.0388
▁cuesta	-10.0393
▁ocho	-10.0398
▁nombres	-10.0398
▁pase	-10.0407
▁ocurri	-10.0416
▁disfruta	-10.0417
▁respetar	-10.0417
em	-10.0419
▁sacar	-10.0424
org	-10.0433
▁logro	-10.0451
▁san	-10.0456
▁don	-10.0464
▁bautizado	-10.0465
▁llamar	-10.0476
▁acciones	-10.0481
▁posicio	-10.0498
▁venir	-10.05
▁semanas	-10.051
▁marzo	-10.053
▁elegir	-10.0534
el	-10.0535
▁ayude	-10.0544
▁sic	-10.0565
▁unas	-10.0566
▁dico	-10.0567
re	-10.0577
▁comenzar	-10.0587
▁angusti	-10.0592
▁diciembre	-10.0603
▁arma	-10.0608
▁dejara	-10.0613
▁boc	-10.0629
▁exhortacio	-10.0652
▁contar	-10.0664
▁amoroso	-10.0671
▁libre	-10.0694
▁cal	-10.0702
▁familiar	-10.0722
▁golpe	-10.0732
▁clases	-10.0735
▁sirve	-10.0739
▁devocio	-10.0751
▁inicuo	-10.0752
▁sienta	-10.0774
▁odo	-10.0776
▁presio	-10.0777
▁revela	-10.078
▁tome	-10.0803
▁ficos	-10.0813
▁recib	-10.0816
▁pasos	-10.0831
▁advirti	-10.0831
z	-10.0836
▁permiti	-10.0844
▁gico	-10.0847
▁luchar	-10.086
▁diferente	-10.0862
▁continua	-10.0867
▁encuentra	-10.0878
▁aprende	-10.0886
▁decid	-10.0893
▁noticias	-10.0903
dos	-10.0907
▁aplicar	-10.0908
▁valora	-10.0927
▁pastores	-10.0928
▁fuente	-10.0932
▁nito	-10.0933
▁liberar	-10.094
▁papa	-10.095
▁aman	-10.0965
▁disciplina	-10.0973
▁foto	-10.0976
▁reinado	-10.0979
▁porta	-10.0987
▁fielmente	-10.099
▁decimo	-10.1002
comunicacio	-10.1004
▁enero	-10.1007
▁mu	-10.1009
▁ra	-10.1026
▁trabaja	-10.1045
▁orgullo	-10.1048
▁bendecir	-10.1053
▁rechazar	-10.1055
▁cualid	-10.106
▁ciertas	-10.1066
▁cas	-10.1071
▁dir	-10.1104
▁natural	-10.1118
▁tesalo	-10.113
▁escritor	-10.1132
▁ce	-10.1133
▁ora	-10.1168
▁satisfaccio	-10.1182
▁comentarios	-10.1191
▁bod	-10.1193
ehem	-10.1194
▁interior	-10.1195
▁divina	-10.1201
▁busque	-10.1207
▁diversas	-10.1208
▁alerta	-10.1226
▁compasi	-10.1252
▁llevaba	-10.1261
▁santos	-10.1278
▁valiente	-10.1285
▁analice	-10.129
▁consulte	-10.1301
▁sencill	-10.131
▁quedo	-10.1313
▁plan	-10.1322
▁soltero	-10.1334
▁medidas	-10.1334
oracio	-10.1343
▁alrededor	-10.1352
▁esencial	-10.1354
▁olvid	-10.1355
▁alab	-10.1356
▁octubre	-10.1364
▁violencia	-10.1364
▁tesoro	-10.1366
in	-10.137
▁dedica	-10.139
▁lengua	-10.1395
tus	-10.1407
▁eli	-10.1411
▁suficiente	-10.1419
▁cancione	-10.1443
▁cordero	-10.1443
▁habitantes	-10.1443
▁hacernos	-10.1444
eres	-10.1454
▁mayo	-10.1457
▁ofrecer	-10.1459
▁soberano	-10.146
▁quiero	-10.1464
▁tiles	-10.1478
▁viva	-10.1482
▁dirigi	-10.1486
▁desemp	-10.1489
▁humildes	-10.1489
▁resolver	-10.151
▁́!	-10.1513
▁griega	-10.1524
▁vestir	-10.1532
▁contento	-10.154
▁nuevos	-10.1541
▁enfermedades	-10.1543
▁santa	-10.1552
▁partes	-10.1558
▁dura	-10.1569
▁puedan	-10.1571
▁puntos	-10.1573
▁veng	-10.1593
▁origen	-10.1605
▁profetas	-10.1622
▁pudieran	-10.1646
▁vivo	-10.1648
▁grado	-10.1652
▁poderoso	-10.1654
st	-10.1663
▁tar	-10.1671
▁resucitar	-10.1678
▁bibl	-10.168
▁hambre	-10.1686
▁decirl	-10.1705
▁puro	-10.1717
▁ech	-10.1729
▁enviar	-10.1743
▁tratado	-10.1744
▁parec	-10.1745
▁afirma	-10.1758
▁caminos	-10.1759
▁ses	-10.1762
▁treinta	-10.1767
▁cumple	-10.1767
▁conversacio	-10.1769
▁convirti	-10.1771
▁pac	-10.1772
cia	-10.1774
▁pagar	-10.1775
▁partir	-10.1784
aban	-10.1796
▁imag	-10.1802
▁maravilloso	-10.1807
▁farao	-10.185
▁imposible	-10.185
▁esforzarnos	-10.1851
▁claramente	-10.1852
▁darles	-10.1862
▁mostrar	-10.1882
▁ped	-10.1891
▁cuestio	-10.1892
▁antiguo	-10.1898
▁escribir	-10.1914
▁suele	-10.1919
▁recibieron	-10.1935
▁prometida	-10.1937
▁abandonar	-10.1955
▁arles	-10.1971
▁territorio	-10.1977
▁act	-10.1978
▁trate	-10.1988
▁conforme	-10.199
▁serio	-10.1994
▁meta	-10.1995
▁animo	-10.1996
▁salm	-10.2015
▁necesitaba	-10.2018
▁basa	-10.2021
▁relatos	-10.2029
▁conmemora	-10.2034
▁centro	-10.2054
▁sitio	-10.2058
▁pasaje	-10.2062
▁intent	-10.2064
▁armon	-10.2076
▁halla	-10.2079
▁parecid	-10.2084
▁defender	-10.2093
▁mental	-10.2101
▁rico	-10.2129
▁honrar	-10.2167
▁vivos	-10.2175
endo	-10.2183
bio	-10.2183
▁filipenses	-10.2187
▁integridad	-10.2187
▁cuarenta	-10.2187
▁plenamente	-10.2189
▁casarse	-10.2193
▁empec	-10.2198
▁sobrevivir	-10.2202
▁hebre	-10.2219
▁trono	-10.2227
▁costumbre	-10.2234
idad	-10.2244
ba	-10.2245
▁ando	-10.2255
clesiast	-10.2268
▁arc	-10.2271
▁antig	-10.2274
▁pensab	-10.2291
▁salv	-10.2296
▁enfrentar	-10.2306
▁casas	-10.2321
▁estrecha	-10.2334
▁cuid	-10.2342
▁xodo	-10.236
▁prometi	-10.2367
▁cartas	-10.2389
▁agradabl	-10.2389
▁termino	-10.2395
▁cato	-10.2399
▁trataba	-10.2427
▁llor	-10.244
▁confi	-10.2442
▁juzgar	-10.2443
▁gobern	-10.2444
▁frecuencia	-10.2448
▁reaccionar	-10.2456
▁programa	-10.2467
jado	-10.2473
▁tomado	-10.2476
▁enviado	-10.2478
nsen	-10.2491
▁escrito	-10.2494
▁injusticia	-10.2497
▁ga	-10.2498
▁nombrado	-10.2506
▁esfuerza	-10.2515
▁particular	-10.2524
co	-10.2528
▁dignidad	-10.2539
▁beneficiar	-10.2551
▁emocionant	-10.2556
▁asegurar	-10.2557
▁limpiar	-10.2557
▁temas	-10.256
▁solter	-10.257
▁salva	-10.2572
▁ataques	-10.2572
▁gobiernos	-10.2583
▁aspecto	-10.2589
▁cient	-10.2595
▁maestros	-10.2613
▁pascua	-10.2617
▁daba	-10.2619
▁volvi	-10.262
gans	-10.2622
▁stico	-10.2625
▁carrera	-10.2625
▁descendientes	-10.2626
▁crecimiento	-10.2626
▁recuerdo	-10.2635
▁atender	-10.2642
▁edicio	-10.2643
▁modelo	-10.2645
al	-10.2645
▁cuyo	-10.2678
▁utiliza	-10.2689
▁vieron	-10.2697
oposicio	-10.2702
▁dando	-10.2705
▁varones	-10.2716
▁rebel	-10.2726
▁recorde	-10.2747
▁reciben	-10.276
▁adora	-10.2761
▁secreto	-10.2761
▁guiar	-10.2765
▁preg	-10.2766
▁ima	-10.2771
sale	-10.2779
▁sagrado	-10.2785
▁norte	-10.2797
▁jard	-10.2806
▁suceder	-10.282
▁haz	-10.2823
▁sico	-10.2828
▁trav	-10.2831
▁tareas	-10.2841
eron	-10.2862
▁bienes	-10.2866
▁aprendi	-10.2869
▁malvado	-10.2875
▁presentes	-10.2895
▁impedir	-10.2895
▁peor	-10.2897
▁claridad	-10.2898
▁junio	-10.2899
▁pertenece	-10.2906
▁generacio	-10.291
▁envi	-10.2928
▁siento	-10.2933
▁lucha	-10.2937
▁parecido	-10.2941
▁hablan	-10.2958
ni	-10.2964
▁fic	-10.2971
▁proteg	-10.299
▁infierno	-10.2991
▁sociedad	-10.2991
▁trigo	-10.2991
▁ta	-10.2999
▁defecto	-10.3022
reye	-10.3025
▁cabe	-10.3033
▁cambi	-10.3034
▁especiales	-10.3038
▁castigo	-10.3045
▁establecido	-10.3046
▁progreso	-10.3049
▁cualquiera	-10.305
▁enses	-10.3058
▁aprovechar	-10.307
▁fortalece	-10.3077
▁responde	-10.3085
▁millas	-10.3094
▁crecer	-10.3094
▁comit	-10.3095
vio	-10.3096
▁ocurrir	-10.3097
▁proclama	-10.3109
▁sumo	-10.3116
▁suyos	-10.3126
▁nea	-10.3144
▁correcto	-10.3182
▁agrad	-10.3188
▁sufrido	-10.3194
▁informe	-10.3197
▁demostrado	-10.3205
▁asignacio	-10.322
▁apropiado	-10.3233
▁miembro	-10.3234
▁volv	-10.3235
▁viuda	-10.3236
ic	-10.3236
▁hierb	-10.3248
si	-10.3249
▁enfermo	-10.326
ada	-10.326
▁imperfeccio	-10.3261
▁calle	-10.3263
▁diga	-10.327
▁explique	-10.3275
ur	-10.3276
▁hipo	-10.3279
▁afrontar	-10.328
▁fiesta	-10.3283
▁dej	-10.3317
▁incluye	-10.3346
▁noviembre	-10.337
lyn	-10.3372
▁criatur	-10.3374
▁ticas	-10.338
▁textos	-10.3384
▁sufr	-10.3385
▁traduc	-10.3407
f	-10.3413
▁dudas	-10.3431
▁feso	-10.3433
ron	-10.3436
▁alcance	-10.344
▁clara	-10.3449
▁batall	-10.3458
▁mismas	-10.346
▁est	-10.3479
▁siguiendo	-10.348
▁pusieron	-10.3484
▁presenta	-10.3487
▁compr	-10.3492
muestran	-10.3495
▁alabanz	-10.3495
ta	-10.3495
▁lev	-10.3505
▁seccio	-10.3507
▁obedien	-10.3508
▁queridos	-10.3511
▁ricos	-10.3512
rs	-10.3513
jer	-10.3516
▁intencio	-10.3519
▁capaz	-10.3525
▁comprende	-10.3529
▁matar	-10.3536
▁sufri	-10.3542
▁unio	-10.3542
▁pulo	-10.3549
▁original	-10.355
j	-10.3555
▁doce	-10.3556
▁prof	-10.3571
▁refiri	-10.3574
▁agradar	-10.3584
▁ataque	-10.3633
▁hiciera	-10.3642
▁opin	-10.3645
▁fundamental	-10.3652
▁vac	-10.3657
▁poderosa	-10.3668
▁mante	-10.3669
▁ceder	-10.3678
▁pasara	-10.3682
▁liberacio	-10.3684
▁descanso	-10.3703
▁dejan	-10.3711
▁ayudarlos	-10.3716
▁cometido	-10.3728
▁serv	-10.3731
▁esforz	-10.3734
▁valioso	-10.3736
▁hic	-10.374
▁puesta	-10.3751
▁actual	-10.3751
▁destruir	-10.3754
▁distrito	-10.3764
▁tuv	-10.3774
gedo	-10.378
vimo	-10.38
▁acercar	-10.3804
ograf	-10.3807
▁aconseja	-10.3814
▁desierto	-10.3818
▁piedra	-10.3825
▁alguno	-10.3833
▁entera	-10.3838
▁refer	-10.3839
▁vuelve	-10.3851
▁actividad	-10.3856
▁soportar	-10.3856
́	-10.3857
▁cosecha	-10.3861
▁arriba	-10.3865
▁ofrend	-10.3866
▁ninguno	-10.3869
▁ejerce	-10.3869
▁cuestiones	-10.3872
tan	-10.3884
▁diera	-10.3887
▁pobres	-10.3895
▁agradec	-10.3901
▁recibe	-10.3905
▁bito	-10.3913
▁ol	-10.3914
▁reacciono	-10.3915
▁valiosa	-10.3937
▁hermos	-10.3951
▁iban	-10.3952
▁encima	-10.3967
▁diluvio	-10.3967
▁fono	-10.3971
▁fondo	-10.3975
▁ntegro	-10.3975
▁permanecer	-10.398
▁construir	-10.3992
▁carga	-10.3993
▁sincero	-10.4002
▁atra	-10.4003
amamo	-10.4009
▁base	-10.4019
▁estudiante	-10.4034
▁crear	-10.4046
tract	-10.4047
▁suelo	-10.405
▁profesor	-10.4058
▁corregir	-10.4058
▁menor	-10.4062
▁febrero	-10.407
▁deuteronomio	-10.407
▁profundamente	-10.4072
▁viento	-10.4072
▁completamente	-10.4073
▁querido	-10.4077
▁lograrlo	-10.4077
▁haremos	-10.4083
▁editado	-10.4084
▁contesto	-10.4094
▁declaro	-10.4094
▁oportunidades	-10.4116
▁comparacio	-10.4118
▁prepara	-10.4145
▁celebrar	-10.4149
▁trist	-10.4157
▁folleto	-10.4174
▁huir	-10.4175
▁regio	-10.418
▁obvio	-10.4185
▁vecinos	-10.4187
▁pocas	-10.4189
▁cien	-10.419
▁entero	-10.4202
ndole	-10.4207
▁guerras	-10.4208
▁digo	-10.4209
▁razon	-10.4219
▁pi	-10.4229
▁cometer	-10.4231
▁socie	-10.4239
tamo	-10.424
▁tarea	-10.4241
▁utilizar	-10.4254
▁sexual	-10.4265
tales	-10.4278
▁perfeccio	-10.4289
▁menciono	-10.4299
▁comete	-10.4303
▁consiguiente	-10.4306
▁adoptar	-10.4314
▁sexo	-10.4341
▁enorme	-10.4342
▁existen	-10.4343
▁elegido	-10.4344
▁salvo	-10.4355
▁lico	-10.4356
▁fortalec	-10.4372
▁revistas	-10.4377
▁creyente	-10.4386
▁rai	-10.44
▁sufren	-10.442
▁maduro	-10.442
▁mencionado	-10.4421
▁publicado	-10.4433
▁enfermos	-10.4436
▁ambiente	-10.4445
▁invita	-10.4457
▁razonable	-10.4458
▁motivos	-10.4464
▁esperan	-10.4476
▁exige	-10.4481
▁juez	-10.4493
▁rostro	-10.4494
▁abundancia	-10.4494
▁bienestar	-10.4497
▁parientes	-10.4502
▁soldados	-10.4504
▁publicacio	-10.4508
▁conocido	-10.4571
▁ofrec	-10.4585
▁curso	-10.4601
▁victoria	-10.4603
▁reconocimiento	-10.4603
▁codici	-10.4607
▁acto	-10.4613
▁accio	-10.4624
▁respond	-10.4626
▁crec	-10.4636
▁utiliz	-10.4644
▁comienz	-10.4648
▁profetiz	-10.4666
▁intento	-10.467
▁et	-10.4672
▁agradece	-10.4683
▁pecador	-10.4686
▁esperaba	-10.4688
▁escrib	-10.4699
▁pon	-10.4708
imo	-10.4711
▁ansiedad	-10.4712
▁ace	-10.4719
▁viviendo	-10.4724
▁comienzo	-10.4725
alt	-10.4727
▁perdi	-10.473
▁profundas	-10.4732
▁lei	-10.4744
▁pido	-10.4754
▁limpi	-10.479
▁env	-10.4797
▁caracter	-10.4813
▁apoya	-10.482
▁naturaleza	-10.4823
▁condiciones	-10.4825
▁descubrir	-10.4836
▁corazones	-10.4841
▁stica	-10.4843
▁mic	-10.4868
cione	-10.4873
▁levantar	-10.4873
ig	-10.4882
▁pel	-10.4884
▁sa	-10.4886
▁ilustra	-10.4899
▁extraordinaria	-10.4901
▁superior	-10.4923
▁posibilidad	-10.4924
▁derechos	-10.4929
▁desean	-10.4929
▁cristianismo	-10.4937
us	-10.4945
campan	-10.495
▁contribuir	-10.4956
▁aproba	-10.4981
▁buscan	-10.4983
▁aguas	-10.4984
▁afirm	-10.4996
▁analiz	-10.5003
▁jef	-10.5003
▁escritos	-10.5006
▁ltim	-10.5007
▁iones	-10.501
▁v	-10.5016
▁condicio	-10.5028
▁valores	-10.5034
▁cro	-10.5034
▁vidas	-10.5037
▁conform	-10.5039
▁respeta	-10.5042
▁fri	-10.5043
▁teocr	-10.5049
▁simbo	-10.505
▁todopoderoso	-10.505
▁esforzamos	-10.505
▁existir	-10.5051
▁expresiones	-10.5052
▁esforzarse	-10.5052
▁fecha	-10.5052
▁morales	-10.5061
▁esperando	-10.5071
▁mantuv	-10.5102
▁latas	-10.5115
▁equipo	-10.5115
cientos	-10.5121
▁interesante	-10.513
▁declara	-10.5132
▁cargo	-10.5135
▁emocion	-10.5154
▁juventud	-10.5164
▁comet	-10.5164
▁esperamos	-10.5169
▁misericordioso	-10.5169
▁escena	-10.5174
ero	-10.5175
▁bondadoso	-10.5184
▁duran	-10.5186
▁presento	-10.5189
▁producir	-10.5207
▁autoridades	-10.5219
▁tel	-10.5238
▁terrible	-10.524
▁construccio	-10.5244
▁rica	-10.525
▁aseguro	-10.5254
▁alo	-10.5258
▁tratan	-10.5271
▁aquello	-10.5282
▁garant	-10.5283
▁presentar	-10.5284
▁desgraci	-10.5304
▁penn	-10.5311
▁hermoso	-10.5313
▁reaccion	-10.533
▁clam	-10.5332
▁grupos	-10.5338
▁expresar	-10.5349
▁estableci	-10.5354
▁casado	-10.5359
▁beneficio	-10.5377
▁bro	-10.5389
▁cruel	-10.5393
▁adulterio	-10.5398
▁indefinido	-10.5399
▁directamente	-10.5403
▁sugerencias	-10.5405
▁alimentar	-10.5408
▁pecar	-10.5408
▁camin	-10.5411
▁aprendiendo	-10.5411
▁contacto	-10.5413
▁cantar	-10.5415
▁zaro	-10.5416
▁rdid	-10.5429
▁participa	-10.5479
▁ciudades	-10.548
▁trans	-10.5481
▁notas	-10.5483
▁lic	-10.549
▁breve	-10.5501
▁ofreci	-10.5505
ntes	-10.5508
▁ans	-10.5517
▁cursorado	-10.5517
▁alcohol	-10.5518
▁conversaciones	-10.5519
▁dedicado	-10.5523
▁muchacho	-10.5532
▁maravillos	-10.555
▁confia	-10.555
▁planes	-10.5551
▁expreso	-10.5551
▁extranjeros	-10.5557
▁aprecio	-10.5561
▁pondr	-10.5564
▁cur	-10.5567
▁hablado	-10.5575
▁ido	-10.558
▁conservar	-10.5586
▁cultura	-10.5591
▁impulsa	-10.5595
▁consecuencia	-10.5598
▁extranjero	-10.5599
ro	-10.5604
▁pierd	-10.5605
▁convers	-10.5617
▁serie	-10.5637
▁madero	-10.5641
▁factores	-10.5643
▁diversos	-10.5643
▁moral	-10.5645
▁rollo	-10.5647
▁rechazo	-10.566
▁explicacio	-10.566
▁pudi	-10.5663
▁basta	-10.5664
▁medios	-10.5664
▁pele	-10.5666
alay	-10.5667
▁rut	-10.5669
aro	-10.5673
▁sentencia	-10.5687
▁comportar	-10.5693
▁observar	-10.5699
▁person	-10.5703
▁sim	-10.5706
▁dicos	-10.5716
▁matrimonios	-10.572
▁dirig	-10.5747
▁invisible	-10.5759
▁mandamiento	-10.576
▁contribuye	-10.5761
▁logrado	-10.5769
▁historias	-10.577
▁intereses	-10.5773
▁demostrarl	-10.5787
alone	-10.5788
▁encuentran	-10.5801
▁permita	-10.5802
▁vayan	-10.5808
▁ocurre	-10.5831
▁esposos	-10.5833
▁exacto	-10.5837
▁disponible	-10.5843
▁reaccio	-10.5844
▁medit	-10.5848
▁influir	-10.5883
▁div	-10.5884
▁avanzada	-10.5885
▁pronunci	-10.5906
ad	-10.5915
▁parezc	-10.5917
penas	-10.5927
▁pese	-10.5929
▁romano	-10.5934
▁indican	-10.5936
▁hacie	-10.5955
▁permit	-10.5961
▁espad	-10.5975
▁sirvi	-10.5976
▁pueblos	-10.5976
▁campos	-10.5979
▁actu	-10.5979
▁anuncio	-10.598
▁parecen	-10.5989
▁semill	-10.6005
▁signific	-10.6007
▁evidente	-10.6009
▁brinda	-10.6009
▁veinte	-10.6012
▁brazo	-10.6015
▁estudiando	-10.6015
nicen	-10.6018
▁levitas	-10.6019
▁dirige	-10.6021
▁cumplido	-10.6023
▁ctim	-10.6024
▁nicos	-10.6027
▁usando	-10.6029
▁jonat	-10.6029
▁pornogr	-10.6035
sylva	-10.6036
▁fornicacio	-10.6046
▁vean	-10.605
▁suceso	-10.605
un	-10.6054
▁copi	-10.6055
▁corinto	-10.6057
▁escuche	-10.6068
▁fuertes	-10.6068
▁trampa	-10.6096
▁refugio	-10.6096
▁diente	-10.6107
▁internacional	-10.6122
▁universidad	-10.6125
▁completa	-10.6133
▁memoria	-10.6141
▁fric	-10.6142
▁proclamar	-10.6144
▁existencia	-10.6145
▁tratando	-10.6155
▁adultos	-10.6157
▁suyo	-10.616
▁llevado	-10.6161
▁guardar	-10.6165
▁sicas	-10.6166
dado	-10.6168
▁mam	-10.6182
▁oscur	-10.6182
▁derech	-10.6183
▁injusticias	-10.6192
▁eliminar	-10.6195
▁poses	-10.6198
▁revel	-10.6204
▁resucit	-10.6211
▁hacerle	-10.6217
▁odio	-10.6218
▁diario	-10.6242
▁neo	-10.6246
▁quedarse	-10.6258
iz	-10.626
▁murieron	-10.6263
▁valent	-10.6265
▁conviene	-10.6265
▁quiera	-10.6269
▁efectos	-10.627
▁reconoc	-10.6273
miento	-10.628
▁nueve	-10.629
▁distintas	-10.6291
▁religiosas	-10.6294
▁forman	-10.6298
▁adolescentes	-10.63
▁cubrir	-10.6302
▁lleve	-10.6304
▁ponerse	-10.6316
▁g	-10.6318
▁fijar	-10.6335
▁activa	-10.6342
▁fija	-10.6346
▁mision	-10.6348
▁realiza	-10.6349
versione	-10.6354
▁pobre	-10.6357
▁destaca	-10.6373
▁decide	-10.6384
▁virtud	-10.6392
▁continuo	-10.6392
▁sobresaliente	-10.6393
▁bastante	-10.6407
▁listos	-10.6417
▁anteriores	-10.6419
▁destruido	-10.642
▁progresar	-10.6421
▁pasando	-10.6426
▁maravillosa	-10.6432
▁result	-10.6448
▁declarar	-10.6462
▁terrestre	-10.6483
▁describe	-10.6492
▁preparado	-10.6494
▁larga	-10.6496
presio	-10.6497
nza	-10.6499
▁eterno	-10.6499
▁diferencias	-10.65
▁alemania	-10.6524
▁pobreza	-10.6524
▁iniciativa	-10.6524
▁entendimiento	-10.6524
▁peticio	-10.6525
▁constantemente	-10.6527
▁tantos	-10.6538
▁llegada	-10.654
▁cam	-10.6548
▁necesarias	-10.656
▁biles	-10.6565
▁sof	-10.6567
▁creado	-10.6583
▁recuperar	-10.66
▁preciso	-10.6621
▁negar	-10.6622
▁cuentas	-10.6623
▁logo	-10.663
car	-10.6635
bilid	-10.6637
▁depende	-10.6639
▁multitud	-10.6645
▁consideraba	-10.665
▁dom	-10.665
▁gobernar	-10.665
ec	-10.6651
icamente	-10.6652
▁prisio	-10.6657
▁honradez	-10.6657
▁pensado	-10.6661
▁inquietudes	-10.6664
▁acercarse	-10.6666
▁tribu	-10.6669
▁lee	-10.6669
▁invito	-10.6676
▁notar	-10.6697
era	-10.6697
▁vuelt	-10.6699
▁apacibl	-10.6706
▁televis	-10.6712
▁costumbres	-10.6719
▁sur	-10.6727
▁representan	-10.6746
▁ame	-10.6759
▁h	-10.6776
▁jefe	-10.6787
▁plena	-10.679
▁donaciones	-10.6793
▁universal	-10.6794
▁siguieron	-10.6794
▁cumpliendo	-10.6795
▁viajar	-10.6797
▁relat	-10.6802
▁emplea	-10.6807
▁conjunto	-10.6812
▁marido	-10.6814
▁sorprend	-10.682
▁rsel	-10.6825
▁rselo	-10.6843
▁positiva	-10.688
▁voto	-10.6893
ars	-10.6908
▁sufrimientos	-10.6915
▁cabras	-10.6931
▁mantiene	-10.6934
▁calm	-10.6936
▁novia	-10.6937
▁llevara	-10.6948
▁leyendo	-10.695
▁proceso	-10.6961
▁estudi	-10.6968
▁trabajan	-10.6976
▁disposicio	-10.698
▁abel	-10.6984
▁acepte	-10.6987
▁manifestar	-10.6994
▁cabal	-10.6996
▁pasajes	-10.6996
▁medi	-10.7001
▁colaborar	-10.7003
▁entro	-10.7006
▁nis	-10.7016
▁public	-10.702
▁medita	-10.7025
▁tom	-10.7027
▁sencillo	-10.7028
▁adolescente	-10.7029
▁firmes	-10.7029
▁antigua	-10.7034
▁obedec	-10.7037
▁llegan	-10.7046
▁aba	-10.7058
▁costa	-10.7063
▁notici	-10.7065
▁mart	-10.7069
▁pudieron	-10.707
▁sinceras	-10.7072
▁tenimiento	-10.7075
▁impulso	-10.7076
▁desarrollo	-10.7078
▁experiencias	-10.7084
▁vital	-10.7101
▁recompens	-10.7103
▁alimentos	-10.7105
▁encontrado	-10.7107
af	-10.7117
▁continu	-10.7147
▁contesta	-10.716
▁nacido	-10.717
▁perd	-10.717
▁refleja	-10.7172
▁resucitado	-10.7172
▁espec	-10.7205
▁serpiente	-10.7209
▁recursos	-10.7214
▁descans	-10.7219
▁despierto	-10.7227
▁recie	-10.7233
▁almas	-10.724
▁aprovecha	-10.7248
▁preparados	-10.7254
▁versio	-10.726
▁requiere	-10.7261
▁personales	-10.7267
▁vivi	-10.7267
▁condena	-10.7269
▁obedece	-10.7274
▁ler	-10.7282
▁rob	-10.7292
rm	-10.7302
▁emplear	-10.7323
▁regular	-10.734
▁postur	-10.7352
▁fidelidad	-10.7352
▁dormir	-10.7354
▁requisitos	-10.736
▁regreso	-10.7382
▁inicio	-10.7387
▁pasab	-10.7394
▁resultar	-10.7394
▁varo	-10.7404
grima	-10.7412
▁abrir	-10.7417
▁enoc	-10.7441
▁reconoci	-10.7444
▁ayudando	-10.7448
▁molde	-10.7455
▁encontraba	-10.746
▁lamentable	-10.7463
▁premio	-10.7466
▁referir	-10.7479
tole	-10.7481
▁bautic	-10.7482
▁conocerlo	-10.7488
▁sinagog	-10.7496
▁ell	-10.751
▁peligroso	-10.7516
▁lograron	-10.7516
▁edific	-10.7518
▁satisfacer	-10.7533
▁criar	-10.7552
▁sepa	-10.7552
tuvo	-10.7572
bi	-10.7572
▁mos	-10.7587
▁prudente	-10.7603
▁semejante	-10.7604
tas	-10.7613
▁funcio	-10.7641
▁dram	-10.7642
▁john	-10.7643
▁xico	-10.7643
▁bdito	-10.7643
▁francia	-10.7645
▁injusto	-10.7647
▁madurez	-10.7649
▁advierte	-10.7649
▁negativos	-10.7653
▁tem	-10.7653
▁anunci	-10.7663
▁continuar	-10.7667
aic	-10.7676
▁comparar	-10.7683
▁tuvi	-10.7699
▁valiosas	-10.7702
▁hago	-10.7703
▁escucho	-10.7711
▁dichos	-10.7713
▁rato	-10.7714
▁antiguos	-10.7715
▁jeho	-10.7717
▁nculo	-10.7718
▁efectuar	-10.772
▁lenguas	-10.772
▁color	-10.7725
▁grit	-10.7726
▁piados	-10.7735
▁gar	-10.7746
▁excelentes	-10.775
▁exclam	-10.7755
▁necesaria	-10.7756
▁misio	-10.776
▁peligros	-10.7775
▁vin	-10.7777
▁cultiv	-10.7781
▁ministerial	-10.7781
▁observa	-10.7782
calip	-10.7787
▁jueces	-10.7793
▁apariencia	-10.7793
▁compara	-10.7794
▁exactamente	-10.7794
▁antepasado	-10.7796
▁compartir	-10.7798
▁ilustr	-10.7799
▁calidad	-10.7799
▁polvo	-10.7799
▁facultades	-10.7802
▁conocen	-10.7804
▁figura	-10.7804
▁ruego	-10.7804
▁relacionados	-10.7807
▁bu	-10.7819
▁limpio	-10.7829
▁principales	-10.7838
▁trampas	-10.784
▁labores	-10.7845
▁inmortal	-10.7846
▁ritu	-10.7847
▁jude	-10.7855
▁lluvi	-10.7855
▁canad	-10.7865
▁mudar	-10.7872
▁amabl	-10.7875
▁conto	-10.7882
rnos	-10.7885
▁solucio	-10.7885
▁alta	-10.7894
▁actitudes	-10.79
su	-10.7902
▁doctrina	-10.7906
▁cen	-10.7906
▁sacrific	-10.7909
▁blanco	-10.7912
▁permiten	-10.792
▁garantiza	-10.7932
▁diari	-10.7936
▁correcta	-10.7944
▁miguel	-10.7944
▁vejez	-10.7944
▁lisis	-10.7945
▁cincuenta	-10.7945
▁opiniones	-10.7947
▁egipcio	-10.7952
▁precio	-10.7954
▁habitacio	-10.7956
▁datos	-10.7958
▁consuela	-10.7959
▁tuviera	-10.796
▁convencer	-10.7962
▁aire	-10.797
▁sta	-10.7972
▁impulsar	-10.7978
▁ocurrido	-10.7983
▁divinos	-10.7988
▁ara	-10.7992
▁ndom	-10.8
▁determinar	-10.8014
▁mor	-10.8018
▁prestar	-10.8035
▁video	-10.8035
▁cuya	-10.8037
▁mandatos	-10.8044
▁f	-10.805
▁extraordinario	-10.8059
▁australia	-10.8062
▁inspirada	-10.807
▁desaf	-10.8071
▁logr	-10.8075
▁regalos	-10.8086
▁bautist	-10.8098
▁generosidad	-10.8098
▁fariseo	-10.81
▁abundante	-10.81
▁oficial	-10.8101
▁comunicarse	-10.8101
▁adquirir	-10.8105
▁ficas	-10.8107
▁inquiet	-10.8107
▁rcel	-10.8107
▁empieza	-10.8108
▁fije	-10.8111
▁conflictos	-10.8123
▁decirlo	-10.8125
▁abuelo	-10.8127
▁capac	-10.8142
▁rode	-10.815
▁sentado	-10.8154
▁asist	-10.8155
▁perio	-10.8175
▁alado	-10.8208
dando	-10.821
▁tienda	-10.8225
▁corr	-10.8234
▁lograra	-10.8239
▁constante	-10.8249
▁animal	-10.8254
ealt	-10.8254
▁esclavitud	-10.8254
▁testamento	-10.8254
▁descubierto	-10.8255
▁unido	-10.8257
▁salvador	-10.8257
▁culas	-10.8265
▁nivel	-10.8267
▁mencione	-10.8274
▁expertos	-10.8281
▁vivido	-10.8281
▁establecer	-10.8282
▁expuls	-10.8284
▁pur	-10.8299
▁repasar	-10.8301
▁apareci	-10.8303
▁digan	-10.8304
▁llevaban	-10.831
▁limpios	-10.8312
▁roc	-10.8315
▁peso	-10.8335
rques	-10.8339
▁cay	-10.8348
▁ne	-10.8377
▁neutral	-10.8415
▁tropezar	-10.8416
▁acudir	-10.8427
▁trabajando	-10.8428
▁sermo	-10.8428
▁realizo	-10.8435
rse	-10.8454
▁gana	-10.846
▁sirva	-10.846
ternid	-10.8472
▁llevaron	-10.8474
▁be	-10.8477
▁michel	-10.8481
▁fortalez	-10.8505
▁eleccio	-10.8511
ir	-10.8516
▁puertas	-10.8519
▁pasan	-10.8541
▁cana	-10.8562
▁similar	-10.8566
▁brasil	-10.8574
▁pedimos	-10.8578
▁consolar	-10.8579
ma	-10.8582
▁cuarto	-10.8583
▁rojo	-10.8583
▁entrada	-10.8584
▁plant	-10.8584
▁arte	-10.8587
▁estrellas	-10.8589
▁vuelva	-10.8594
▁inspirado	-10.8599
▁detra	-10.8605
▁bil	-10.862
▁quedan	-10.8628
▁grano	-10.8632
▁novio	-10.8635
lic	-10.865
▁malvados	-10.8651
▁tercera	-10.8655
▁modest	-10.8661
▁precisa	-10.8663
▁bendice	-10.8671
▁considerar	-10.8677
▁lamento	-10.8679
▁sincer	-10.8684
norr	-10.8708
▁religiosa	-10.871
az	-10.8718
▁escogido	-10.8721
▁razona	-10.8725
▁examine	-10.8729
▁averiguar	-10.8736
▁posteriormente	-10.8739
▁predicho	-10.874
▁desaparecer	-10.874
▁preocupaciones	-10.874
▁mism	-10.874
▁aceit	-10.8741
▁pidiendo	-10.8744
▁creciendo	-10.8746
▁plac	-10.8747
▁comunidad	-10.8747
▁tomamos	-10.8748
▁poblacio	-10.8753
saf	-10.876
▁prend	-10.8763
▁traducir	-10.877
▁ciento	-10.8772
▁doy	-10.8774
ponen	-10.8776
▁canto	-10.8783
▁nombrar	-10.8785
▁venido	-10.8788
damo	-10.88
▁ctico	-10.8842
▁rus	-10.8842
▁vil	-10.8845
▁llamab	-10.8853
▁valle	-10.8861
▁concentrar	-10.8888
▁sorpresa	-10.8905
▁trinidad	-10.8905
▁eliseo	-10.8905
▁mencionada	-10.8905
▁destino	-10.8908
▁producto	-10.8909
▁saulo	-10.8913
▁comenc	-10.8914
▁sordos	-10.8922
▁imperio	-10.8924
▁probar	-10.8927
▁deseab	-10.8932
▁distintos	-10.894
▁casad	-10.8942
consejo	-10.8946
▁doctrinas	-10.8949
▁hicieran	-10.8954
▁barro	-10.8954
aba	-10.8971
acione	-10.8973
tacio	-10.8973
▁feli	-10.8973
▁rgen	-10.8983
▁conozca	-10.9002
▁relacion	-10.9011
▁ofend	-10.9016
▁aparec	-10.9021
▁plat	-10.9027
▁franc	-10.9028
▁culpable	-10.9034
▁responsable	-10.9035
▁arrepen	-10.9049
▁tribunal	-10.9062
▁atraves	-10.9063
▁imprescindible	-10.9075
▁recomienda	-10.9081
▁mai	-10.9084
▁enfrentarse	-10.9084
▁posee	-10.9099
▁silencio	-10.9108
▁vas	-10.9115
▁estilo	-10.912
▁sufre	-10.9122
uelen	-10.9123
▁ponemos	-10.9126
▁sostiene	-10.9129
▁entregar	-10.9136
▁formado	-10.9138
▁verlo	-10.9164
mist	-10.9167
▁encant	-10.9173
▁aprob	-10.9194
bajo	-10.9208
▁compasivo	-10.9215
▁reunir	-10.9222
▁raza	-10.9234
▁social	-10.9247
▁inmediatamente	-10.9247
▁provien	-10.9248
▁vigilante	-10.9248
▁contigo	-10.925
▁obligacio	-10.9251
▁alivio	-10.9252
▁subir	-10.9255
▁reglas	-10.9275
▁aceptaron	-10.9283
eremo	-10.9285
▁consiste	-10.9287
▁patriarc	-10.9302
▁obedecen	-10.9303
am	-10.9314
stuvo	-10.9318
▁za	-10.9327
▁robert	-10.9362
▁representaba	-10.9362
▁alegre	-10.9368
▁guardi	-10.9372
▁falso	-10.9397
▁religioso	-10.9404
▁orando	-10.9406
▁quisiera	-10.9418
▁absoluta	-10.942
▁desarrollar	-10.9421
▁done	-10.9422
▁limpieza	-10.9422
▁trib	-10.9424
▁invitaron	-10.9428
▁declaracio	-10.9432
▁llenar	-10.9442
▁legal	-10.9443
▁abarca	-10.9446
▁dur	-10.9446
▁destac	-10.9448
▁termine	-10.945
▁tercer	-10.9455
▁acaso	-10.9465
▁plato	-10.9476
▁determina	-10.9478
▁distancia	-10.9478
ri	-10.9483
atr	-10.9488
▁concedi	-10.9508
▁piden	-10.9513
▁reu	-10.9518
▁corresponde	-10.9519
ilid	-10.9538
▁ci	-10.9543
nspiracio	-10.9544
▁tendencia	-10.956
▁distinta	-10.9569
▁baja	-10.9583
▁influye	-10.9597
▁galile	-10.96
▁europa	-10.9601
▁inteligente	-10.9601
▁horario	-10.9602
▁obligaciones	-10.9602
▁oyentes	-10.9604
▁red	-10.9608
▁concentrarse	-10.9621
▁suya	-10.9621
▁cter	-10.9622
▁ayudarlo	-10.9623
▁admite	-10.9638
▁inu	-10.9649
▁disfrutan	-10.9651
▁tercero	-10.9659
▁aut	-10.9677
▁justa	-10.9685
▁guarda	-10.969
▁aceptado	-10.97
▁necesarios	-10.9703
▁educar	-10.9725
▁ofens	-10.9741
▁tratamiento	-10.9744
▁xim	-10.9746
▁perspicac	-10.9759
▁entiende	-10.976
▁isla	-10.977
▁ejemplar	-10.9774
▁rog	-10.9775
▁vali	-10.9777
▁donativo	-10.9782
▁repente	-10.9783
▁gratitud	-10.9783
▁departamento	-10.9784
▁statas	-10.9784
▁sobrellevar	-10.9785
▁gustab	-10.9786
ten	-10.9787
▁esforc	-10.9789
▁vend	-10.979
▁exhorto	-10.9791
▁clic	-10.9794
▁viejo	-10.98
▁sembrar	-10.9806
▁servido	-10.9807
▁expresa	-10.9807
▁ayudante	-10.9811
▁automo	-10.982
▁fra	-10.9832
▁semejantes	-10.9832
▁recto	-10.9837
▁solas	-10.984
▁sabia	-10.9844
▁ex	-10.9848
▁exhorta	-10.9849
▁manejar	-10.9859
▁dedico	-10.9873
▁idol	-10.9877
▁entren	-10.99
▁vivan	-10.99
▁leerl	-10.99
▁izquierd	-10.9901
arno	-10.9901
ara	-10.9904
▁piensen	-10.9911
sa	-10.9914
▁escribe	-10.9918
▁detalle	-10.9931
▁agradecido	-10.9937
▁escapar	-10.9938
▁manten	-10.995
▁cumpla	-10.9953
▁histo	-10.996
▁incre	-10.9966
▁redentor	-10.9967
▁asistencia	-10.9968
▁habilidades	-10.9968
▁primog	-10.9969
▁yugo	-10.997
▁hermandad	-10.997
▁luis	-10.9972
▁gastos	-10.9977
▁ayudarle	-10.9979
▁creemos	-10.998
▁gic	-10.9983
▁nombr	-10.9984
▁encargo	-10.9988
▁preocupacio	-10.9994
▁naturales	-10.9998
▁entrego	-10.9998
▁cor	-11.0002
▁tito	-11.001
▁referencias	-11.0012
▁piedras	-11.0041
▁pecad	-11.0044
▁claras	-11.0044
▁pertenec	-11.0057
▁arnos	-11.0058
▁armas	-11.0086
▁considerado	-11.009
▁sintier	-11.009
▁usan	-11.0117
▁dedican	-11.0118
▁referencia	-11.012
▁duel	-11.0137
▁costo	-11.0137
▁dificultad	-11.0152
▁perspectiva	-11.0156
▁crianza	-11.0159
▁colaboradores	-11.0159
▁sufriendo	-11.016
▁dibujo	-11.0166
▁intentar	-11.0167
▁sucedido	-11.0172
▁conducir	-11.0174
▁cueste	-11.0174
▁talentos	-11.0176
▁ciencia	-11.0198
▁evolucio	-11.0215
▁razonables	-11.0227
darse	-11.0243
edi	-11.0253
▁mosl	-11.0268
▁repu	-11.0274
▁aves	-11.0297
▁pensamiento	-11.031
▁creencia	-11.031
▁distinto	-11.0312
▁consigui	-11.0326
ch	-11.0326
▁motiv	-11.0341
▁limitaciones	-11.0349
▁propiedad	-11.0349
▁heredar	-11.0352
▁capital	-11.0352
▁minutos	-11.0355
▁luchando	-11.0357
▁heredado	-11.036
▁permitido	-11.0361
▁sociales	-11.0362
▁alejado	-11.0364
▁tipos	-11.0365
▁siembr	-11.0367
▁realizan	-11.0368
▁celebro	-11.0369
▁hue	-11.0387
▁mud	-11.0388
▁instante	-11.0389
▁cocin	-11.0393
▁mantendr	-11.0395
▁envidi	-11.04
▁relatad	-11.0402
▁micos	-11.0402
▁cont	-11.0405
▁tormento	-11.0428
▁resum	-11.043
▁toman	-11.0433
▁ore	-11.0438
jo	-11.0441
▁territorios	-11.0441
▁altar	-11.0455
▁der	-11.0455
▁supo	-11.0458
▁daban	-11.0458
▁identificar	-11.0462
▁descubr	-11.0472
fec	-11.0491
▁procura	-11.0496
▁generoso	-11.0509
▁italia	-11.0515
▁supera	-11.0538
▁identidad	-11.0544
▁emperad	-11.0545
▁contaba	-11.0545
▁contrast	-11.0545
▁ceramente	-11.0546
▁bebid	-11.0546
▁habitada	-11.0546
▁provecho	-11.0547
▁voluntarios	-11.0549
di	-11.0552
▁olivo	-11.0556
▁conozco	-11.0559
▁viviente	-11.0559
▁ganado	-11.056
▁dedicarse	-11.0561
▁rendir	-11.0564
▁celebra	-11.0565
▁registrada	-11.057
▁revelar	-11.057
▁adorarlo	-11.0571
▁vengan	-11.0579
▁necesite	-11.0586
▁joel	-11.06
▁bel	-11.0603
▁predican	-11.062
▁resuelto	-11.0623
▁entra	-11.0626
▁mensajes	-11.0634
▁madres	-11.0638
▁amenaza	-11.0639
▁admir	-11.0644
▁digna	-11.0669
cres	-11.0672
▁educ	-11.0673
▁mod	-11.0673
▁obst	-11.0682
▁exceso	-11.0703
▁aumentar	-11.0703
▁mencionar	-11.0715
▁cant	-11.0715
▁efect	-11.0718
▁digno	-11.072
▁facultad	-11.0734
▁muere	-11.0738
▁japo	-11.0743
▁franqueza	-11.0744
▁placeres	-11.0745
▁cuantas	-11.0747
▁barco	-11.0748
▁rescatar	-11.0748
▁altura	-11.0753
▁escoger	-11.0757
▁escuchando	-11.0763
▁evangelizador	-11.0765
▁revelan	-11.0767
▁simas	-11.0768
▁modestos	-11.0768
▁viajantes	-11.0773
▁presiones	-11.0773
▁peticiones	-11.0776
▁arreglar	-11.0778
▁grim	-11.0779
▁genio	-11.078
▁abr	-11.0782
▁reservado	-11.0785
▁centrar	-11.0789
vadur	-11.0804
▁hogares	-11.0804
▁encargado	-11.0807
▁participan	-11.0807
▁cumpl	-11.0818
▁aliment	-11.0822
▁sombr	-11.0822
▁centra	-11.0825
▁licos	-11.0827
visione	-11.0827
▁oye	-11.0837
▁tocar	-11.0839
▁lid	-11.084
▁lech	-11.0865
▁extra	-11.0865
▁perdono	-11.0886
▁barr	-11.0887
▁corta	-11.0891
▁acud	-11.0898
▁necesi	-11.0907
▁permanente	-11.0909
▁servi	-11.0911
▁ocupado	-11.092
▁visite	-11.0923
▁divorcio	-11.0928
▁simboliz	-11.0934
▁singular	-11.0935
▁pud	-11.0939
▁objeto	-11.0941
▁rusia	-11.0948
▁pensar	-11.0949
▁asumir	-11.0953
▁ofendido	-11.0953
▁acerc	-11.0954
▁contexto	-11.0954
▁tristez	-11.0955
▁frase	-11.0961
▁hici	-11.0967
▁orgulloso	-11.0969
▁ejercer	-11.097
▁superiores	-11.097
▁ponernos	-11.0989
go	-11.0991
▁hallado	-11.0995
▁plantear	-11.0999
▁piel	-11.102
▁conmemor	-11.1021
▁aceptan	-11.1025
▁valiosos	-11.1035
▁madur	-11.1039
▁crea	-11.104
▁programas	-11.1042
▁rebelar	-11.1059
▁libres	-11.1072
▁afirman	-11.1074
▁demostrara	-11.1076
▁tuvieran	-11.1082
▁ministro	-11.1093
▁exist	-11.1094
▁llev	-11.1095
one	-11.1099
▁presentan	-11.11
▁corte	-11.1111
▁objetivos	-11.1115
▁confiable	-11.1118
▁consideran	-11.112
▁atacar	-11.1121
▁promueve	-11.1132
▁trabajos	-11.1139
▁despertar	-11.114
▁listo	-11.114
▁betelita	-11.1157
▁autodominio	-11.1157
▁promover	-11.1158
▁setenta	-11.1158
▁besti	-11.116
▁temprano	-11.1161
dr	-11.1165
▁luna	-11.1167
▁castigar	-11.1168
▁poseer	-11.1172
▁instruccio	-11.1172
▁culto	-11.1178
▁doctor	-11.1181
▁negocios	-11.1184
▁enfrento	-11.1185
▁enz	-11.1186
▁pri	-11.1188
▁seguiremos	-11.1189
▁realizado	-11.1193
▁visito	-11.1197
▁morad	-11.1199
▁cometi	-11.1199
▁fundamento	-11.1204
▁flor	-11.1204
▁alt	-11.1205
▁verg	-11.1214
▁unida	-11.1214
▁descubri	-11.1216
▁reun	-11.1219
▁salvaj	-11.1221
▁habido	-11.1224
▁incluir	-11.123
▁suma	-11.1244
▁celos	-11.1246
▁surgi	-11.1246
▁pas	-11.1255
▁predico	-11.1262
▁ayuden	-11.127
▁terreno	-11.1271
raban	-11.1279
▁asisti	-11.1294
ienci	-11.13
aterr	-11.1306
▁alej	-11.1313
▁sac	-11.1315
▁perdonar	-11.1318
mpen	-11.132
▁hablarl	-11.1325
▁etapa	-11.1327
▁soporta	-11.1334
▁animan	-11.1335
▁juego	-11.1342
▁expulsado	-11.1344
▁imaginar	-11.1345
▁local	-11.1347
▁convierte	-11.1349
simismo	-11.1353
bernab	-11.1363
▁exactitud	-11.137
▁equilibrio	-11.137
▁combatir	-11.137
▁investigacio	-11.1371
▁vivieron	-11.1375
▁jeh	-11.1376
▁rebeldes	-11.138
▁residentes	-11.1382
▁elementos	-11.139
▁amables	-11.1393
▁preguntarl	-11.1403
▁practicar	-11.1405
▁mudo	-11.1409
▁entrenar	-11.1417
ito	-11.1423
▁esperaban	-11.1425
▁trataron	-11.1435
▁culturas	-11.1441
▁gobernantes	-11.1449
▁tomara	-11.1464
▁material	-11.1465
▁intentan	-11.1469
▁humanas	-11.1488
▁separar	-11.1496
▁milagros	-11.1511
▁gobiern	-11.1516
▁gans	-11.1543
▁oficina	-11.1546
▁apartar	-11.1548
▁apoye	-11.1548
▁andr	-11.1551
▁dominar	-11.1554
▁procedi	-11.1559
▁var	-11.1563
▁manif	-11.1573
▁prioridad	-11.1575
▁tabern	-11.1586
▁consciente	-11.1587
▁diestra	-11.1589
mamo	-11.1589
▁comunes	-11.1591
▁distinguir	-11.1593
▁drogas	-11.1594
▁trabajadores	-11.1595
▁fall	-11.1595
▁rodean	-11.1602
▁funciones	-11.1604
temo	-11.1611
▁rodeado	-11.1613
▁cit	-11.1617
▁pensaban	-11.1624
▁aparte	-11.1624
▁surge	-11.1626
▁manifiesto	-11.1626
▁llamados	-11.1627
▁devolver	-11.163
▁sembrad	-11.1631
▁mandado	-11.1631
▁suerte	-11.1639
▁necesito	-11.1656
▁dirigen	-11.1659
mpan	-11.1662
▁ocupar	-11.1663
▁filoso	-11.1666
▁eliminara	-11.1667
▁impresio	-11.1668
ens	-11.1672
▁coron	-11.1673
ns	-11.1681
▁apaci	-11.1683
▁cumplen	-11.1683
▁proporciona	-11.1702
▁ladro	-11.1711
▁curo	-11.1715
▁modos	-11.1716
▁controla	-11.172
▁triunf	-11.1722
uen	-11.174
▁lot	-11.1748
▁auto	-11.1763
▁cans	-11.1769
▁oportuno	-11.1772
▁perro	-11.1788
▁desobed	-11.1796
▁desobedecer	-11.1801
▁urgencia	-11.1809
▁compromiso	-11.1809
▁domingo	-11.1809
▁solucionar	-11.1809
▁hermosa	-11.1809
▁rebeca	-11.1809
▁agradecimiento	-11.1809
▁dolores	-11.181
▁equivocada	-11.181
▁mayordomo	-11.1811
▁sabr	-11.1813
▁numerosos	-11.1814
▁diva	-11.182
▁cercana	-11.1825
▁lazos	-11.1826
▁comprensi	-11.1831
▁perdonado	-11.1833
▁prohibido	-11.1843
▁honrados	-11.1844
▁identific	-11.1849
▁sano	-11.1854
▁conduce	-11.186
erem	-11.1867
▁georg	-11.1869
▁dal	-11.1872
▁baj	-11.1872
▁comparo	-11.1877
▁sig	-11.1877
▁motivar	-11.1878
▁preparo	-11.1885
▁encar	-11.1911
▁tierras	-11.1913
▁producen	-11.1915
▁ense	-11.193
▁sat	-11.1937
▁disfrut	-11.1939
▁causar	-11.1942
▁autor	-11.1942
▁jan	-11.1951
▁pose	-11.1965
▁sicamente	-11.1971
▁llen	-11.1972
▁ade	-11.1978
▁urgente	-11.1997
▁profunda	-11.2
▁benefician	-11.2013
▁preocupar	-11.2017
▁dejab	-11.2019
▁diccionario	-11.2036
▁adolescencia	-11.2036
▁regularidad	-11.2037
▁enfrentamos	-11.2037
▁progresando	-11.2038
▁imitarlo	-11.2042
▁mudarse	-11.2044
▁cuerpos	-11.2045
▁ticamente	-11.2048
▁dominio	-11.2049
▁nazar	-11.2051
▁convertido	-11.2055
▁personalmente	-11.2057
▁ventajas	-11.2062
▁busco	-11.2064
▁afectar	-11.2066
▁hallab	-11.2068
▁oso	-11.2074
▁obtuv	-11.2074
▁igualmente	-11.2076
▁aprenden	-11.2077
▁recomend	-11.2079
▁justas	-11.2088
▁cumplirse	-11.2097
▁logre	-11.2106
▁enferm	-11.2108
▁presion	-11.2112
▁pertenecen	-11.2117
▁observ	-11.2123
▁paces	-11.2128
▁afirmar	-11.2137
acabab	-11.2138
▁encierra	-11.2158
▁paul	-11.2166
▁dolos	-11.217
▁pen	-11.2179
▁gal	-11.2191
daba	-11.2192
▁glo	-11.2206
▁dirigida	-11.222
▁hu	-11.2234
▁basada	-11.2236
▁tam	-11.2245
▁inquietud	-11.2257
▁infancia	-11.2268
▁filipinas	-11.2269
▁encantaba	-11.2269
▁tecnolo	-11.2269
nto	-11.227
▁cito	-11.2271
▁residir	-11.2271
▁conclusiones	-11.2273
▁arrepentido	-11.2273
▁tificado	-11.2275
▁bendijo	-11.2276
▁precios	-11.2277
▁cautivo	-11.2281
▁obedecerl	-11.2283
▁solos	-11.2286
▁tacto	-11.2286
▁rel	-11.2286
▁corto	-11.229
tern	-11.2297
▁confiaba	-11.2298
▁contemplar	-11.2299
▁mico	-11.2301
▁salida	-11.2311
▁juegos	-11.2314
▁dignos	-11.2319
▁sinti	-11.2332
▁resucitados	-11.2336
▁consultar	-11.2341
▁espacio	-11.2342
▁muriera	-11.2348
▁cat	-11.2351
▁manso	-11.2355
im	-11.2355
▁confirma	-11.2372
▁aca	-11.2377
▁respet	-11.2405
▁abund	-11.2405
▁pienso	-11.2406
▁escuelas	-11.2419
▁concede	-11.2421
▁tranquil	-11.2426
▁viajes	-11.2428
▁lido	-11.2443
▁iglesias	-11.2459
▁acostumbr	-11.2462
▁violento	-11.2469
▁evangelizad	-11.2486
▁gir	-11.2488
▁sicos	-11.2488
vuelto	-11.2495
▁ocupa	-11.2496
▁obliga	-11.2499
▁sali	-11.2504
▁mbolo	-11.2506
▁milenio	-11.2507
▁obrero	-11.2507
▁exterior	-11.2508
▁dedique	-11.2509
▁ardiente	-11.251
▁fallecio	-11.2511
▁cercano	-11.2512
▁renunciar	-11.2513
▁caballo	-11.2515
▁fracaso	-11.2523
▁verbo	-11.2527
▁frutos	-11.2529
▁leo	-11.2529
▁plantas	-11.253
▁impide	-11.2531
▁inmenso	-11.2531
▁ncip	-11.2533
▁doble	-11.2537
▁saldr	-11.2538
▁obtendr	-11.2539
▁habilid	-11.2539
▁desastres	-11.254
▁du	-11.2543
▁impulsado	-11.2543
▁cuestion	-11.2547
▁rasgo	-11.2552
▁generosos	-11.2556
▁concentra	-11.2558
▁convenc	-11.2559
▁resulte	-11.2563
mando	-11.2565
▁desan	-11.2569
▁protegi	-11.2582
▁fomenta	-11.2591
▁enfrente	-11.2592
▁escap	-11.2595
▁atento	-11.2599
▁merec	-11.2603
▁enojo	-11.262
▁poderosos	-11.2627
▁siguiera	-11.2633
▁ede	-11.2635
▁pres	-11.2642
▁humill	-11.2646
▁uelo	-11.2646
▁sabi	-11.2653
ing	-11.2656
▁enoj	-11.2658
▁levant	-11.2666
▁bado	-11.2668
ismo	-11.2671
▁desanim	-11.2672
▁exig	-11.2683
▁edificant	-11.2687
▁milagrosa	-11.2689
int	-11.2691
▁manifiesta	-11.2692
▁salier	-11.2701
▁nego	-11.2704
▁regla	-11.2719
▁organizar	-11.272
▁hare	-11.2722
▁dina	-11.2724
▁expone	-11.2731
▁apacib	-11.2731
▁adulto	-11.2733
▁fil	-11.2736
▁produj	-11.2736
▁ajes	-11.2737
▁popular	-11.2738
▁intencion	-11.2739
▁militar	-11.2745
ciones	-11.2749
▁jinet	-11.275
▁santuario	-11.275
▁afirmacio	-11.2753
▁venganza	-11.2753
▁raqu	-11.2755
▁gentiles	-11.2757
▁refugiados	-11.276
▁investigar	-11.276
▁superficie	-11.2761
▁surgir	-11.2763
▁prioridades	-11.2764
▁reinara	-11.2767
▁acontecimientos	-11.277
▁demuestre	-11.2781
▁curios	-11.2782
parecen	-11.2783
▁tierno	-11.2784
▁liberados	-11.2787
▁provocado	-11.2791
▁compasivos	-11.281
▁hombro	-11.281
▁apoyan	-11.281
▁esforzar	-11.2811
▁reflejar	-11.2814
▁rechaza	-11.2819
▁mesa	-11.2823
▁mostrarl	-11.2828
▁resultara	-11.2839
esenta	-11.2849
aremo	-11.2869
▁ayu	-11.287
▁tomen	-11.2872
▁sieg	-11.2883
▁destacar	-11.2887
▁ntimo	-11.289
▁abajo	-11.2903
alio	-11.2907
▁visitas	-11.2916
▁delanter	-11.2927
▁charle	-11.2929
▁cu	-11.2932
▁demasiad	-11.2943
▁encargar	-11.2948
▁escritura	-11.2957
▁conflicto	-11.296
▁llov	-11.2961
▁experto	-11.2964
▁inclinac	-11.2989
▁debier	-11.2991
▁conviccio	-11.2999
▁baruc	-11.3
▁quince	-11.3
▁diligente	-11.3
▁discernimiento	-11.3001
▁absoluto	-11.3002
▁ofrecieron	-11.3003
▁quinient	-11.3004
po	-11.3006
▁pedido	-11.3006
▁reunirse	-11.3008
▁actuando	-11.301
▁recordatorios	-11.301
▁vestido	-11.3014
▁aplicable	-11.302
▁enfrentan	-11.302
▁ministeriales	-11.3021
▁pago	-11.3021
▁funciona	-11.3023
▁criado	-11.3027
▁carro	-11.3027
▁menores	-11.3029
▁bolas	-11.3033
▁deleit	-11.3033
▁glorioso	-11.3039
▁arrepentir	-11.305
lamente	-11.3053
▁percibir	-11.3055
▁transmitir	-11.3055
▁vol	-11.3059
▁inspiradas	-11.3068
▁muro	-11.307
▁tardo	-11.3071
▁comprobar	-11.3075
▁comport	-11.3076
▁indicar	-11.3081
ed	-11.3084
▁grito	-11.3086
▁mapa	-11.3088
cidio	-11.309
▁asa	-11.309
il	-11.3091
▁olvide	-11.3096
▁ale	-11.3099
▁aprendan	-11.3103
▁tumb	-11.3111
obedeciendo	-11.3115
▁amen	-11.3125
▁labio	-11.3126
▁stic	-11.3127
▁espero	-11.3135
▁formo	-11.3141
▁confirm	-11.3141
▁ente	-11.3148
▁hospital	-11.3154
▁dic	-11.3162
▁deuda	-11.3168
▁lavar	-11.317
▁termina	-11.3172
▁interesar	-11.3172
▁explican	-11.3174
▁liter	-11.3178
▁causado	-11.3185
▁tor	-11.3209
▁suceda	-11.3218
▁arme	-11.3218
▁pun	-11.3218
▁privilegios	-11.3223
▁distante	-11.3228
▁arrepinti	-11.3229
▁pagan	-11.3231
▁factor	-11.325
▁regocija	-11.3251
▁volumen	-11.3256
▁padrenuestro	-11.3257
▁firmeza	-11.3257
cursos	-11.3258
▁localidad	-11.326
▁regularmente	-11.3262
▁levantado	-11.3263
▁evaluar	-11.3264
▁consigo	-11.3267
▁herramientas	-11.327
▁titulado	-11.3272
▁mitad	-11.3273
▁electro	-11.3273
▁pus	-11.3277
▁huesos	-11.3283
▁relacionadas	-11.3288
▁aplica	-11.3294
▁encarga	-11.3299
▁entrevista	-11.3301
formacio	-11.3304
▁escritas	-11.3307
▁amig	-11.3316
▁posibles	-11.3324
▁asia	-11.3332
salo	-11.3337
▁rebeld	-11.3341
▁rab	-11.3349
▁debilidad	-11.3351
▁antoni	-11.3369
▁viendo	-11.3377
▁cesar	-11.3378
▁prepar	-11.3382
▁am	-11.3384
▁procedente	-11.3385
▁llame	-11.3393
▁confiado	-11.3401
▁paga	-11.3422
▁cruz	-11.3424
▁contarl	-11.3425
▁dispuesta	-11.3443
▁bar	-11.3445
▁liberal	-11.345
jord	-11.3455
▁mand	-11.3457
▁hi	-11.3476
▁expres	-11.3481
▁conocida	-11.3487
▁edificio	-11.3491
conocemo	-11.3503
▁dis	-11.3504
▁independiente	-11.3505
▁quitar	-11.3507
▁quita	-11.3508
niendo	-11.3509
▁anhelo	-11.3517
▁crezc	-11.3519
▁caleb	-11.352
▁numerosas	-11.3521
▁tradiciones	-11.3521
▁concluir	-11.3521
▁chacr	-11.3522
▁abiertamente	-11.3522
logramo	-11.3523
▁mentiroso	-11.3523
▁macedonia	-11.3523
▁respetan	-11.3524
▁madera	-11.3525
▁funcionario	-11.3526
▁rinco	-11.3526
▁temporales	-11.3527
▁pescado	-11.3527
▁amarlo	-11.3534
▁mirad	-11.3538
▁capacita	-11.3539
▁corriendo	-11.3544
▁juntas	-11.3547
▁espald	-11.3551
▁gato	-11.3551
▁perseguidos	-11.3553
▁ocurra	-11.3555
▁invitados	-11.3556
▁entran	-11.3566
▁acusado	-11.3566
▁seria	-11.3574
▁recibim	-11.358
▁levanto	-11.3584
▁potencia	-11.3584
▁quieran	-11.3596
▁autob	-11.3603
▁hallan	-11.361
▁robo	-11.3613
▁asignado	-11.3633
▁fortalecen	-11.3634
▁basado	-11.3634
▁abrazar	-11.3637
▁mundiales	-11.3644
▁ejecutar	-11.3655
▁baal	-11.3656
▁obvia	-11.3662
▁reflejan	-11.3662
▁squed	-11.3663
idieron	-11.3676
▁cortar	-11.3681
▁contrist	-11.3691
▁dud	-11.3694
▁vig	-11.3694
▁marcha	-11.3701
▁joy	-11.3711
▁invitar	-11.3718
▁encantado	-11.3719
▁influy	-11.3719
▁extendi	-11.3722
▁abri	-11.3723
▁intervencio	-11.3732
▁mulo	-11.3746
▁matarlo	-11.375
▁prohibida	-11.3751
▁examin	-11.3751
jamo	-11.3762
▁verlos	-11.3763
▁observe	-11.3765
▁nat	-11.3773
▁inculcar	-11.3773
▁especialist	-11.3776
▁temer	-11.3778
▁auxiliar	-11.3778
▁fijo	-11.3781
▁positivo	-11.3787
▁central	-11.3788
▁rfano	-11.3789
▁cautiverio	-11.379
▁irlanda	-11.3791
▁permiso	-11.3792
▁sonris	-11.3794
▁examina	-11.3794
▁pureza	-11.3795
▁rculo	-11.3795
▁socorro	-11.3797
▁encyclop	-11.3798
▁citas	-11.38
▁depend	-11.3805
▁techo	-11.3807
▁expectativas	-11.3809
▁lar	-11.3813
▁incluidos	-11.3813
▁ptimo	-11.382
▁terminado	-11.3821
▁deudas	-11.3837
▁representar	-11.384
▁objetos	-11.3842
▁ob	-11.3842
▁expulsados	-11.3845
▁contribuyen	-11.3847
▁acabo	-11.385
▁raro	-11.3854
▁unidas	-11.3857
ita	-11.3863
▁lento	-11.3865
▁delegar	-11.3872
▁valio	-11.3882
▁pusiera	-11.3887
▁prefier	-11.3887
▁mencionan	-11.3891
▁trae	-11.3892
▁vender	-11.3895
▁alegro	-11.3899
tal	-11.39
▁componen	-11.3906
▁lealmente	-11.3909
▁arroja	-11.3915
▁nombrados	-11.3916
▁votos	-11.3942
▁venta	-11.3952
▁go	-11.3955
tempor	-11.3984
▁suponga	-11.3992
rio	-11.4004
▁exam	-11.4008
▁mans	-11.4018
▁conveniente	-11.402
▁libr	-11.4022
▁animado	-11.4024
▁saco	-11.4025
▁accidente	-11.4027
▁ejecutado	-11.403
▁riesgo	-11.4031
▁compart	-11.4043
▁vencido	-11.4065
▁nabot	-11.4067
▁empiece	-11.4068
▁calamid	-11.4068
▁solicitud	-11.4068
torno	-11.4068
▁sentimiento	-11.407
▁asignaciones	-11.4071
▁dirigido	-11.4071
▁perseguir	-11.4071
▁perdieron	-11.4072
▁agradecida	-11.4073
▁regres	-11.4076
▁negro	-11.4078
▁alentador	-11.408
▁describir	-11.4084
▁radio	-11.4085
▁prejuicios	-11.4091
▁partido	-11.4092
▁escuchado	-11.4094
▁jugar	-11.4094
▁ohio	-11.4097
▁modernos	-11.4106
▁celoso	-11.4108
▁muev	-11.4108
▁investigador	-11.4112
▁brill	-11.4123
sta	-11.4125
▁cruzar	-11.4128
▁responsables	-11.4134
▁reto	-11.4137
▁animador	-11.4151
▁libero	-11.4153
▁contaban	-11.4159
▁sobrevivi	-11.4168
▁obligar	-11.417
▁pec	-11.417
it	-11.4189
▁separacio	-11.4194
▁decida	-11.4198
▁inform	-11.4212
et	-11.423
▁dam	-11.4234
ces	-11.4236
▁cuidados	-11.4244
▁corre	-11.4285
▁destruid	-11.4292
ev	-11.4297
▁lidi	-11.4298
▁ilumin	-11.4309
▁experimentado	-11.4313
▁distribuye	-11.4314
▁desastre	-11.4314
▁satisfecho	-11.4315
▁estre	-11.4315
▁viajante	-11.4316
▁empresa	-11.4316
▁afecta	-11.4316
▁nub	-11.4325
▁queja	-11.4332
▁rito	-11.4336
▁acu	-11.4336
▁ncer	-11.4338
▁bo	-11.434
▁samari	-11.4352
▁trompet	-11.4353
▁facilidad	-11.4353
▁materialismo	-11.4354
▁comportamiento	-11.4354
▁acusacio	-11.4354
▁cuidadosamente	-11.4355
▁avance	-11.4355
▁funer	-11.4356
▁herir	-11.436
▁marca	-11.4368
▁prisioneros	-11.437
▁construy	-11.437
▁ens	-11.4378
▁aliento	-11.4383
▁posibilidades	-11.4384
▁segur	-11.4385
▁crean	-11.439
▁oren	-11.439
▁representantes	-11.4393
▁estudie	-11.44
▁aliviar	-11.4403
▁mit	-11.4405
▁entrega	-11.4409
▁bendecido	-11.4412
odom	-11.4419
▁cuento	-11.4423
▁complace	-11.4425
▁islas	-11.4426
▁distingu	-11.4427
▁sonido	-11.4431
▁influyen	-11.4433
▁largas	-11.4439
ente	-11.4441
▁percib	-11.4444
▁logran	-11.4445
▁sistemas	-11.4446
▁ofender	-11.4452
▁terribles	-11.4453
▁eficia	-11.4454
▁arle	-11.4456
▁estudia	-11.4456
der	-11.4461
▁viudas	-11.4474
▁conlleva	-11.4476
usado	-11.448
?	-11.4484
▁cobre	-11.4484
▁evita	-11.4487
▁vinier	-11.4491
▁aconsej	-11.4491
▁norma	-11.4501
▁vano	-11.4523
▁hormig	-11.4531
▁afecto	-11.4544
▁sofo	-11.4546
▁apreci	-11.4547
▁ind	-11.4559
▁osa	-11.456
me	-11.4568
▁decidier	-11.4573
▁debida	-11.4576
pan	-11.4576
▁hacerles	-11.458
▁malvad	-11.4585
▁alar	-11.4586
▁abuel	-11.4591
▁correspond	-11.4591
▁preocupe	-11.4609
▁moderno	-11.4609
▁extremo	-11.4614
ramo	-11.4626
▁opcio	-11.4628
▁rep	-11.4636
▁literal	-11.4638
▁sobr	-11.4645
▁benjam	-11.4647
▁alfarero	-11.4647
▁homosexual	-11.4647
▁convirtier	-11.4647
▁movimiento	-11.4647
▁constancia	-11.4652
▁vicio	-11.4654
▁traducciones	-11.4655
▁dormido	-11.4655
▁cae	-11.4655
▁rechazado	-11.4656
▁cooperar	-11.4659
▁indique	-11.4661
▁gravemente	-11.4663
▁alabarlo	-11.4663
▁romper	-11.4665
▁ejemplares	-11.4666
▁escribas	-11.468
▁mueren	-11.4691
▁completar	-11.4697
▁fijado	-11.4699
▁romp	-11.4713
▁viaj	-11.4728
▁il	-11.4728
▁conceder	-11.4739
▁anhel	-11.4742
▁jaro	-11.4751
▁considero	-11.4765
▁tardar	-11.4766
▁fu	-11.4768
▁consulta	-11.4778
staba	-11.4786
▁sed	-11.4793
▁significab	-11.481
▁moslo	-11.4822
arlo	-11.4839
▁influencias	-11.484
▁patro	-11.4846
rlo	-11.4853
▁practica	-11.487
▁aseguran	-11.4877
▁ideal	-11.4879
▁revelado	-11.488
ometerse	-11.4902
▁columna	-11.491
▁abierto	-11.4912
▁permanece	-11.4919
▁representante	-11.4926
▁preocupado	-11.4934
▁fiscal	-11.4937
▁inspir	-11.4938
▁eficaz	-11.4947
▁abuso	-11.4949
▁tradicio	-11.4949
▁duerm	-11.495
▁incondicional	-11.495
▁incomparable	-11.495
▁burro	-11.4951
▁pesada	-11.4952
▁quistar	-11.4952
▁temporalmente	-11.4952
▁flech	-11.4953
▁archivos	-11.4953
▁enterarse	-11.4954
▁rumbo	-11.4954
▁fumar	-11.4955
▁ear	-11.4955
▁necesariamente	-11.4957
▁comprensivo	-11.4957
▁comunicar	-11.4958
▁preocuparse	-11.4959
▁celebracio	-11.496
▁burlas	-11.496
▁llorando	-11.4961
▁capacitar	-11.4963
▁enojado	-11.4963
▁reducir	-11.4964
▁sentar	-11.4965
▁ces	-11.4966
▁babilonio	-11.4967
▁semillas	-11.4967
▁licas	-11.4969
▁contenido	-11.497
▁cerebro	-11.4972
▁cerro	-11.4973
▁beneficiado	-11.4976
▁tierna	-11.4978
▁bonito	-11.4981
▁obligados	-11.4985
▁recurrir	-11.4986
▁alegrar	-11.4992
▁regocijo	-11.4994
▁aprecia	-11.4999
▁informa	-11.5002
almente	-11.5004
alen	-11.5006
▁presto	-11.501
▁avis	-11.5015
▁buscab	-11.5022
▁cumplier	-11.5023
▁ocupados	-11.5024
▁perdonara	-11.5025
▁cortes	-11.5026
▁letra	-11.5027
▁excusa	-11.5027
▁regulares	-11.5029
▁causas	-11.503
▁salga	-11.5032
▁tensio	-11.5033
▁erle	-11.5041
▁reales	-11.5045
▁aguant	-11.5045
▁escucha	-11.5047
▁intente	-11.5057
▁europeo	-11.506
▁motivacio	-11.5063
tra	-11.5063
▁senda	-11.5067
▁agrado	-11.507
▁respir	-11.5083
▁disciplin	-11.509
▁disfruto	-11.509
▁hero	-11.5093
▁azar	-11.5096
▁predicador	-11.5096
rdene	-11.511
das	-11.5118
▁trabaj	-11.5123
▁director	-11.5126
▁aprueba	-11.5145
▁ayer	-11.5148
▁reuni	-11.5159
▁relacionar	-11.5159
▁torr	-11.5161
▁incluida	-11.5175
▁proced	-11.5187
▁imp	-11.5195
▁domin	-11.5204
▁lujo	-11.5204
con	-11.5204
▁aclar	-11.5209
▁tern	-11.5214
▁aposta	-11.5215
▁gallin	-11.5216
▁presta	-11.5223
▁equilibrado	-11.5224
ca	-11.5226
▁materia	-11.5227
▁pendiente	-11.5229
▁aumento	-11.523
▁sever	-11.5234
▁negocio	-11.5235
▁invitado	-11.524
▁reciba	-11.5244
eligio	-11.5246
▁escrita	-11.5248
▁deporte	-11.5251
▁pilato	-11.5262
▁atardec	-11.5262
▁opciones	-11.5264
▁ferv	-11.5265
▁seriedad	-11.5265
▁corriente	-11.5265
▁considere	-11.5265
▁ejercicio	-11.5266
▁afligido	-11.5266
▁cerrar	-11.5268
▁cancio	-11.5271
▁supremo	-11.5276
▁chico	-11.5277
▁heridas	-11.5278
surgen	-11.528
▁argumentos	-11.528
▁peces	-11.5281
▁utilizando	-11.5286
▁arrepienten	-11.5291
▁hoja	-11.5299
▁nath	-11.53
▁peores	-11.5301
▁traicio	-11.5309
▁desee	-11.5317
▁positivos	-11.5319
▁arruin	-11.532
plica	-11.5322
▁conozcan	-11.5326
▁formada	-11.5328
▁distraccio	-11.533
▁acercado	-11.5345
▁encuentro	-11.535
▁sis	-11.5375
▁conocidos	-11.5387
▁content	-11.539
▁defiend	-11.5391
li	-11.5393
▁utilizado	-11.5398
▁acuerda	-11.5403
▁correr	-11.5405
▁atraer	-11.5407
▁llav	-11.5412
▁piern	-11.5416
rdo	-11.543
▁adoptado	-11.5432
▁jon	-11.5432
▁servicios	-11.5437
tienen	-11.5458
▁inicial	-11.546
▁afronta	-11.5462
▁fines	-11.5473
▁comenzara	-11.5475
brio	-11.5479
▁violar	-11.5484
▁evit	-11.5499
▁heredero	-11.5511
▁veinti	-11.5519
▁llaman	-11.5521
▁terminara	-11.5527
▁arl	-11.5531
▁plazo	-11.5541
▁abandonado	-11.5544
▁terremoto	-11.5545
▁destruy	-11.5545
▁exacta	-11.5546
▁parcial	-11.5547
▁relacionada	-11.5552
▁separado	-11.5553
▁ced	-11.5558
▁oir	-11.5579
at	-11.5581
▁habacuc	-11.5585
▁plenitud	-11.5585
▁esplendor	-11.5585
▁agradezc	-11.5585
▁cuello	-11.5585
▁tranquilidad	-11.5586
▁soledad	-11.5586
▁rahab	-11.5586
▁semejanz	-11.5586
▁promedio	-11.5586
▁consumir	-11.5587
▁cometieron	-11.5588
▁lulas	-11.5588
▁crecido	-11.5589
▁adaptarse	-11.5589
▁explicaciones	-11.5591
▁debilitar	-11.5592
▁consigue	-11.5592
▁pozo	-11.5593
▁espejo	-11.5594
▁tropiezo	-11.5595
▁ciudadanos	-11.5598
▁siria	-11.5599
▁obtenido	-11.5599
▁impuestos	-11.5601
▁pagado	-11.5601
▁descubrier	-11.5604
▁derrumb	-11.5605
▁critas	-11.5605
▁derramar	-11.5605
▁gog	-11.5605
▁aclara	-11.5606
▁flores	-11.5609
▁similares	-11.5609
▁honrado	-11.561
▁entidad	-11.561
▁casar	-11.5611
ministros	-11.5612
▁manuscritos	-11.5612
▁depender	-11.5615
▁gozar	-11.5617
▁organizados	-11.5623
▁tranquilo	-11.5623
▁suplico	-11.563
▁cul	-11.5631
▁sesiones	-11.5633
ent	-11.5638
▁abandono	-11.5638
▁mentales	-11.5638
▁preocupan	-11.5641
▁mostrado	-11.5646
▁convierta	-11.5648
▁fo	-11.5651
▁divorciar	-11.5652
▁echar	-11.5657
▁emplean	-11.566
▁vir	-11.5665
▁tiendas	-11.5669
▁citar	-11.5671
▁toco	-11.5672
▁antio	-11.5674
▁estima	-11.5682
▁filo	-11.5683
▁disponibles	-11.5692
▁sendas	-11.5706
▁adecuada	-11.5716
tenemos	-11.573
▁experimentar	-11.574
taban	-11.5756
▁tratados	-11.5762
▁acusar	-11.5765
bert	-11.5766
▁potencial	-11.577
▁ofrecerle	-11.5795
▁sacrificar	-11.5795
▁ladron	-11.5803
▁viniera	-11.5811
▁acordar	-11.5812
▁provoca	-11.5816
▁cer	-11.5816
▁creados	-11.5818
▁escogi	-11.5821
▁ntic	-11.5842
▁transmite	-11.5846
▁obedezca	-11.5872
▁muestre	-11.5872
▁sintiera	-11.5873
▁abierta	-11.5874
▁concepto	-11.5881
▁perseguido	-11.589
▁decreto	-11.5891
▁futura	-11.5893
▁liberado	-11.5893
▁anual	-11.5898
▁perseveran	-11.5913
▁limita	-11.5913
▁fero	-11.5913
▁conden	-11.5914
▁iniciar	-11.5916
▁publicad	-11.5916
▁anuario	-11.5918
▁enciclop	-11.5918
▁hierro	-11.5918
▁prosperidad	-11.5918
▁langost	-11.5918
▁guerrero	-11.5919
▁hospitalidad	-11.5919
▁profundidad	-11.5919
▁filipos	-11.5919
▁sorprendente	-11.592
▁discutir	-11.5921
▁intensamente	-11.5921
▁captar	-11.5925
▁frecuentes	-11.5925
▁difundir	-11.5931
▁guiarnos	-11.5932
▁obedecier	-11.5934
▁int	-11.5935
▁locales	-11.5937
▁verano	-11.5938
▁procuran	-11.5938
▁confiesa	-11.5939
▁adversarios	-11.5942
▁vivieran	-11.5942
▁propus	-11.5944
▁obedeci	-11.5949
▁micas	-11.595
▁jenn	-11.5955
▁cobrar	-11.5969
▁adond	-11.5969
▁macho	-11.597
▁demuestren	-11.5972
▁reducido	-11.5973
▁criticar	-11.5989
▁ope	-11.5992
▁valer	-11.5992
▁puerto	-11.5994
▁pertenecer	-11.5995
ter	-11.5997
▁saberlo	-11.5998
▁cin	-11.6001
▁emprendi	-11.6006
▁reunido	-11.6019
▁rechaz	-11.602
▁provocar	-11.6023
▁viera	-11.6026
▁padec	-11.6028
▁toro	-11.603
nt	-11.6033
usa	-11.6044
▁evidenci	-11.6053
▁confes	-11.6056
olog	-11.6057
▁comunica	-11.6064
▁mago	-11.6078
▁relativa	-11.6079
▁marchar	-11.6093
▁empezara	-11.6096
▁ahorr	-11.6111
je	-11.6112
▁descen	-11.6128
solucio	-11.6131
▁enojar	-11.6132
▁copa	-11.6136
bl	-11.6139
▁logros	-11.6149
▁admiti	-11.6156
▁agotado	-11.6156
bilidade	-11.6158
mbas	-11.616
▁recuper	-11.6173
▁brot	-11.6186
▁rden	-11.62
▁mortal	-11.6203
▁mover	-11.6205
▁doloros	-11.6209
▁tren	-11.6226
trajo	-11.6226
▁intenso	-11.6227
▁inmensa	-11.6231
▁mercado	-11.6232
▁can	-11.6235
▁apartado	-11.6236
▁protegido	-11.624
▁vecino	-11.6243
rus	-11.6246
▁computador	-11.6258
▁strof	-11.6259
illiam	-11.626
▁imparcial	-11.6263
▁ecuador	-11.6263
▁jerobo	-11.6263
▁bellez	-11.6263
▁forastero	-11.6263
▁autoestima	-11.6263
▁variedad	-11.6263
▁indispensable	-11.6263
▁cuerno	-11.6263
▁decenas	-11.6264
▁desanimados	-11.6264
▁situada	-11.6265
▁regiones	-11.6266
▁respetaba	-11.6266
▁perdiendo	-11.6268
▁abismo	-11.627
▁concedido	-11.6274
▁dicie	-11.6276
▁necesitados	-11.6276
▁cumpliera	-11.6277
▁analizado	-11.6278
▁expresarse	-11.6278
▁anteriormente	-11.628
▁estudiado	-11.628
▁asociacio	-11.6281
▁comprobado	-11.6282
ceptiva	-11.6282
▁emprender	-11.6283
▁caig	-11.6288
▁documentos	-11.6292
▁mat	-11.6293
▁harin	-11.6297
▁nube	-11.6299
▁cargado	-11.6301
▁miro	-11.6302
▁tentados	-11.6304
▁quechu	-11.631
▁entusiast	-11.6311
▁puestos	-11.6312
▁escucharlo	-11.6315
arnos	-11.632
▁obtiene	-11.6326
▁preguntado	-11.633
▁amiga	-11.6331
▁ger	-11.6333
▁arrojar	-11.6333
▁fomentar	-11.6336
▁destacan	-11.634
▁ayudarlas	-11.6342
dieron	-11.6343
▁culpables	-11.6346
▁esperado	-11.6348
▁esfue	-11.6349
▁reciban	-11.6353
▁bondados	-11.6354
▁entienden	-11.6355
▁prudentes	-11.6359
▁precis	-11.6365
▁correccio	-11.6365
▁sello	-11.6369
▁pretend	-11.6371
▁noble	-11.6378
▁roman	-11.6382
▁agreg	-11.6389
▁envia	-11.639
▁particip	-11.639
▁determin	-11.6402
▁recoger	-11.6406
▁directo	-11.6408
usab	-11.6411
capacitados	-11.6415
ith	-11.6425
▁admitir	-11.6426
▁renc	-11.6427
ntamo	-11.6432
aron	-11.646
▁lito	-11.647
▁elevada	-11.6474
▁debo	-11.6479
pareja	-11.6481
▁repas	-11.6485
▁somet	-11.6497
▁tembl	-11.6508
▁enfrenta	-11.651
▁organizado	-11.6523
▁mari	-11.6529
ales	-11.6533
▁didos	-11.6542
▁reconcili	-11.6547
▁bret	-11.6549
▁sub	-11.6549
▁declarado	-11.656
▁quemar	-11.6569
▁rev	-11.6575
▁atenta	-11.6576
▁injusta	-11.6583
▁tach	-11.6586
▁alem	-11.6594
▁equival	-11.6598
▁recordab	-11.6605
▁ju	-11.6606
▁mediador	-11.6608
▁interes	-11.661
▁trabajador	-11.661
▁arrepiente	-11.6613
▁excepcio	-11.6617
▁acaban	-11.6617
▁predique	-11.6618
▁basur	-11.6619
▁londres	-11.662
▁patterson	-11.662
▁desafuero	-11.662
▁espectacul	-11.662
▁rutherford	-11.662
▁grati	-11.6621
▁desconocido	-11.6621
▁incontabl	-11.6621
▁ocultismo	-11.6622
▁compuesta	-11.6623
▁utilice	-11.6623
▁venid	-11.6624
▁predicciones	-11.6624
▁correctamente	-11.6627
▁amara	-11.6628
ier	-11.6628
▁banquet	-11.6629
▁individuos	-11.663
▁ocultar	-11.6635
▁casarnos	-11.6639
▁agarr	-11.6647
▁ciegos	-11.6648
▁mosc	-11.6651
▁gobernador	-11.6652
▁ramas	-11.6653
▁encuesta	-11.6655
▁aclarar	-11.6659
▁querid	-11.6663
▁conten	-11.6664
▁versiones	-11.6667
▁abiertos	-11.6667
▁tuyo	-11.6669
▁traducid	-11.6671
▁concentro	-11.6673
▁observan	-11.6676
▁marco	-11.6676
▁mostra	-11.6677
▁cabezas	-11.6679
▁india	-11.668
▁violentos	-11.6681
▁us	-11.6683
▁eti	-11.6695
▁convenci	-11.6699
▁viajo	-11.6704
▁muda	-11.6718
mi	-11.6718
sio	-11.672
▁leg	-11.6724
▁plane	-11.6726
▁fortaleci	-11.6734
ran	-11.6738
▁estrechar	-11.6742
▁lamenta	-11.6754
▁eterna	-11.6759
▁empe	-11.6771
▁afortunad	-11.6786
▁orill	-11.679
▁describi	-11.679
▁presentacio	-11.6806
▁trat	-11.6812
▁aron	-11.6815
▁ren	-11.6817
▁tiern	-11.6826
▁tabl	-11.6833
▁oid	-11.6839
▁consider	-11.684
▁masa	-11.684
▁graci	-11.6857
▁animad	-11.6869
▁aban	-11.6871
▁acerque	-11.6872
na	-11.6873
▁propone	-11.6876
fic	-11.6877
▁renunci	-11.6881
▁recon	-11.6882
▁olvido	-11.6896
▁dito	-11.6902
if	-11.6904
▁matrimoni	-11.691
▁important	-11.6922
▁reparar	-11.6924
▁juzg	-11.6924
▁quisier	-11.6937
▁cargar	-11.6945
▁compra	-11.695
idade	-11.6951
▁pastore	-11.6954
eran	-11.6956
▁obligado	-11.6963
▁explicara	-11.6964
▁amad	-11.6967
▁disfrute	-11.6984
▁permanec	-11.6984
▁accesible	-11.699
▁incorrecto	-11.6991
▁independencia	-11.6991
▁contribuciones	-11.6991
▁rectificar	-11.6991
▁traicionero	-11.6991
▁gravedad	-11.6992
▁espiritismo	-11.6992
▁provechosa	-11.6992
▁informar	-11.6993
puso	-11.6994
▁apartamento	-11.6994
▁fallado	-11.6994
▁borracho	-11.6996
▁colocar	-11.6998
▁agricultor	-11.7
▁repetir	-11.7
▁actualmente	-11.7003
▁infieles	-11.7003
▁desacuerdos	-11.7005
▁herido	-11.7007
▁conseguido	-11.701
▁preparando	-11.7011
▁asignar	-11.7011
▁llamas	-11.7014
▁legales	-11.7016
▁reconfortant	-11.7016
▁amanec	-11.7018
▁imprevisto	-11.7029
▁profesores	-11.7035
est	-11.7035
▁promueven	-11.7038
▁fam	-11.7039
▁sabido	-11.704
staz	-11.7041
▁estudian	-11.7041
▁extraer	-11.7043
▁resen	-11.7047
▁distra	-11.7049
▁doloroso	-11.7051
▁escog	-11.7067
▁maestra	-11.7074
▁tendencias	-11.7075
▁bras	-11.7082
▁ros	-11.7086
▁duelo	-11.709
▁consegu	-11.7094
▁corrigi	-11.7097
▁limit	-11.7103
▁glorios	-11.7104
▁libera	-11.7114
▁bat	-11.7127
▁interesantes	-11.7127
▁sabiend	-11.714
llo	-11.7141
ill	-11.7142
▁basto	-11.7146
▁toc	-11.7163
▁terren	-11.7175
▁activo	-11.7219
▁despreci	-11.7239
▁aumenta	-11.724
usamo	-11.7258
▁practican	-11.7258
▁recalc	-11.7273
▁trai	-11.728
▁ltima	-11.7284
▁derram	-11.7303
▁caus	-11.7313
▁cim	-11.7315
▁aguarda	-11.732
▁huy	-11.733
▁registro	-11.733
▁traer	-11.7331
▁hueso	-11.7339
▁reconciliar	-11.7341
▁fortalecido	-11.7341
▁sala	-11.7351
▁visible	-11.7354
▁rea	-11.7358
▁encuentre	-11.7359
▁junt	-11.7365
▁famoso	-11.7368
▁abandon	-11.7371
▁echo	-11.7371
▁march	-11.7372
▁richard	-11.7375
▁criminal	-11.7375
▁convincente	-11.7375
▁sacerdocio	-11.7375
▁divisiones	-11.7376
▁corromper	-11.7376
▁caliente	-11.7376
▁acusaciones	-11.7376
▁intervenir	-11.7376
▁fallecido	-11.7377
▁facetas	-11.7378
▁antemano	-11.7378
▁empeza	-11.7378
▁llamamiento	-11.7379
▁favorito	-11.738
▁situado	-11.738
▁sustento	-11.7385
▁respaldo	-11.7386
▁pecho	-11.7386
▁realice	-11.7387
▁asesino	-11.7387
▁surjan	-11.7387
▁preferencias	-11.7387
▁palacio	-11.7388
▁seman	-11.7389
▁intensa	-11.7394
▁desgracias	-11.7397
▁presidente	-11.7397
▁sime	-11.7398
▁impida	-11.7401
▁negativas	-11.7406
▁realistas	-11.7412
▁plaza	-11.7412
▁protegerse	-11.7416
▁corrupto	-11.742
▁gratuita	-11.7422
tado	-11.7424
▁separados	-11.7425
memo	-11.7426
▁actuales	-11.7428
▁edades	-11.743
▁ciclo	-11.743
▁riesgos	-11.7431
▁pendientes	-11.7431
▁encargara	-11.7447
▁avanzar	-11.7448
didade	-11.7448
▁aje	-11.7449
▁modal	-11.7453
▁tratamientos	-11.7462
▁peligrosa	-11.7466
▁recibiera	-11.7467
▁tamiento	-11.747
▁able	-11.747
▁temen	-11.747
▁james	-11.7471
▁metal	-11.7474
ce	-11.7475
▁ensanch	-11.7478
▁interesan	-11.7481
▁demostracio	-11.749
▁contado	-11.7493
▁ant	-11.7495
▁exclusiva	-11.7502
ast	-11.7504
▁prest	-11.7504
▁tro	-11.7509
▁observo	-11.7509
▁importa	-11.7515
▁introduc	-11.7535
yo	-11.7536
▁visitan	-11.754
▁rin	-11.754
▁toque	-11.7545
ico	-11.7547
▁incluyen	-11.755
▁sirv	-11.7557
▁nero	-11.7559
▁tard	-11.7559
▁gua	-11.7567
▁obsesion	-11.7576
▁hum	-11.7576
▁inmund	-11.758
▁estadio	-11.7584
▁thom	-11.7589
▁tir	-11.7591
▁vengar	-11.7595
▁amplia	-11.7601
▁complac	-11.7602
▁lloro	-11.7605
▁declar	-11.761
rno	-11.7621
▁cobr	-11.7645
▁narr	-11.765
▁stat	-11.7652
▁prohibi	-11.7658
▁niv	-11.7659
▁actua	-11.766
para	-11.7662
br	-11.7668
▁dedicarl	-11.767
▁iguales	-11.7671
▁ascendi	-11.7674
▁terminan	-11.7679
▁ables	-11.7686
▁tim	-11.7689
▁proclam	-11.7696
arl	-11.7698
edr	-11.7698
▁faltas	-11.7707
▁vaso	-11.7707
▁adiccio	-11.771
▁plantea	-11.7714
▁unier	-11.7714
▁equilibrada	-11.772
▁anot	-11.7721
▁ventaja	-11.7736
▁soldado	-11.7738
▁serlo	-11.7743
▁limitado	-11.7746
▁plag	-11.7751
▁part	-11.7751
▁aprovech	-11.7753
▁cosech	-11.7757
▁ate	-11.7759
▁pint	-11.7761
▁infiel	-11.7762
▁profesional	-11.7763
▁sordo	-11.7768
▁mantuviera	-11.777
▁preste	-11.7771
▁regoc	-11.7772
▁rueda	-11.7773
▁transgresio	-11.7774
▁grecia	-11.7774
▁cornelio	-11.7774
▁ferviente	-11.7775
▁afliccio	-11.7775
▁comience	-11.7775
▁discusiones	-11.7775
▁quebrantado	-11.7776
▁aptitudes	-11.7776
▁intervino	-11.7776
▁vecinas	-11.7777
▁remedio	-11.7777
▁excus	-11.7779
▁asistentes	-11.7781
▁reunirnos	-11.7781
▁desviar	-11.7782
▁predicado	-11.7783
vendr	-11.7783
▁desesperado	-11.7785
▁barc	-11.7786
▁ficada	-11.7787
▁venciendo	-11.7788
▁insulto	-11.7789
▁filisteo	-11.779
▁patio	-11.779
▁obrar	-11.7791
▁cambiando	-11.7792
▁cananeo	-11.7792
▁perciben	-11.7793
▁medicina	-11.7796
▁luc	-11.7798
▁contribuyo	-11.7798
▁encomendado	-11.7802
▁salido	-11.7803
▁reflejo	-11.7804
unic	-11.7805
▁juzgados	-11.7811
▁dirija	-11.7811
▁inocentes	-11.7812
▁condenados	-11.7813
abl	-11.7814
▁corrige	-11.7819
▁resuciten	-11.7819
▁garra	-11.7819
▁tempora	-11.7821
▁oculto	-11.7824
▁aparente	-11.7828
▁haberle	-11.7833
▁plano	-11.7835
▁columb	-11.7836
▁retos	-11.7836
▁precursoras	-11.7841
▁mori	-11.7841
▁esclav	-11.7853
▁confiables	-11.7855
▁explicarlo	-11.7855
▁abrazo	-11.7856
▁veo	-11.7857
▁men	-11.7881
versidade	-11.7881
▁carlos	-11.7882
▁delito	-11.7887
▁produccio	-11.7888
▁obten	-11.7893
▁retirar	-11.79
▁asiri	-11.7904
▁copia	-11.791
▁extraordinarias	-11.7921
▁afuer	-11.7921
▁supiera	-11.7924
▁verl	-11.7924
▁calcula	-11.7926
▁aprobado	-11.7926
oso	-11.7929
▁burlar	-11.7931
▁destacado	-11.7931
▁inscripcio	-11.7934
▁mue	-11.7939
▁consola	-11.794
▁sucesor	-11.7941
▁prestigio	-11.7954
▁fortalezca	-11.796
▁elija	-11.7992
▁bot	-11.8008
▁aproveche	-11.8019
▁adquiri	-11.8021
▁preso	-11.8022
▁adopt	-11.8027
▁vigil	-11.8027
▁burl	-11.8033
▁dejad	-11.8034
ego	-11.806
▁cabr	-11.8067
▁seol	-11.8072
▁contrato	-11.8075
▁comprendi	-11.8078
mite	-11.8078
▁adaptar	-11.8081
▁dudar	-11.8095
▁not	-11.8099
▁expl	-11.8118
▁herid	-11.812
▁pico	-11.8121
▁ab	-11.8122
▁celebran	-11.8127
▁hacerla	-11.8134
▁tas	-11.8138
▁embarazada	-11.8138
▁sana	-11.8139
ement	-11.8141
▁privado	-11.8144
▁descripcio	-11.8145
▁pros	-11.8146
▁asesinato	-11.815
▁vivienda	-11.815
▁disculpa	-11.8152
▁realista	-11.8152
▁ntel	-11.8154
▁capacitado	-11.8154
▁adecuado	-11.8157
▁quito	-11.8163
▁diversio	-11.8165
racio	-11.8168
▁estable	-11.8168
▁satisface	-11.8172
▁tono	-11.8173
zab	-11.818
▁definitiva	-11.8188
▁rgano	-11.8189
▁nacional	-11.8189
▁oriental	-11.819
▁reverenci	-11.8191
▁secretario	-11.8191
▁actuamos	-11.8191
▁moralidad	-11.8192
▁propaganda	-11.8193
▁acumular	-11.8194
▁hemo	-11.8194
▁carmen	-11.8195
▁mentalidad	-11.8198
▁explicarl	-11.8198
▁exento	-11.8199
▁perjudiciales	-11.8199
▁recobrar	-11.8201
▁ocupada	-11.8201
▁perjudicar	-11.8204
▁caja	-11.8205
▁olvidado	-11.8206
▁proceder	-11.8207
▁producido	-11.8209
▁ministr	-11.8209
▁coronado	-11.821
▁analizando	-11.8213
▁cuidando	-11.8214
▁citado	-11.8214
▁arco	-11.8217
▁quedarnos	-11.8218
▁bendiga	-11.8219
▁incluyo	-11.8219
▁deprimido	-11.8223
▁unir	-11.8226
▁ligera	-11.8232
▁predicad	-11.8232
▁nicodemo	-11.8234
▁ester	-11.8236
▁suegro	-11.8238
▁concuerda	-11.824
▁imarnos	-11.8241
▁tristes	-11.8242
▁habitual	-11.8242
▁generosa	-11.8245
▁sorprender	-11.8246
▁cifra	-11.8272
▁confundir	-11.8275
▁cumplan	-11.828
▁subraya	-11.8281
▁detuvo	-11.8282
▁nieg	-11.8283
▁desprecio	-11.8284
este	-11.8291
▁resplan	-11.8297
▁ventan	-11.83
▁brillant	-11.8303
▁escogidos	-11.8306
▁respete	-11.8308
▁her	-11.8309
ualid	-11.831
▁coman	-11.8315
▁met	-11.8324
▁lida	-11.8325
▁empuj	-11.8328
▁emp	-11.8333
▁plani	-11.8333
▁establecida	-11.834
▁entabla	-11.8344
▁utilizan	-11.8347
▁sembr	-11.835
▁rei	-11.8359
▁sanos	-11.837
▁nace	-11.8385
▁regocij	-11.8386
▁viert	-11.8399
▁oficio	-11.8399
ntat	-11.8405
▁corea	-11.8405
▁repit	-11.8405
▁once	-11.841
▁insist	-11.841
▁gica	-11.8424
venta	-11.8427
▁tomaba	-11.8433
▁tumba	-11.8435
▁cnic	-11.8438
▁esc	-11.8446
nada	-11.8449
▁teo	-11.8452
▁cali	-11.8465
▁juzga	-11.8468
▁patriarca	-11.8482
▁afectan	-11.8491
▁bord	-11.8498
▁recorda	-11.85
▁traicion	-11.8514
▁dens	-11.8515
▁causan	-11.8523
▁juntar	-11.8528
▁advertir	-11.8531
▁devor	-11.8544
claro	-11.8559
sistiendo	-11.856
▁despiert	-11.8567
▁lind	-11.8569
▁campamento	-11.857
▁criterio	-11.858
▁sec	-11.8582
▁aseg	-11.8582
▁inocente	-11.8583
▁directa	-11.8588
▁deberes	-11.859
▁cambie	-11.8591
▁reciente	-11.8592
▁levita	-11.8593
▁asesinado	-11.8594
▁relacionado	-11.8596
▁sagrad	-11.8607
▁inferior	-11.8611
▁serle	-11.8614
ez	-11.8617
hu	-11.8619
▁extender	-11.862
▁someter	-11.862
▁probado	-11.8621
▁furi	-11.8622
▁ejecucio	-11.8623
▁estrella	-11.8623
▁suministr	-11.8623
▁celular	-11.8623
▁videojuego	-11.8623
▁veinticinco	-11.8623
▁caudillo	-11.8623
▁proveedor	-11.8623
▁gabri	-11.8624
▁navidad	-11.8624
▁presenci	-11.8624
▁tronco	-11.8624
▁oferta	-11.8624
▁instrumento	-11.8624
▁huevo	-11.8624
▁mutuamente	-11.8624
▁concilio	-11.8625
▁impacto	-11.8625
▁ascender	-11.8626
▁capacit	-11.8627
▁amargur	-11.8627
▁generaciones	-11.8628
tar	-11.8629
▁negra	-11.8629
▁pleno	-11.8629
▁aumentando	-11.863
▁soluciones	-11.8631
▁recomendacio	-11.8631
▁publicar	-11.8632
▁doscientos	-11.8633
▁calcular	-11.8635
▁impactant	-11.8635
▁vigilar	-11.8635
▁ocult	-11.8636
▁viajab	-11.8637
▁separe	-11.8637
▁administrar	-11.8639
▁oriente	-11.864
▁dulce	-11.8641
▁persiguen	-11.8641
▁azote	-11.8641
▁descuidar	-11.8642
▁animarnos	-11.8646
▁elogio	-11.8646
▁ruin	-11.865
▁ampliar	-11.8653
▁destruya	-11.8656
▁atac	-11.8663
▁infundir	-11.8664
▁adelan	-11.8664
▁contemplo	-11.8664
▁evitan	-11.8666
▁internacionales	-11.8669
▁reg	-11.8669
▁redes	-11.8669
▁lanz	-11.8675
▁animarlos	-11.8676
▁tidos	-11.8677
▁asirios	-11.8682
▁heridos	-11.8683
▁satisfechos	-11.8686
▁pid	-11.8686
eh	-11.8687
▁proporcionar	-11.8695
▁asirio	-11.8703
igo	-11.8705
▁oyen	-11.8714
▁cionado	-11.8728
▁determinada	-11.8729
▁fruct	-11.8731
▁echado	-11.8735
▁iri	-11.8746
▁min	-11.8747
▁ungi	-11.8748
noche	-11.8748
▁use	-11.8751
▁perseverar	-11.8753
▁ayudarte	-11.8755
▁escogid	-11.8756
▁prol	-11.8759
▁aprovecho	-11.876
▁paj	-11.8767
▁erro	-11.8769
▁proceden	-11.877
manas	-11.8772
▁asaf	-11.8782
▁elimin	-11.8786
yor	-11.8793
▁junta	-11.8804
▁pidan	-11.8807
▁eric	-11.8808
▁conduct	-11.8811
▁investig	-11.8813
▁conserv	-11.8819
dificacio	-11.8822
▁indicado	-11.8832
▁atend	-11.8841
▁bail	-11.8842
justamente	-11.8849
▁ble	-11.8851
▁cuev	-11.8852
▁forme	-11.8854
▁escond	-11.8856
▁inco	-11.8861
▁abre	-11.8861
um	-11.8863
▁responda	-11.8877
▁infunde	-11.8892
▁halle	-11.8896
▁honrad	-11.8897
▁pers	-11.8901
▁otorga	-11.8903
▁detener	-11.8906
madur	-11.8907
▁falt	-11.891
▁odiar	-11.8911
▁emocio	-11.8912
ieran	-11.8924
▁alcanz	-11.8942
▁costar	-11.8943
▁imaginab	-11.8943
lat	-11.8947
and	-11.8957
▁tomada	-11.8965
▁molesta	-11.8986
▁super	-11.8989
▁abra	-11.8991
▁condenar	-11.8995
▁vigor	-11.8995
▁efectiva	-11.9005
▁gast	-11.9022
▁genera	-11.9022
arse	-11.9024
▁compuesto	-11.9034
▁tormenta	-11.9035
▁tarjeta	-11.9037
▁moderna	-11.9038
▁nazi	-11.904
ida	-11.9043
▁fred	-11.9044
▁lago	-11.9044
▁editad	-11.9045
▁oig	-11.9046
▁muchach	-11.9053
▁naciera	-11.9055
▁talento	-11.9058
▁empleado	-11.9061
▁nieto	-11.9066
▁proteja	-11.9067
sentars	-11.9072
▁crey	-11.9075
▁isab	-11.9075
▁occidental	-11.9078
▁ochenta	-11.9078
▁erudito	-11.9078
▁aproximadamente	-11.9078
▁discusio	-11.9078
▁tabaco	-11.9078
▁imparcialidad	-11.9078
▁bandera	-11.9079
▁veredicto	-11.9079
▁oyer	-11.9079
▁funcionamiento	-11.9079
▁cebad	-11.9079
▁recomendaciones	-11.9079
▁sensacio	-11.908
rom	-11.908
▁defend	-11.9082
▁carnales	-11.9082
▁bendiciendo	-11.9083
▁clero	-11.9084
▁atractiva	-11.9085
▁horno	-11.9085
▁especie	-11.9085
▁margar	-11.9088
▁difunto	-11.9088
▁lepr	-11.9089
▁proporcionado	-11.909
▁chich	-11.9091
▁caminando	-11.9093
▁recuperarse	-11.9096
▁continuamente	-11.9097
▁juntamente	-11.9097
▁quitado	-11.9101
▁anunciando	-11.9106
▁consumo	-11.9107
▁marcar	-11.9109
▁tribunales	-11.9111
▁acostumbrado	-11.9112
▁transporte	-11.9113
▁negativa	-11.9115
▁tarjetas	-11.9119
▁roto	-11.9119
▁consiguier	-11.9119
▁recientes	-11.9121
▁especies	-11.913
▁organizo	-11.9132
▁distraer	-11.9134
▁impidi	-11.9135
▁terremotos	-11.9136
abilid	-11.9137
▁supervis	-11.9141
▁peligrosas	-11.9143
▁clamar	-11.9143
▁for	-11.9144
son	-11.9149
▁hecha	-11.9149
▁cuidan	-11.9151
▁tificar	-11.9154
▁asiento	-11.9157
▁entendido	-11.9158
▁celosos	-11.917
▁abogado	-11.9174
▁enfermar	-11.9175
▁incendio	-11.9178
▁aparta	-11.9179
▁reconocier	-11.9188
aciones	-11.9189
▁jah	-11.9193
▁inc	-11.9195
ard	-11.9197
▁trabaje	-11.9199
▁pensam	-11.92
▁constantes	-11.9205
▁emprend	-11.9206
▁antiguas	-11.9212
▁analiza	-11.9215
av	-11.9217
▁curacio	-11.9219
▁refugi	-11.9225
▁breves	-11.923
▁interrog	-11.923
▁encarcelad	-11.9235
▁procede	-11.9244
rrupcio	-11.9251
pa	-11.9256
▁respetuosa	-11.9258
▁jur	-11.9264
▁desobedeci	-11.9265
▁brindar	-11.9279
▁conducto	-11.928
▁autom	-11.9288
▁quil	-11.9292
ruina	-11.9292
unirse	-11.9303
▁constituye	-11.9319
▁esconder	-11.9321
▁papas	-11.9325
ren	-11.9331
▁supone	-11.9342
▁desanimar	-11.9343
▁bru	-11.9344
▁abandonara	-11.935
▁elevado	-11.935
▁enviara	-11.9363
▁cuerd	-11.9367
▁culmin	-11.9391
▁reca	-11.9393
▁imagina	-11.9398
▁frustracio	-11.9401
▁pelea	-11.9402
▁interesada	-11.9405
▁conoci	-11.9405
▁apresur	-11.9414
▁mato	-11.9415
▁cast	-11.9428
entacione	-11.9431
odo	-11.945
dur	-11.9453
▁frut	-11.9456
▁sop	-11.9471
▁nga	-11.948
▁tranquiliz	-11.9481
▁misterio	-11.9485
▁hered	-11.9486
▁mie	-11.9491
cera	-11.9495
▁gra	-11.9497
▁suegr	-11.9499
▁prohibicio	-11.9502
▁esper	-11.9512
▁manuscrito	-11.9514
▁prejuicio	-11.9517
▁equivocado	-11.9518
▁lleg	-11.9532
▁enter	-11.9535
▁transformar	-11.9538
▁condenado	-11.954
▁elemento	-11.9547
▁jac	-11.9547
▁guiado	-11.9548
▁instruir	-11.9551
▁trayecto	-11.9554
▁austria	-11.9554
▁bicicle	-11.9554
▁canicie	-11.9554
▁relieve	-11.9554
▁chancho	-11.9554
▁invierno	-11.9554
▁jornada	-11.9554
▁horribl	-11.9555
▁incidente	-11.9555
▁imprenta	-11.9555
▁exilio	-11.9555
▁secundaria	-11.9555
▁henr	-11.9556
▁adoradores	-11.9556
▁xvi	-11.9556
▁profundizar	-11.9557
▁chino	-11.9557
▁defensor	-11.9558
▁josefo	-11.9558
▁priscil	-11.9558
▁advertido	-11.9558
▁manifestado	-11.9558
▁diariamente	-11.9559
▁plagas	-11.956
▁asistier	-11.956
▁provechoso	-11.9561
▁computadoras	-11.9561
▁aguantado	-11.9561
▁zapato	-11.9562
▁posteriores	-11.9562
▁santidad	-11.9563
▁alimentado	-11.9563
▁diagnos	-11.9563
▁avecin	-11.9566
▁estudiab	-11.9567
▁celebrada	-11.9568
▁volviera	-11.9568
▁observado	-11.957
▁estructura	-11.9573
ll	-11.9575
▁camellos	-11.9575
▁presentarse	-11.9575
▁grabacio	-11.9579
▁trabajado	-11.9579
▁adherir	-11.9583
▁traductor	-11.9584
▁reservas	-11.9585
▁guardado	-11.959
▁hembr	-11.9592
▁furioso	-11.9592
ning	-11.9593
▁sovi	-11.9594
▁inactivos	-11.9594
▁instituy	-11.9597
▁angustiado	-11.9598
▁inquietar	-11.9601
▁riam	-11.9605
▁transformacio	-11.9606
▁graduacio	-11.961
▁hurt	-11.961
▁mantenid	-11.9612
▁nuevamente	-11.9621
▁introduj	-11.9623
▁notable	-11.9623
▁inmundo	-11.9623
▁rect	-11.9625
▁gallina	-11.9626
pero	-11.9628
▁sacarl	-11.963
▁veh	-11.9634
▁perros	-11.9642
▁colin	-11.9643
▁protegen	-11.9646
▁necesiten	-11.9648
▁adapt	-11.9652
ados	-11.9654
▁conociera	-11.9656
▁manifestacio	-11.966
▁aldea	-11.9662
▁estabilidad	-11.9663
▁ticar	-11.9663
▁saltar	-11.9665
dieran	-11.9669
▁nombra	-11.9671
▁triunfo	-11.9672
▁entorno	-11.9672
▁controlado	-11.9675
▁entenderlo	-11.9676
▁apoyab	-11.9681
▁comen	-11.9689
▁hicie	-11.969
mbrando	-11.9692
diferenci	-11.9695
▁dada	-11.9699
▁afloj	-11.9711
▁serios	-11.9716
▁primo	-11.9732
▁sujeto	-11.9735
▁plante	-11.9761
▁regocijar	-11.9764
▁imprimir	-11.9764
▁bor	-11.9769
▁molestar	-11.9772
▁institucio	-11.9777
▁organiza	-11.9778
durez	-11.979
zo	-11.9805
sab	-11.981
▁timo	-11.981
▁dispon	-11.9811
▁adorar	-11.9817
▁atormen	-11.9819
▁abraz	-11.9819
▁quis	-11.9819
▁cubr	-11.9821
▁is	-11.983
▁tados	-11.9834
ud	-11.9835
▁mandar	-11.9848
▁escud	-11.9854
ijer	-11.9856
▁imparte	-11.986
▁yendo	-11.9866
▁citada	-11.987
▁olvida	-11.987
▁liber	-11.9879
capaz	-11.9913
all	-11.9914
▁transmiti	-11.992
▁animara	-11.9933
▁brillante	-11.9934
▁perdid	-11.9951
aj	-11.9958
▁prohib	-11.996
▁decepcion	-11.9963
▁invad	-11.9968
▁quit	-11.9969
▁moab	-11.9975
▁ud	-11.9978
ol	-11.9991
▁volo	-12.0009
▁cuido	-12.001
▁riqueza	-12.0013
▁acontecimiento	-12.0014
▁pariente	-12.0016
▁decidida	-12.0017
▁cabello	-12.0018
▁inactivo	-12.0018
▁cuidara	-12.002
▁borr	-12.0024
▁sede	-12.0027
▁documento	-12.0028
▁juzgado	-12.0041
▁trascendental	-12.0042
▁procure	-12.0051
▁diligencia	-12.0054
▁feligreses	-12.0054
▁incienso	-12.0054
▁inminente	-12.0054
▁innumerabl	-12.0054
▁supervivencia	-12.0054
▁opositores	-12.0054
▁xx	-12.0054
▁hostilidad	-12.0054
▁auditorio	-12.0054
▁mensajero	-12.0054
▁pedazo	-12.0055
▁medir	-12.0055
▁insensata	-12.0055
▁cintur	-12.0055
▁envejecido	-12.0055
▁restantes	-12.0056
▁auxilio	-12.0057
▁eliminado	-12.0058
▁conmovedor	-12.0059
▁exquisito	-12.0059
▁ocular	-12.0059
▁distribuir	-12.0059
▁muriendo	-12.006
▁sustentar	-12.0061
▁restaurar	-12.0061
▁flexible	-12.0061
ga	-12.0062
▁inclinado	-12.0063
▁desaparecido	-12.0063
▁sorprendido	-12.0064
▁sabiamente	-12.0065
▁gesto	-12.0065
▁precedentes	-12.0066
▁indigno	-12.0069
▁examinando	-12.0071
▁ltipl	-12.0071
▁celebrarse	-12.0079
▁colaboran	-12.008
▁gallo	-12.0081
ver	-12.0085
▁vacas	-12.0087
▁limpias	-12.009
▁ejerci	-12.0091
▁dominado	-12.0094
▁convencida	-12.0098
▁formato	-12.01
▁lect	-12.0101
▁martes	-12.0101
▁asisten	-12.0102
▁nosotras	-12.0102
▁inesperado	-12.0103
▁secciones	-12.0106
▁concluy	-12.0107
▁crueles	-12.0108
hen	-12.0109
▁realizara	-12.0111
▁famos	-12.0112
▁demora	-12.0112
ve	-12.0113
▁durara	-12.0115
▁magd	-12.0115
▁dicaban	-12.0125
▁insistir	-12.0127
▁alejar	-12.0141
▁quemada	-12.0142
▁tranquilos	-12.0143
▁comercial	-12.0149
por	-12.0155
▁das	-12.0163
▁viej	-12.0165
ano	-12.0168
heredero	-12.0169
▁espin	-12.0171
▁ter	-12.0178
▁ponerlo	-12.0179
▁aran	-12.0181
▁it	-12.0182
▁apropiada	-12.0185
▁falto	-12.0187
▁ahog	-12.0189
▁efectu	-12.0196
▁contamin	-12.0209
▁terrestres	-12.0213
▁registra	-12.022
▁funcionan	-12.0223
▁aprovechan	-12.023
▁arqueolo	-12.0234
▁correspondiente	-12.0251
▁cargas	-12.026
▁guardia	-12.0263
▁penas	-12.0265
grandez	-12.0266
▁ori	-12.0269
▁presentara	-12.027
▁seb	-12.0282
▁legado	-12.0287
▁compar	-12.0293
▁traduj	-12.0303
▁caracteriza	-12.0321
▁taminad	-12.0335
▁ejecuta	-12.0338
▁recurre	-12.0342
ade	-12.0345
▁confirmar	-12.0348
dar	-12.035
▁tambale	-12.0351
▁pensara	-12.0371
▁trastorno	-12.0373
▁ayudas	-12.0375
centrarse	-12.0393
una	-12.0393
▁comporta	-12.0393
▁apunta	-12.0394
ia	-12.0402
▁contara	-12.0405
▁den	-12.041
amando	-12.042
▁mancha	-12.0426
▁gas	-12.0428
▁aren	-12.0431
▁bill	-12.0432
▁estuvi	-12.0435
▁jez	-12.0436
ici	-12.0446
▁suav	-12.0459
▁rodill	-12.0464
▁apacible	-12.0465
gas	-12.0473
▁aviso	-12.0474
tienden	-12.0483
▁produc	-12.0497
▁comprob	-12.0502
▁signifi	-12.0502
tarnos	-12.0505
listr	-12.0508
▁realizaba	-12.0519
▁concluye	-12.0528
rimo	-12.0531
▁adopta	-12.0532
▁censur	-12.0533
▁frontera	-12.0538
▁carretera	-12.0538
▁paralelo	-12.0542
▁extranjera	-12.0544
▁crueld	-12.0545
fusio	-12.0546
▁steph	-12.0546
▁tocan	-12.0556
▁males	-12.0559
▁entregado	-12.0559
▁glorific	-12.056
▁ciego	-12.0561
▁defensa	-12.0565
▁pos	-12.0566
▁manual	-12.0569
▁revis	-12.0571
▁alcoho	-12.0572
▁ansia	-12.0574
▁escudo	-12.0575
▁facet	-12.0575
▁temporal	-12.0576
▁ray	-12.0579
▁excremento	-12.058
▁fideicomiso	-12.058
▁joseph	-12.058
▁biblioteca	-12.058
▁denuedo	-12.0581
▁prudencia	-12.0581
▁hiriente	-12.0581
▁diecis	-12.0581
▁reconstruir	-12.0581
▁ngulo	-12.0581
▁velocidad	-12.0581
▁vasij	-12.0581
▁alergi	-12.0581
▁huyendo	-12.0581
▁erradicar	-12.0581
▁insensato	-12.0582
ignid	-12.0582
▁britann	-12.0582
▁socorrer	-12.0583
▁samaritano	-12.0583
▁decepcionado	-12.0583
▁individualmente	-12.0583
▁vientre	-12.0584
▁limitada	-12.0585
▁ocultado	-12.0586
▁desleales	-12.0588
▁alexand	-12.0588
▁arrancar	-12.0588
▁aumentado	-12.0588
▁sensato	-12.0589
▁residencia	-12.0589
▁rificado	-12.0589
▁incluido	-12.059
▁prestado	-12.0593
▁tortura	-12.0593
fidelid	-12.0594
▁enormemente	-12.0596
▁enteramente	-12.0596
▁pensarlo	-12.0597
▁figurado	-12.0598
▁arrastrar	-12.06
▁judiciales	-12.06
▁bendito	-12.0602
▁monj	-12.0603
▁dividir	-12.0605
▁proh	-12.0606
▁partida	-12.0606
▁salvarnos	-12.0609
▁apoyando	-12.0613
▁descar	-12.0613
▁implicados	-12.0616
▁calumnia	-12.0617
▁comunico	-12.0619
▁bri	-12.0624
▁pluma	-12.0624
▁museo	-12.0624
▁micha	-12.0626
▁conociendo	-12.0631
▁gim	-12.0632
▁alex	-12.0632
jen	-12.0633
▁brit	-12.0637
▁tolerar	-12.064
▁edificar	-12.064
▁entiendo	-12.0642
nd	-12.0649
▁procuro	-12.0649
▁equilibrados	-12.065
▁padece	-12.0652
▁comprar	-12.0652
▁amplio	-12.0655
▁lazo	-12.0657
▁ordenado	-12.0659
▁gozoso	-12.0659
▁juli	-12.0663
▁cubre	-12.0664
▁acostar	-12.0668
▁giro	-12.0674
arm	-12.0674
▁verde	-12.0684
irs	-12.0685
▁recibirlo	-12.0692
▁amenazas	-12.0696
▁instruct	-12.0698
▁resid	-12.0702
▁divorci	-12.0703
▁bondadosa	-12.0715
▁conocier	-12.0725
▁exista	-12.0728
▁molesto	-12.073
▁crit	-12.0732
▁blancos	-12.0732
▁evite	-12.0745
▁correo	-12.0751
▁proyecto	-12.0751
▁permitan	-12.0752
orarl	-12.0752
▁comprado	-12.0756
▁reacciona	-12.0759
▁produzca	-12.0772
▁obedecerlo	-12.078
▁prostitu	-12.0784
▁enormes	-12.0791
▁copero	-12.08
▁perverso	-12.0808
▁ayudarla	-12.0812
orab	-12.0814
▁oscuro	-12.0822
▁discut	-12.0826
▁reconocido	-12.0828
▁movido	-12.0836
▁supervisar	-12.0839
▁comienzos	-12.084
▁cuadro	-12.0842
▁poni	-12.0847
uag	-12.0851
▁acudi	-12.0852
▁christi	-12.0862
▁continuara	-12.0862
muralla	-12.0868
ell	-12.0872
▁maravilla	-12.0881
▁esforza	-12.0888
▁claves	-12.0903
▁pagara	-12.0917
▁silas	-12.0918
▁reconozca	-12.0918
▁alan	-12.0919
▁desampar	-12.0924
▁propicia	-12.0924
▁alude	-12.0928
▁indicaba	-12.0934
esos	-12.0941
▁ignor	-12.095
▁regula	-12.0956
▁repetida	-12.0965
▁parto	-12.0967
▁experimentan	-12.097
▁necesit	-12.0978
▁sosten	-12.0986
▁contradiccio	-12.0986
tu	-12.099
acid	-12.0997
▁investigad	-12.1
dido	-12.1
▁ho	-12.1004
▁extendid	-12.1009
▁vengo	-12.1022
olo	-12.1023
▁lanzar	-12.1023
▁adamente	-12.1027
▁insisti	-12.1028
▁naveg	-12.1034
▁ejerc	-12.1052
jecio	-12.1053
▁atrev	-12.1053
▁confirman	-12.1071
▁cris	-12.1071
▁bonit	-12.1074
▁prob	-12.1075
art	-12.1077
▁vist	-12.108
▁aferr	-12.1082
▁salario	-12.1084
▁ptim	-12.1087
▁tonte	-12.1092
eza	-12.1093
▁perjudica	-12.1093
▁tragedia	-12.1094
▁nombramiento	-12.1094
▁leproso	-12.1095
▁adversario	-12.1096
▁expectativa	-12.1096
▁cadena	-12.1097
▁afa	-12.1099
▁permitiera	-12.1109
jando	-12.112
▁excepcional	-12.1129
▁peter	-12.113
▁presentaba	-12.1133
▁calendario	-12.1136
▁dieciocho	-12.1136
▁episodio	-12.1136
▁polonia	-12.1136
▁senaquerib	-12.1136
▁tempestad	-12.1136
▁indecente	-12.1136
▁inolvidabl	-12.1136
▁favoritismo	-12.1136
▁instalaciones	-12.1136
▁anticristo	-12.1136
▁emblemas	-12.1136
▁solemne	-12.1136
▁practique	-12.1137
▁clima	-12.1137
▁escalera	-12.1137
▁neutralidad	-12.1137
▁publicidad	-12.1137
▁indiferente	-12.1137
▁traduct	-12.1137
▁corrompido	-12.1138
▁banco	-12.1138
▁china	-12.1138
▁procedimiento	-12.1138
▁avivar	-12.1138
▁acceder	-12.1138
▁matanza	-12.1139
▁fracasado	-12.1139
▁patente	-12.1139
▁magog	-12.114
▁felicitar	-12.114
▁zeu	-12.1141
▁convento	-12.1141
▁lejano	-12.1143
▁divisio	-12.1143
▁atrayent	-12.1143
▁desagrad	-12.1144
▁esfuerce	-12.1146
▁otorgo	-12.1146
▁intimidar	-12.1148
▁atrapado	-12.1148
▁ocurr	-12.115
▁evitarlo	-12.115
▁borracher	-12.1153
▁originalmente	-12.1153
▁fomentan	-12.1154
▁gozos	-12.1154
▁reemplazar	-12.1155
▁eficaces	-12.1157
▁tej	-12.1157
▁educada	-12.1158
rdat	-12.1158
▁interesado	-12.1159
▁voluntarias	-12.116
▁ajenos	-12.1162
▁protestantes	-12.1162
▁suiza	-12.1163
den	-12.1163
▁hospitales	-12.1164
▁ensalz	-12.1166
▁alberto	-12.1167
▁agresivo	-12.1168
▁construido	-12.1168
▁aceptab	-12.117
▁comenzado	-12.117
▁sexto	-12.1171
▁violentas	-12.1172
▁dese	-12.1174
▁sionado	-12.1175
▁esencia	-12.1176
▁arrojo	-12.1177
▁libras	-12.1178
▁acuso	-12.1183
▁violenta	-12.1185
▁seriamente	-12.1188
▁extiende	-12.1188
▁multitudes	-12.1188
▁sueldo	-12.119
▁transformara	-12.119
▁saludo	-12.1191
▁infundi	-12.1191
▁dedicab	-12.1193
▁haberlo	-12.1196
▁segara	-12.1197
▁sept	-12.1197
▁quinto	-12.1203
▁celebrado	-12.1208
▁azul	-12.1209
▁comiendo	-12.121
▁rotund	-12.121
▁meca	-12.1218
▁estanque	-12.1218
▁copias	-12.1218
▁patas	-12.1221
▁preocupados	-12.1221
▁conocidas	-12.1222
ino	-12.1223
▁apresurar	-12.1225
▁exhibicio	-12.1226
▁normales	-12.1226
▁redac	-12.1233
▁avio	-12.1237
▁injurios	-12.1238
▁comentar	-12.1249
▁prediccio	-12.1252
▁juicios	-12.1254
▁iii	-12.1264
▁riend	-12.1265
▁ateo	-12.1267
▁acercan	-12.127
▁detallado	-12.1274
▁disculpar	-12.1274
▁creadas	-12.1274
▁aumentara	-12.1276
▁ordenar	-12.1277
▁llene	-12.1283
▁acepten	-12.1284
▁efra	-12.1292
▁atrapar	-12.13
▁vien	-12.1305
▁vieran	-12.1306
▁tratos	-12.1308
▁devolvi	-12.1311
▁mejorado	-12.1312
▁favorable	-12.1318
▁deseen	-12.1319
▁cuente	-12.132
▁desarrolle	-12.1324
▁hallo	-12.1325
▁definicio	-12.1332
▁ricas	-12.1336
▁entrara	-12.1338
▁pic	-12.134
▁sped	-12.1341
▁edificado	-12.1341
tes	-12.1346
▁ayudarles	-12.1348
▁detallada	-12.1359
▁gt	-12.1361
▁conocimientos	-12.1362
▁escala	-12.1363
▁futuros	-12.1363
quiera	-12.137
▁enriquece	-12.1384
ust	-12.1385
▁atractivo	-12.1388
▁tiro	-12.139
▁mito	-12.1399
▁pong	-12.14
▁rever	-12.1404
ung	-12.1405
reste	-12.141
▁pat	-12.1413
▁desech	-12.1445
▁composi	-12.1448
▁saludos	-12.145
▁repart	-12.1452
▁quisi	-12.1455
▁interna	-12.1463
▁inevitabl	-12.1464
▁apolos	-12.1464
▁curar	-12.1465
▁resolv	-12.1476
▁plic	-12.148
▁anochec	-12.1484
alment	-12.1485
▁cert	-12.1494
▁relaj	-12.1525
man	-12.1531
ant	-12.1537
aren	-12.1539
▁prueb	-12.1541
▁dividido	-12.1546
▁reporta	-12.1557
q	-12.1563
▁listas	-12.1565
▁pelo	-12.1568
decir	-12.157
▁mantuvier	-12.1572
▁afirmaba	-12.1574
▁cifr	-12.1579
▁comer	-12.1579
idio	-12.1583
▁bols	-12.1585
▁consist	-12.1585
▁eri	-12.159
▁ap	-12.1598
▁obtenga	-12.16
▁lamentar	-12.1604
ha	-12.1606
ho	-12.1618
▁ceremonia	-12.1639
▁christ	-12.1643
▁celebrara	-12.1647
▁granj	-12.1657
▁alabo	-12.1658
▁consuel	-12.1659
▁separa	-12.1661
▁ilusio	-12.1664
▁gano	-12.1671
▁ocupan	-12.1672
▁valios	-12.1681
▁huella	-12.1684
▁saludable	-12.1686
▁nervios	-12.1687
▁prosigu	-12.169
▁maltrato	-12.1692
sualid	-12.1694
▁ntim	-12.1696
ciento	-12.1696
▁galo	-12.1702
▁crucial	-12.171
▁consume	-12.1711
▁aplicacio	-12.1712
▁llamadas	-12.1717
▁gananci	-12.172
▁aplastar	-12.1723
▁raciocinio	-12.1724
▁tsunami	-12.1724
▁eduardo	-12.1724
▁higiene	-12.1724
▁pertenencia	-12.1724
▁victorioso	-12.1724
▁calamidades	-12.1724
▁presupuesto	-12.1725
▁crifo	-12.1725
▁tony	-12.1725
▁gratificant	-12.1725
▁ryan	-12.1726
▁saque	-12.1726
▁debilitado	-12.1728
▁generosamente	-12.1728
▁atiende	-12.1729
▁vistazo	-12.1729
▁designado	-12.1729
▁carpintero	-12.173
▁seleccionar	-12.173
▁enterrado	-12.173
▁ingresos	-12.1731
▁sirviera	-12.1731
edumbr	-12.1734
▁agobiado	-12.1735
▁animarlo	-12.1735
▁conservado	-12.1735
▁aniquilar	-12.1736
▁ofreciendo	-12.1736
▁educativo	-12.1738
▁juzgue	-12.1738
▁determinado	-12.1738
▁pelot	-12.1739
▁recorrer	-12.1742
▁sirviente	-12.1742
▁ruth	-12.1745
▁representados	-12.1748
▁hospitalario	-12.1751
▁detectar	-12.1751
▁levantarse	-12.1752
▁persuadi	-12.1752
▁editor	-12.1756
▁perdonarlo	-12.1757
za	-12.1758
▁dulos	-12.1761
▁desagradabl	-12.1761
▁palom	-12.1762
▁procurar	-12.1762
▁roja	-12.1762
▁salvado	-12.1764
▁felicito	-12.1764
▁saludables	-12.1766
▁participe	-12.1768
▁formarnos	-12.1768
▁ciro	-12.1769
▁revisar	-12.1776
cacione	-12.1779
th	-12.178
morr	-12.1786
▁miel	-12.1787
▁contribui	-12.1788
▁econom	-12.1789
▁comidas	-12.1795
▁contraria	-12.1797
▁avergonzar	-12.1798
▁repugnant	-12.1801
▁impreso	-12.1801
▁leyend	-12.1804
▁columnas	-12.1805
▁corredor	-12.1809
▁desahogar	-12.1816
▁sujeta	-12.1818
▁tre	-12.182
▁esenciales	-12.1821
▁propuesta	-12.1825
▁proporcion	-12.1827
▁lul	-12.1829
▁quisieran	-12.183
▁presos	-12.1837
▁sos	-12.1842
▁modesto	-12.1845
▁derrot	-12.1849
▁motivado	-12.1853
▁hacerlos	-12.1868
lment	-12.187
▁modesta	-12.1873
▁adquir	-12.1875
▁preocupo	-12.1876
▁predice	-12.188
▁ofrecido	-12.1885
▁suyas	-12.1886
▁luchan	-12.1886
▁gale	-12.1886
▁regrese	-12.1888
▁mundan	-12.1894
▁corren	-12.1895
ccio	-12.1896
▁exigen	-12.1902
▁descubre	-12.1903
ramente	-12.1911
▁extrema	-12.1915
forni	-12.1915
▁operacio	-12.1924
▁angustia	-12.1929
▁podrido	-12.193
▁contempla	-12.1932
▁repiti	-12.1933
▁resultan	-12.1937
▁seguirlo	-12.1942
▁animen	-12.1943
▁cle	-12.1944
amiento	-12.1947
▁lidos	-12.1949
▁sill	-12.1965
mpat	-12.1967
▁contamina	-12.1972
▁compro	-12.1977
▁arrogan	-12.198
▁coopera	-12.1981
▁cuart	-12.1982
▁vencidos	-12.1983
▁demostrab	-12.1985
▁provoc	-12.1987
▁inesperad	-12.1988
▁funcione	-12.2001
▁orej	-12.2002
del	-12.2004
▁expecta	-12.2004
▁dividi	-12.2016
▁oponen	-12.2017
dis	-12.2021
▁castiga	-12.2028
▁claros	-12.203
teza	-12.2031
▁constituyen	-12.204
▁introducir	-12.2044
▁oces	-12.2046
▁relatar	-12.2047
▁tenerlos	-12.205
cedentes	-12.2051
▁suelt	-12.2054
▁conced	-12.2062
▁serias	-12.2064
ento	-12.2069
▁conquist	-12.2074
▁aplas	-12.209
▁profundos	-12.2096
▁rugi	-12.2099
▁indigna	-12.2117
▁fase	-12.214
▁abriga	-12.2146
▁seguid	-12.2151
▁regresa	-12.2151
▁casual	-12.2155
▁carbo	-12.2162
▁proclaman	-12.2162
tivo	-12.2166
om	-12.2167
▁irnos	-12.217
▁malhech	-12.2185
▁ruta	-12.2187
▁pegar	-12.2196
▁piensa	-12.2206
▁seco	-12.2213
▁ja	-12.2213
ut	-12.2216
▁entendi	-12.2237
▁arries	-12.2244
▁pantal	-12.2252
▁inclin	-12.2259
▁patric	-12.226
▁persever	-12.2265
▁conmovi	-12.2265
▁representacio	-12.2269
tendieron	-12.2277
▁got	-12.2286
▁destruye	-12.229
▁max	-12.229
▁rgic	-12.2294
▁sobreviv	-12.2297
▁agotad	-12.23
▁adult	-12.2304
▁duradera	-12.2306
▁abatid	-12.2316
▁avanza	-12.2321
▁lejan	-12.2321
▁adversid	-12.2329
▁grac	-12.2336
▁perjudicial	-12.2337
▁data	-12.2338
▁civil	-12.2338
▁rod	-12.2341
▁autoexam	-12.2342
▁reacc	-12.2342
▁separ	-12.2342
▁individual	-12.2347
▁asesinar	-12.2348
▁portugu	-12.2349
▁apetito	-12.2349
▁bienvenida	-12.2349
▁plataforma	-12.2349
▁primavera	-12.2349
▁becerro	-12.2349
▁escarabajo	-12.2349
▁magnitud	-12.2349
▁ignorancia	-12.2349
▁xix	-12.2349
▁ausencia	-12.2349
▁chipre	-12.2349
▁roald	-12.2349
▁catego	-12.235
▁paquete	-12.235
▁dolencia	-12.235
▁transfusio	-12.235
▁bosque	-12.235
▁ubicada	-12.2351
▁simplificar	-12.2351
▁sufrier	-12.2351
▁sombrero	-12.2351
▁graduado	-12.2351
▁jugando	-12.2352
▁ejerciendo	-12.2352
▁proveer	-12.2352
▁sendero	-12.2352
▁investigaciones	-12.2352
▁equivalente	-12.2353
▁temprana	-12.2353
▁fantas	-12.2353
▁materna	-12.2353
▁favorablemente	-12.2355
▁otorgado	-12.2356
▁convenio	-12.2356
mar	-12.2356
▁rastro	-12.2356
▁teatro	-12.2359
▁absolutamente	-12.236
▁almacenar	-12.2361
▁inicua	-12.2364
▁viajero	-12.2365
▁funcionar	-12.2366
▁cotidianas	-12.2374
▁hall	-12.2376
▁invento	-12.2379
▁meditando	-12.2379
▁hondo	-12.2379
▁recurr	-12.238
ificacio	-12.238
▁resalta	-12.2384
▁neamente	-12.2387
▁amenazar	-12.2389
▁costado	-12.239
▁guardan	-12.2391
▁exhortar	-12.2392
▁rodead	-12.2394
▁averg	-12.2398
▁italiano	-12.24
▁agradarle	-12.24
▁escondido	-12.2401
▁determinados	-12.2403
▁obedezcan	-12.2403
▁molestaba	-12.2405
▁espiritist	-12.2406
▁dist	-12.2417
▁fuertemente	-12.242
▁nazis	-12.242
▁conseguirlo	-12.2422
▁soltar	-12.2422
▁descrito	-12.2426
▁futuras	-12.2426
▁ageo	-12.2428
▁fundamentales	-12.243
itabl	-12.2437
▁repaso	-12.2437
torio	-12.244
▁rec	-12.2443
▁golpear	-12.2445
▁define	-12.2445
rtens	-12.2448
▁edificios	-12.2449
▁aborrec	-12.2449
▁comprenda	-12.2457
▁quitara	-12.2462
▁falsed	-12.2465
▁insecto	-12.2465
▁combate	-12.2466
▁tratarlos	-12.2467
▁custodia	-12.2468
uniden	-12.2476
▁sentad	-12.2476
▁inspira	-12.2478
▁bendi	-12.2486
▁limitar	-12.2487
▁desespera	-12.2488
▁glorificar	-12.2494
▁agraden	-12.2494
▁aportar	-12.2505
tif	-12.2507
▁dorm	-12.2521
▁invocan	-12.253
▁estudiarl	-12.2532
▁letras	-12.2533
▁abordar	-12.2537
▁tont	-12.254
▁mirab	-12.2549
chu	-12.255
▁ajustar	-12.2556
▁acercab	-12.2559
rred	-12.2578
antes	-12.2581
▁colabora	-12.2583
▁eve	-12.2588
▁ent	-12.2591
trajer	-12.2602
▁patern	-12.2605
▁opuesto	-12.2606
▁exigi	-12.2607
ot	-12.2619
▁char	-12.2619
rr	-12.2626
▁tob	-12.2628
▁cansar	-12.263
▁establece	-12.2632
▁duras	-12.2637
gust	-12.2639
▁ahorrar	-12.2645
▁preferi	-12.2669
▁publicada	-12.2669
▁antib	-12.2672
▁milagroso	-12.2687
▁compras	-12.2693
▁amonest	-12.2695
▁lograb	-12.2699
▁consolado	-12.2704
▁animoso	-12.2705
▁sog	-12.2711
▁sant	-12.2714
▁echarl	-12.2715
▁enterar	-12.2721
▁alumno	-12.2722
▁casti	-12.2725
jes	-12.2726
▁poli	-12.2729
▁escondid	-12.2737
▁leerlo	-12.2741
▁especifica	-12.2744
▁robar	-12.2744
▁insta	-12.2745
ble	-12.2752
▁rque	-12.2754
▁estacio	-12.2755
▁mezcl	-12.2757
▁incitar	-12.2768
▁deterior	-12.2769
▁fulgur	-12.2769
▁quejar	-12.2776
▁preparab	-12.2777
▁tum	-12.2784
▁centran	-12.2786
vr	-12.2791
▁origin	-12.2801
▁desesperada	-12.2801
▁anda	-12.2806
▁servid	-12.2808
▁excesiva	-12.282
▁entabl	-12.2821
fran	-12.2827
▁supier	-12.2828
▁progres	-12.2848
▁sufrim	-12.285
▁anuncian	-12.2882
▁voce	-12.2889
▁representada	-12.2889
▁robado	-12.2895
▁valorab	-12.2897
▁circuncis	-12.2905
▁olor	-12.2907
▁solicitar	-12.2912
▁monar	-12.292
▁mario	-12.2922
▁sere	-12.2923
eparars	-12.2925
▁biblist	-12.2933
▁lili	-12.2935
▁institu	-12.2938
▁contestad	-12.2938
▁enred	-12.2948
▁ortodox	-12.2954
▁oll	-12.2957
▁rez	-12.2959
▁asigna	-12.296
iev	-12.2969
▁estrategia	-12.2972
▁circunstancia	-12.2972
▁provincia	-12.2973
hacer	-12.2973
▁sugerencia	-12.2975
▁requisito	-12.2975
▁cometa	-12.2977
▁tur	-12.2977
▁extens	-12.2978
▁negativo	-12.2984
▁coquete	-12.2985
▁presid	-12.2985
▁afectado	-12.299
siones	-12.2991
▁imprim	-12.2991
ntegra	-12.2993
▁persigue	-12.2996
▁dra	-12.2997
▁preparada	-12.2998
▁asemej	-12.3007
▁confidencial	-12.3008
▁imped	-12.3012
▁arrestar	-12.3014
citando	-12.3015
▁fluidez	-12.3016
▁inmaculado	-12.3016
▁inteligencia	-12.3016
▁madagascar	-12.3016
▁carruaj	-12.3016
▁ghana	-12.3016
▁himno	-12.3016
▁invoque	-12.3016
▁dogm	-12.3016
▁hurac	-12.3016
▁llanur	-12.3016
▁durmiendo	-12.3016
▁estonia	-12.3016
▁mantenimiento	-12.3016
▁acceso	-12.3017
▁interviene	-12.3017
▁franz	-12.3017
▁piezas	-12.3017
▁creciente	-12.3017
▁intelectual	-12.3017
▁portavoz	-12.3018
▁pescadores	-12.3019
▁supersticio	-12.302
▁enemist	-12.302
▁recientemente	-12.3021
▁sumisos	-12.3021
▁estrecho	-12.3021
▁adicionales	-12.3022
▁comerciantes	-12.3022
▁participantes	-12.3023
▁desobedeciendo	-12.3025
▁carece	-12.3025
▁nucleares	-12.3026
▁derribar	-12.3026
▁relajad	-12.3028
▁predicha	-12.3029
▁milenario	-12.303
▁incircunciso	-12.3031
▁togo	-12.3032
▁inmigrante	-12.3034
▁abnegado	-12.3037
▁modificar	-12.304
▁laboral	-12.3044
▁elige	-12.3046
▁epidemias	-12.3046
▁alcanzado	-12.3048
▁alemana	-12.3052
▁bilmente	-12.3053
▁logrando	-12.3053
▁monedas	-12.3054
▁animab	-12.3055
▁probabilidad	-12.3056
▁afectados	-12.306
ight	-12.306
▁visitarlo	-12.306
pondr	-12.3061
▁feroc	-12.3062
▁leprosos	-12.3066
▁motivados	-12.3066
▁comparado	-12.3066
comprensibl	-12.307
▁zel	-12.3072
▁donacio	-12.3074
▁nietos	-12.3079
▁palo	-12.308
▁interesados	-12.3081
▁sobrino	-12.3081
▁melod	-12.3082
▁empleados	-12.3083
▁volvieran	-12.309
▁desear	-12.309
▁dilema	-12.3092
▁estricta	-12.3095
▁designar	-12.31
▁sostener	-12.3101
▁aposto	-12.3103
▁granero	-12.3104
▁asegur	-12.3113
▁rigo	-12.3117
▁alrededores	-12.3125
▁contando	-12.3125
▁interiores	-12.3129
▁adorando	-12.3129
▁fascinant	-12.3135
▁natal	-12.3139
▁pastoreo	-12.3144
▁oficinas	-12.3146
▁lucho	-12.3146
▁llevarlo	-12.315
▁vendido	-12.315
▁incon	-12.316
▁seducir	-12.316
▁resist	-12.3161
▁anunciado	-12.3161
▁cab	-12.3168
▁tratarse	-12.3171
▁barcos	-12.3177
▁trop	-12.3177
ulo	-12.3179
▁razas	-12.3184
▁culpar	-12.3184
▁considerable	-12.3184
gi	-12.3184
▁dart	-12.3189
▁conductas	-12.3189
▁na	-12.3194
▁hubi	-12.3199
▁noto	-12.3211
lejars	-12.3215
▁equivocar	-12.3217
▁ito	-12.322
▁prefiri	-12.3221
▁acept	-12.3223
sos	-12.3229
▁len	-12.323
▁colabor	-12.323
▁indicio	-12.3232
▁participo	-12.3235
▁evito	-12.324
▁descend	-12.3252
▁sanas	-12.3267
▁queriendo	-12.3267
▁ruso	-12.3271
▁peligrosos	-12.3272
ich	-12.3274
▁afectuos	-12.3279
▁interese	-12.3288
▁tirnos	-12.3289
▁comparte	-12.3295
volverse	-12.3297
▁extendido	-12.3299
▁garantiz	-12.3303
▁deshonr	-12.331
▁repentin	-12.3312
cortados	-12.3313
▁aporta	-12.3319
▁bell	-12.3319
▁industria	-12.3321
▁estatu	-12.3322
yl	-12.3323
▁etio	-12.3331
▁dividid	-12.3336
▁sometido	-12.3337
▁dictado	-12.335
fe	-12.3362
▁mada	-12.3389
▁reserva	-12.3399
▁recurri	-12.3401
▁escondi	-12.3402
▁tod	-12.3403
▁creada	-12.341
▁fresc	-12.3421
▁astro	-12.3424
▁atmo	-12.3434
▁parecidos	-12.3434
▁extrav	-12.348
▁limite	-12.3481
▁ayud	-12.3482
andr	-12.3485
▁decepcio	-12.3491
▁calific	-12.3504
fer	-12.352
▁inspeccio	-12.3521
▁ambicio	-12.3524
dad	-12.3527
log	-12.353
▁oce	-12.353
jars	-12.3541
▁embrio	-12.3542
▁encomend	-12.3544
▁acad	-12.3548
▁tela	-12.3548
▁rama	-12.3548
▁desampara	-12.3554
elv	-12.3555
▁establec	-12.3558
▁vivas	-12.3559
▁rabi	-12.3584
▁vald	-12.3588
▁narracio	-12.3594
▁respalda	-12.3596
▁resuelve	-12.3596
▁humillacio	-12.3604
▁conduc	-12.3606
▁magulla	-12.3608
▁arrepient	-12.3615
▁ocurren	-12.3617
▁derramad	-12.3628
▁supervisa	-12.363
▁bajos	-12.3633
▁difund	-12.3639
▁pont	-12.3641
▁esfuerz	-12.3645
asi	-12.3648
▁percibi	-12.3651
▁compadece	-12.3659
▁intimidad	-12.3667
▁ram	-12.3673
lih	-12.3674
▁malicios	-12.3675
beza	-12.3679
▁oran	-12.3682
▁organismo	-12.3688
▁delincuente	-12.3688
▁proyect	-12.3689
▁consejero	-12.3689
bo	-12.3689
▁furios	-12.3691
▁moneda	-12.3692
▁hut	-12.3693
▁prisionero	-12.3697
▁entrevist	-12.3704
▁reducid	-12.3705
▁efectivo	-12.3707
▁permaneci	-12.3709
▁derrota	-12.3711
▁ingre	-12.3713
▁posterior	-12.3715
▁viviera	-12.3715
▁afront	-12.3719
rt	-12.372
x	-12.3721
▁judicial	-12.3726
▁deseable	-12.3726
fensiv	-12.3728
▁preocup	-12.3729
▁refriger	-12.373
▁aniversario	-12.373
▁diecisiete	-12.373
▁inestimable	-12.373
▁malgach	-12.373
▁pergamino	-12.373
▁remordimiento	-12.373
▁pajarero	-12.373
▁pensilvan	-12.373
▁trayectoria	-12.373
▁adoptivo	-12.373
▁detestable	-12.373
▁pollito	-12.373
▁pesebre	-12.3731
▁matrimoniales	-12.3731
▁distraig	-12.3731
▁sandali	-12.3732
▁operaciones	-12.3732
▁transgresiones	-12.3732
▁feroz	-12.3732
▁integrantes	-12.3732
▁creativo	-12.3733
▁ec	-12.3733
▁colegio	-12.3733
▁pasatiempo	-12.3733
▁complemento	-12.3733
▁surgieron	-12.3734
▁aguj	-12.3734
▁huyeron	-12.3734
▁aplastado	-12.3734
▁protagonista	-12.3734
▁citamente	-12.3735
▁conmemorativas	-12.3736
▁tragara	-12.3736
▁lunes	-12.3736
▁puntual	-12.3737
▁especializada	-12.3737
▁bonitas	-12.3737
▁visitarl	-12.3738
▁bancarias	-12.3738
▁miseria	-12.3739
▁pris	-12.374
▁entierro	-12.374
▁aferrar	-12.3741
▁direcciones	-12.3741
▁borrar	-12.3741
▁valeroso	-12.3742
▁asombros	-12.3742
▁uni	-12.3744
▁destruidas	-12.3744
▁civiles	-12.3744
▁colaborando	-12.3745
▁cuchillo	-12.3745
▁ejerza	-12.3745
▁entrampar	-12.3746
▁gusanos	-12.3747
▁trascendentales	-12.3748
▁astuto	-12.3749
▁seleccion	-12.375
▁titulada	-12.375
▁descon	-12.3751
▁mencio	-12.3752
▁merecido	-12.3753
▁infinita	-12.3754
▁amenaz	-12.3754
▁protect	-12.3755
▁jorg	-12.3755
▁cola	-12.3756
▁receta	-12.3758
▁ricamente	-12.3758
▁comparable	-12.3761
▁blasfemi	-12.3763
▁seminario	-12.3764
▁respetuosos	-12.3764
▁definir	-12.3765
▁reservada	-12.3766
▁desapareci	-12.3767
▁visual	-12.3768
▁resisti	-12.3768
▁complejos	-12.3768
▁severo	-12.3769
▁contad	-12.3771
▁altivo	-12.3772
▁detenimiento	-12.3772
▁obligo	-12.3772
▁imito	-12.3773
▁voluntariamente	-12.3775
votos	-12.3781
▁prim	-12.3783
▁colocado	-12.3786
▁entrenado	-12.3789
va	-12.3791
▁favorecer	-12.3791
▁enriquecer	-12.3793
▁adquirido	-12.3795
▁desorden	-12.3795
▁mensajeros	-12.3798
▁nervioso	-12.3799
▁elisab	-12.3801
ng	-12.3802
▁delitos	-12.381
▁grabado	-12.3811
▁guy	-12.3813
▁injustas	-12.3814
▁cano	-12.3816
▁pretexto	-12.3818
▁intensos	-12.3819
▁visitarlos	-12.3819
▁desarrolla	-12.3821
▁protegidos	-12.3822
▁usarlo	-12.383
▁colmo	-12.383
▁arrestado	-12.3833
▁obispo	-12.3834
▁ret	-12.3837
▁extremos	-12.3837
▁viles	-12.3839
▁insisten	-12.384
▁aplican	-12.3843
▁cent	-12.3845
▁contundent	-12.3846
▁millo	-12.3847
▁rau	-12.3847
parcialid	-12.3849
▁mitos	-12.3853
toma	-12.3853
▁humilde	-12.3856
▁ro	-12.3859
▁doto	-12.386
▁trabajen	-12.386
▁adorara	-12.3862
▁chica	-12.3864
▁violad	-12.3865
▁fallar	-12.3874
▁hundir	-12.3876
▁encontrarlo	-12.3883
han	-12.3883
▁geco	-12.3887
▁anhelan	-12.3892
▁produjer	-12.3896
▁muera	-12.3896
▁apag	-12.3898
▁agradecerl	-12.39
▁precioso	-12.392
▁pantall	-12.3921
▁visitant	-12.3924
▁mono	-12.3924
▁compare	-12.3926
▁lados	-12.3929
▁favorece	-12.393
cen	-12.3932
▁defendi	-12.3933
▁adu	-12.3934
▁porcio	-12.3939
▁cercanos	-12.3945
▁vigilan	-12.3946
▁encabeza	-12.3953
▁referi	-12.3964
▁conmemorar	-12.3964
▁bello	-12.3966
osament	-12.397
▁jarro	-12.3971
▁sirvier	-12.3977
berl	-12.3982
▁regal	-12.3983
ores	-12.3986
▁respland	-12.399
▁tentar	-12.3991
cepcio	-12.3992
▁presentado	-12.3999
▁dispuest	-12.4014
gic	-12.4022
▁lett	-12.4025
▁inclinar	-12.4027
▁funda	-12.403
▁causarle	-12.4031
▁informal	-12.404
▁caracteriz	-12.4042
▁desesper	-12.4047
▁sonre	-12.4047
▁escoci	-12.4048
▁fotograf	-12.4053
▁demo	-12.4053
ani	-12.4055
▁mejorando	-12.4061
▁expuesta	-12.4064
▁beneficiari	-12.4065
▁desobedec	-12.4068
▁bases	-12.4071
ja	-12.4073
▁arregla	-12.4077
boo	-12.4077
huant	-12.409
▁empeor	-12.4092
▁llorar	-12.4096
▁devoto	-12.4102
▁sujetar	-12.4106
▁invite	-12.411
▁cordial	-12.4123
▁aji	-12.4129
▁mur	-12.4133
▁critican	-12.4134
▁agar	-12.4135
▁ofrezca	-12.4138
ah	-12.414
▁verm	-12.4142
stuvieron	-12.4143
▁pidos	-12.4148
ac	-12.4152
▁solicita	-12.4152
sistimo	-12.4152
▁bautiza	-12.4162
▁prestigios	-12.4166
▁autoriza	-12.4167
▁confesar	-12.4167
▁arrogant	-12.4171
▁honrada	-12.4174
▁imitar	-12.4177
▁gozan	-12.4179
▁enfureci	-12.4183
▁conceda	-12.42
▁existi	-12.4204
▁amonton	-12.4204
▁distan	-12.4213
▁pier	-12.4214
▁pulg	-12.4219
▁pregunta	-12.4222
▁creyer	-12.4234
▁ancl	-12.424
able	-12.4241
men	-12.4248
plico	-12.425
▁vie	-12.4252
▁sud	-12.4268
▁experimen	-12.427
▁bab	-12.4275
tacione	-12.4279
▁dispone	-12.4283
ese	-12.4285
▁encaj	-12.4285
▁desafi	-12.4286
▁publicador	-12.4289
▁agradeci	-12.429
▁injuri	-12.4294
▁psico	-12.4294
▁apoder	-12.4312
▁manteng	-12.4313
▁escaso	-12.4323
entrado	-12.4331
zat	-12.4333
latr	-12.4344
▁pesca	-12.4348
▁ritmo	-12.4352
▁ocu	-12.4381
▁japone	-12.4383
▁conforma	-12.4383
▁premi	-12.4386
▁mejora	-12.4386
▁algodo	-12.439
▁encaja	-12.4392
dicando	-12.4396
▁ocup	-12.4399
▁acumul	-12.44
fa	-12.4401
goli	-12.4405
▁agot	-12.441
▁recordarle	-12.4417
▁diver	-12.4421
▁arrebat	-12.4421
▁ung	-12.4422
▁sum	-12.4423
▁mant	-12.4424
▁consolad	-12.4438
▁cerebr	-12.4443
▁meter	-12.4446
▁aburrid	-12.4447
▁vet	-12.4452
▁sugier	-12.4454
▁latra	-12.4456
▁aislado	-12.4458
▁herramienta	-12.4459
▁alternativa	-12.446
▁orgullos	-12.4461
▁arm	-12.4462
▁dirigier	-12.4463
▁organizada	-12.4468
▁corrigiera	-12.447
▁goza	-12.4473
▁productivo	-12.4474
saqu	-12.4474
▁surja	-12.4475
▁argumento	-12.4481
▁coordinador	-12.4486
amos	-12.4492
▁eclesi	-12.4492
izo	-12.4493
▁expresado	-12.4498
▁piso	-12.4498
▁disminuy	-12.4499
▁acord	-12.4499
▁avidez	-12.4499
▁bofetad	-12.4499
▁catorce	-12.4499
▁disturbio	-12.4499
▁francisco	-12.4499
▁sepultur	-12.4499
▁combustible	-12.4499
▁linaje	-12.4499
▁intolerancia	-12.4499
▁escasez	-12.45
▁interrupcio	-12.45
▁alojamiento	-12.45
▁rapidez	-12.45
▁periodista	-12.45
▁complicada	-12.45
▁tuvaluano	-12.45
▁gisel	-12.45
▁destrez	-12.45
▁encender	-12.45
▁confesiones	-12.45
▁torrente	-12.4501
▁entienda	-12.4501
▁hindu	-12.4501
▁censura	-12.4501
▁perrito	-12.4502
▁atacado	-12.4504
▁cuatrocientos	-12.4504
▁revisada	-12.4504
▁noruega	-12.4505
▁colaborador	-12.4505
▁avanzando	-12.4505
▁llanto	-12.4506
▁rebos	-12.4506
▁ganancias	-12.4506
▁captado	-12.4509
▁existido	-12.4509
▁descuid	-12.4509
▁fabricar	-12.4509
▁descubrimiento	-12.451
▁bas	-12.451
▁cansados	-12.451
▁sellado	-12.4511
▁majestuoso	-12.4511
▁destrozado	-12.4512
▁billete	-12.4512
▁solar	-12.4513
▁navegar	-12.4513
▁disgusto	-12.4514
▁actualizada	-12.4515
▁respetado	-12.4517
▁francesa	-12.4518
▁fomente	-12.4519
▁concentrado	-12.4519
▁penosa	-12.4519
▁codicioso	-12.4521
▁moralmente	-12.4521
▁protestas	-12.4521
▁debidamente	-12.4523
▁play	-12.4526
▁mortales	-12.4526
▁dirigentes	-12.4527
▁profetizado	-12.4527
▁mentalmente	-12.4529
▁degollar	-12.453
▁odiado	-12.453
▁reforzar	-12.4531
▁tarso	-12.4531
▁dium	-12.4531
▁concretas	-12.4532
dida	-12.4532
▁engendr	-12.4533
▁preservar	-12.4534
▁micamente	-12.4535
▁arraigado	-12.4536
▁nacionales	-12.4536
▁aislar	-12.4537
▁beneficioso	-12.4537
▁militares	-12.454
▁grandios	-12.454
▁reinar	-12.4541
▁agresiv	-12.4542
▁angustioso	-12.4542
▁importan	-12.4543
solo	-12.4544
▁rural	-12.4548
anso	-12.455
▁stephan	-12.455
▁ungir	-12.4551
▁corporacio	-12.4551
▁tritura	-12.4552
razonabl	-12.4553
▁evangelist	-12.4555
▁curara	-12.4556
▁ganando	-12.4557
▁hot	-12.4557
▁asombroso	-12.4562
▁afectuoso	-12.4563
▁declaraciones	-12.4564
▁rat	-12.4564
▁cuidarlos	-12.4568
▁cubiertas	-12.4576
▁ocurrida	-12.4577
▁asesinatos	-12.4577
▁visitado	-12.4579
▁compruebe	-12.458
▁compensar	-12.4582
▁ramer	-12.4585
▁afronto	-12.4586
▁barrio	-12.4588
▁persi	-12.4588
ice	-12.4588
▁distribucio	-12.4588
tres	-12.459
▁tranquilizo	-12.4593
▁niega	-12.4594
▁beneficie	-12.4598
▁demas	-12.4606
▁opera	-12.4607
▁marcado	-12.4607
▁encargue	-12.4608
▁abusos	-12.461
▁obligada	-12.4611
▁esquin	-12.4611
▁conservo	-12.4612
▁refugiar	-12.4613
▁completos	-12.4613
▁cerdo	-12.4615
▁rar	-12.4618
▁mort	-12.4622
▁alcanzo	-12.4624
▁quebrant	-12.4624
▁interpretar	-12.4626
▁impid	-12.463
▁referente	-12.4631
▁buscarl	-12.4636
▁detenida	-12.4639
▁comanda	-12.464
▁inaugur	-12.4642
▁emiti	-12.4651
▁camis	-12.4651
▁recoge	-12.4652
▁comun	-12.4653
rept	-12.4658
▁gri	-12.4662
▁copist	-12.4666
▁identificado	-12.4667
▁violacio	-12.4669
▁nazc	-12.467
▁suministrar	-12.4671
▁significativo	-12.4671
▁citados	-12.4673
▁encontrarse	-12.4673
▁renuncia	-12.4675
quito	-12.4677
▁arriesg	-12.4678
recha	-12.468
▁absorb	-12.4682
▁fallo	-12.4686
▁pauta	-12.4686
▁pretar	-12.469
▁volvier	-12.4696
▁incluya	-12.4697
rico	-12.47
▁despreciab	-12.4703
tini	-12.4704
▁cortado	-12.4712
▁fern	-12.4712
▁ensay	-12.4716
▁parque	-12.4725
aduce	-12.4726
▁compon	-12.4728
▁cli	-12.473
zac	-12.4733
▁ancho	-12.4734
▁ah	-12.4736
▁dependen	-12.4742
▁justificar	-12.4743
▁visualiz	-12.4744
▁rinda	-12.4745
▁ola	-12.4754
robab	-12.4756
rit	-12.4757
▁diaria	-12.4757
moralid	-12.4759
▁ay	-12.476
▁maltratado	-12.4766
▁convert	-12.4766
▁concreta	-12.4768
posicio	-12.4793
▁quebrar	-12.4799
▁destinado	-12.4808
▁capa	-12.4819
▁dad	-12.4831
▁concentr	-12.4832
▁fund	-12.4834
beth	-12.4835
▁debilit	-12.4839
▁esparcid	-12.4851
negab	-12.4855
cint	-12.4862
cho	-12.4863
▁actuara	-12.4864
positiva	-12.4867
lacio	-12.487
ru	-12.4872
▁castigos	-12.4892
ep	-12.4893
▁tentado	-12.4899
▁humo	-12.4901
▁turno	-12.4912
ndal	-12.4919
ennet	-12.492
▁anima	-12.4928
esta	-12.4931
▁pareciera	-12.4939
▁reco	-12.4946
▁encontrarl	-12.4947
▁usarl	-12.495
▁demanda	-12.4954
▁justifica	-12.4955
▁formab	-12.4962
stitucio	-12.4963
▁universitario	-12.497
rces	-12.4978
▁planetas	-12.4978
▁emil	-12.4988
▁acarici	-12.5
tanto	-12.5005
▁reine	-12.5007
▁barre	-12.5007
bro	-12.5014
▁sculo	-12.5023
▁moda	-12.5031
misio	-12.5033
▁pr	-12.5036
▁violan	-12.5036
▁burlan	-12.5044
▁sobrevive	-12.5052
▁tranquilizar	-12.5052
▁prefiera	-12.5057
nta	-12.5062
▁caiga	-12.5068
▁surg	-12.5072
▁escal	-12.5075
▁rub	-12.5076
grego	-12.5078
guardaba	-12.5085
rra	-12.509
▁apoyara	-12.5091
▁rebaj	-12.5092
▁memoriz	-12.5093
▁entreg	-12.5094
ois	-12.5095
▁deleito	-12.5104
▁cofr	-12.5115
▁critic	-12.5116
▁fabrica	-12.5117
▁marc	-12.5127
sto	-12.5127
▁pul	-12.5141
udez	-12.5143
▁desperdici	-12.5143
▁educado	-12.515
▁adir	-12.5155
▁quitarl	-12.5168
▁presenten	-12.5169
▁camer	-12.5176
▁edit	-12.5176
▁instant	-12.5176
▁perdiera	-12.5182
▁quin	-12.5184
▁andar	-12.5185
▁inspirad	-12.5201
▁comunican	-12.5203
rubi	-12.5204
ti	-12.5205
▁nigeria	-12.5214
lando	-12.5215
▁alcanzan	-12.5221
▁reanud	-12.5221
▁confiab	-12.5223
eso	-12.523
▁ofendi	-12.5239
namiento	-12.5244
▁cla	-12.526
▁permanezca	-12.5276
▁pretorian	-12.5278
▁azot	-12.5279
▁entende	-12.528
▁grues	-12.5283
▁paulo	-12.5284
▁sierv	-12.5284
▁cubierta	-12.5292
▁impuesto	-12.5297
▁residente	-12.5301
▁agresio	-12.5303
▁pesado	-12.5305
▁escon	-12.5306
▁callado	-12.5308
▁agente	-12.531
▁traj	-12.531
▁atraviesa	-12.5313
▁disculp	-12.5315
ulgari	-12.5315
▁nuclear	-12.532
▁felicit	-12.5324
▁convertid	-12.5328
▁detesta	-12.5329
▁efectua	-12.533
▁gord	-12.5332
▁samarita	-12.5332
▁amalequitas	-12.5333
▁castellano	-12.5333
▁colportor	-12.5333
▁delincuencia	-12.5333
▁emergencia	-12.5333
▁epafrodito	-12.5333
▁inagotabl	-12.5333
▁inquebrantable	-12.5333
▁jaracz	-12.5333
▁monetaria	-12.5333
▁nemrod	-12.5333
▁recipiente	-12.5333
▁sensatez	-12.5333
▁centavo	-12.5333
▁constantino	-12.5333
▁excelencia	-12.5333
▁incesante	-12.5333
▁memorable	-12.5333
▁previo	-12.5333
▁turistas	-12.5333
▁juramento	-12.5333
▁papiro	-12.5333
▁vocablo	-12.5333
▁tuvalu	-12.5333
▁desaliento	-12.5333
▁resistencia	-12.5333
▁viernes	-12.5333
▁epafr	-12.5333
▁catastro	-12.5333
▁global	-12.5333
▁insensible	-12.5333
▁exija	-12.5333
▁influido	-12.5333
▁insistencia	-12.5333
▁concebir	-12.5334
▁rechacemos	-12.5334
▁refrescar	-12.5334
▁budista	-12.5334
▁nariz	-12.5335
▁irreales	-12.5335
▁enfermeras	-12.5335
▁estatutos	-12.5335
▁luig	-12.5335
▁confortadora	-12.5335
▁convicciones	-12.5336
▁ansioso	-12.5336
▁depredad	-12.5336
▁cursiv	-12.5336
pat	-12.5336
▁cerrada	-12.5337
▁airado	-12.5337
▁sustituir	-12.5337
▁prensa	-12.5338
▁forzados	-12.5338
▁rtil	-12.5339
▁acostumbrar	-12.5339
▁distor	-12.5339
▁prisiones	-12.534
▁cobard	-12.534
▁perturbar	-12.534
▁invocar	-12.5341
▁turbulento	-12.5341
▁vengarnos	-12.5341
▁secreta	-12.5342
▁prominente	-12.5342
▁adhiri	-12.5343
▁nacionalidades	-12.5344
▁desquitar	-12.5345
▁arcill	-12.5345
▁sopla	-12.5346
▁expuesto	-12.5346
▁entusiasmado	-12.5346
▁demostraciones	-12.5348
▁obligatorio	-12.5348
▁despreciado	-12.5348
▁hinchado	-12.5348
▁ficamente	-12.5349
▁aband	-12.5349
▁aguantando	-12.5349
▁contribuido	-12.535
▁apren	-12.535
▁atenas	-12.535
▁bul	-12.5351
▁sobrevivido	-12.5351
▁muertas	-12.5351
▁rtico	-12.5351
▁vue	-12.5353
▁exigente	-12.5354
▁pronunciar	-12.5354
▁sermone	-12.5354
▁aliviado	-12.5355
▁clientes	-12.5356
▁transfiri	-12.5358
▁ocultas	-12.5359
▁protegerlo	-12.536
▁carnero	-12.5361
▁apellido	-12.5361
▁asombrado	-12.5361
▁oponerse	-12.5363
▁quieto	-12.5364
▁frustrados	-12.5366
▁lavados	-12.5367
▁cultiva	-12.5367
▁visitaban	-12.5367
▁vel	-12.5367
▁esparc	-12.5369
▁porvenir	-12.5369
▁conexio	-12.5373
▁populares	-12.5376
▁organizadas	-12.5377
▁carencia	-12.5378
dor	-12.5384
▁mezclar	-12.5386
▁grueso	-12.5386
▁rcol	-12.5389
▁oradores	-12.539
▁registrar	-12.539
▁relativas	-12.5391
▁sospecha	-12.5391
▁asustar	-12.5392
▁moldear	-12.5393
▁asimilar	-12.5393
▁experimento	-12.5397
mas	-12.5398
▁comenzando	-12.5404
ato	-12.5404
▁cuero	-12.5408
▁equivocados	-12.5408
▁bendici	-12.5411
▁levante	-12.5412
▁ganlo	-12.5413
▁remot	-12.5417
signacio	-12.5418
▁afrontan	-12.542
▁celd	-12.5425
▁cala	-12.5425
▁consiguen	-12.5431
▁sembrado	-12.5432
▁cuy	-12.5441
▁riado	-12.5442
▁trasladar	-12.5442
▁agu	-12.5443
ibl	-12.5443
▁abiertas	-12.5443
▁mosca	-12.5444
▁mediado	-12.5447
uso	-12.5447
▁hades	-12.5448
▁ltero	-12.545
▁dieta	-12.5458
▁descrita	-12.5459
▁apagar	-12.5459
▁rach	-12.5461
▁gratuito	-12.5462
▁paliz	-12.5471
▁recorr	-12.5471
▁limpiado	-12.5472
▁jabo	-12.5472
▁amoldar	-12.5474
▁ata	-12.5476
▁obedeciera	-12.5481
▁matado	-12.5485
▁hilo	-12.5485
▁enrique	-12.5507
ndab	-12.5511
▁prep	-12.5513
▁estipula	-12.5515
fuera	-12.5516
▁choc	-12.5518
▁ayuno	-12.5518
▁rmul	-12.5522
rada	-12.5524
▁renuncie	-12.5526
▁encarar	-12.5528
▁traig	-12.5528
▁nutri	-12.5534
▁fald	-12.5539
▁expia	-12.5551
▁exagerad	-12.5552
▁vuel	-12.5555
▁franco	-12.5556
▁identifico	-12.5557
▁psicolo	-12.5562
▁proporcio	-12.5563
▁coloca	-12.5567
▁gius	-12.5567
▁humed	-12.5571
▁morri	-12.5577
▁inspeccion	-12.5584
▁enlace	-12.5589
▁ponerle	-12.559
nzo	-12.5591
traten	-12.5592
▁aparecer	-12.5597
▁conteste	-12.5597
▁preparan	-12.5605
▁hinch	-12.5607
▁reinan	-12.5615
▁detenido	-12.563
▁imagino	-12.5635
ilian	-12.5637
▁administracio	-12.564
▁intereso	-12.5643
▁compre	-12.5646
▁necesitar	-12.5654
▁superfici	-12.5657
▁monto	-12.5667
▁condenada	-12.5667
▁expi	-12.5667
▁fracas	-12.5681
▁grip	-12.569
tim	-12.5695
▁lec	-12.57
▁tropeza	-12.5701
▁drag	-12.5704
▁aparicio	-12.5713
▁cometidos	-12.5713
▁supuesta	-12.5713
vuelta	-12.5716
stas	-12.572
mpartir	-12.5723
▁jas	-12.5728
▁denuncia	-12.5731
▁ordena	-12.5734
▁deba	-12.5741
od	-12.5742
▁gramo	-12.5744
ntens	-12.5747
▁barbar	-12.5757
▁tele	-12.5759
▁atienden	-12.576
ducido	-12.576
deo	-12.5761
▁pague	-12.5763
▁transcur	-12.5765
▁recomendar	-12.5766
▁gras	-12.5767
▁entregue	-12.5768
▁competicio	-12.5768
▁sagrados	-12.5774
▁conocerlos	-12.5776
ij	-12.5777
▁hier	-12.5779
ach	-12.5781
▁autoriz	-12.5789
▁oliv	-12.5796
end	-12.5796
anc	-12.5796
stro	-12.5808
iez	-12.5808
▁coinciden	-12.5809
▁complacer	-12.5812
metido	-12.5814
movidos	-12.5815
▁cantan	-12.5816
ctivamente	-12.5818
▁cret	-12.5836
▁panor	-12.5842
▁corona	-12.5843
▁interpretacio	-12.5844
▁vestid	-12.5844
ciden	-12.5848
dem	-12.5849
▁conc	-12.5849
▁emple	-12.5855
▁expan	-12.586
ham	-12.5863
▁manipular	-12.5869
▁pis	-12.587
▁aga	-12.5873
ald	-12.5876
▁arrojad	-12.5876
cuatro	-12.5891
tema	-12.5893
jab	-12.5895
▁get	-12.5901
erra	-12.5903
▁ine	-12.5904
gar	-12.5908
▁taz	-12.5911
▁santifica	-12.5911
ione	-12.5914
aci	-12.5914
▁pertenezc	-12.5927
vencio	-12.5938
izacio	-12.594
▁hait	-12.5955
▁teng	-12.5955
enci	-12.5956
▁amarga	-12.5966
▁ambicion	-12.5966
har	-12.5971
▁sob	-12.5985
▁sper	-12.599
▁lastim	-12.599
▁deriva	-12.5993
lab	-12.5996
▁mpar	-12.5998
▁reanim	-12.5999
▁fragmento	-12.6
▁centre	-12.6002
tr	-12.6003
▁cl	-12.6004
▁determinan	-12.6016
▁acaba	-12.6018
▁ril	-12.6022
▁ofreciera	-12.6036
▁incapac	-12.605
dalid	-12.6061
stoc	-12.6072
▁devolv	-12.6075
gobernab	-12.6076
tocab	-12.6083
itt	-12.6088
▁gre	-12.609
▁dor	-12.6093
jehov	-12.6096
▁consta	-12.6098
▁recor	-12.6105
ama	-12.611
▁ostento	-12.6113
▁retir	-12.6121
▁latinoam	-12.6123
▁promov	-12.6125
▁palabr	-12.6127
▁aliado	-12.6129
▁bric	-12.6131
▁asno	-12.6131
▁form	-12.6144
▁repudi	-12.6144
▁obedecie	-12.6145
▁constitu	-12.6148
▁brindan	-12.6151
▁observara	-12.6155
▁magi	-12.6158
▁levantan	-12.6161
▁usen	-12.6162
▁helado	-12.6169
▁enemig	-12.6174
istas	-12.6176
▁rescat	-12.6185
▁espantos	-12.6185
▁aprecian	-12.6186
▁gram	-12.6187
▁alejandr	-12.6188
▁reflexio	-12.6189
▁existier	-12.619
▁vecin	-12.619
▁represent	-12.619
▁enton	-12.6191
▁histor	-12.6191
▁jim	-12.6194
▁asombro	-12.6195
▁equipado	-12.6195
▁desv	-12.6203
▁camello	-12.6203
▁epidemia	-12.6205
▁asust	-12.6205
▁encarcela	-12.6206
▁agotar	-12.6206
▁barrera	-12.6208
▁protestante	-12.6208
▁cuchar	-12.621
▁adviert	-12.621
▁inmun	-12.6214
▁respetuoso	-12.6216
▁vanid	-12.6217
▁barb	-12.622
▁gent	-12.6221
▁calumniad	-12.6223
▁visitaba	-12.6224
▁concreto	-12.6224
▁sembra	-12.6224
▁infantil	-12.6228
▁insignificant	-12.6229
iones	-12.6229
▁racial	-12.6229
▁tuy	-12.623
▁nacionalidad	-12.623
▁interrumpir	-12.6231
▁impresa	-12.6234
ue	-12.6234
▁cansad	-12.6238
▁complejo	-12.6239
▁demuestr	-12.624
▁infeccio	-12.6241
▁blessing	-12.6242
▁eritrea	-12.6242
▁mecanismo	-12.6242
▁nefilim	-12.6242
▁portugal	-12.6242
▁secuaces	-12.6242
▁temperatur	-12.6242
▁cigarrillo	-12.6242
▁conveniencia	-12.6242
▁filadelf	-12.6242
▁similitud	-12.6242
▁fraude	-12.6242
▁piadado	-12.6242
▁crujir	-12.6242
▁derretir	-12.6242
▁exiliado	-12.6242
▁intensidad	-12.6242
▁acallar	-12.6242
▁solitario	-12.6242
▁despedida	-12.6242
▁electricidad	-12.6242
▁envejecimiento	-12.6242
▁innegabl	-12.6242
preciab	-12.6242
▁mpago	-12.6242
▁discapacidad	-12.6242
▁comunismo	-12.6242
▁competente	-12.6243
▁evadir	-12.6243
zila	-12.6243
▁restablecer	-12.6243
▁inseguridad	-12.6243
▁acequi	-12.6243
▁carec	-12.6243
▁gradual	-12.6243
▁mercaderes	-12.6244
▁fundado	-12.6244
▁ontario	-12.6244
▁presumir	-12.6244
▁indefenso	-12.6245
▁alquiler	-12.6245
▁choclo	-12.6245
▁discernir	-12.6245
▁centenar	-12.6245
▁partidario	-12.6245
▁cauteloso	-12.6245
▁palma	-12.6246
fonso	-12.6246
▁inseguro	-12.6246
▁abusar	-12.6246
▁concienzudo	-12.6248
▁medicamentos	-12.6248
▁amarg	-12.6248
▁libertar	-12.6249
▁apasionant	-12.6249
▁ensalzado	-12.6249
▁avione	-12.625
▁protestar	-12.625
▁palomas	-12.625
▁hambriento	-12.6251
ya	-12.6251
▁alivia	-12.6252
▁persiguier	-12.6253
▁incorruptibl	-12.6255
▁contemplen	-12.6256
▁teresado	-12.6261
▁balanza	-12.6261
▁moverse	-12.6263
▁enfrentado	-12.6264
▁multiplicar	-12.6264
▁tolerante	-12.6265
▁caud	-12.6265
▁ingenieros	-12.6266
▁oportunas	-12.6267
▁sostenido	-12.6268
▁curado	-12.6268
▁rgica	-12.6269
ina	-12.6269
▁apego	-12.6269
▁significativas	-12.6271
▁profesionales	-12.6271
▁remol	-12.6271
▁sugiri	-12.6271
▁encerrar	-12.6272
▁cirujano	-12.6273
▁hueco	-12.6273
▁sudam	-12.6274
▁vendedor	-12.6275
▁agradarlo	-12.6275
▁evitado	-12.6276
▁chile	-12.6277
▁decente	-12.6279
▁alabara	-12.6281
▁solicito	-12.6283
▁barreras	-12.6283
▁descarad	-12.6284
▁cediera	-12.6285
▁cursar	-12.6286
▁humillar	-12.6289
▁acabado	-12.6289
▁trazar	-12.6291
▁agentes	-12.6291
▁desalentad	-12.6291
▁cuidarnos	-12.6292
atriz	-12.6293
▁globo	-12.6294
▁obedezc	-12.6294
▁desanimen	-12.6296
▁escolar	-12.6297
▁puente	-12.6297
▁batallas	-12.6297
▁entiendan	-12.6299
▁alejandro	-12.6301
ndico	-12.6301
▁martin	-12.6301
▁sesio	-12.6302
▁abrigo	-12.6303
▁imaginado	-12.6305
▁expon	-12.6305
patriot	-12.6307
▁permanecier	-12.6308
▁italian	-12.6309
▁fluy	-12.631
▁implicado	-12.631
▁atesor	-12.6312
▁temibl	-12.6314
▁optar	-12.6314
▁deterioro	-12.6315
▁arregl	-12.6316
▁oficiales	-12.6316
▁acoso	-12.6317
▁paganos	-12.6317
▁flexibles	-12.6319
▁libere	-12.632
▁guarde	-12.632
▁padecen	-12.6321
▁peg	-12.6321
▁expresen	-12.6321
▁amargo	-12.6322
dice	-12.6322
▁sensible	-12.6323
▁strel	-12.6323
▁ofenden	-12.6324
▁angelo	-12.6325
▁arrepiento	-12.6327
▁deposita	-12.6327
▁lejanos	-12.6327
▁abb	-12.6328
▁contaminar	-12.6334
▁regresen	-12.6334
are	-12.6335
▁hechas	-12.6335
bre	-12.6336
▁rueg	-12.6336
▁ungid	-12.6336
▁denota	-12.6338
▁prediqu	-12.6342
tirnos	-12.6347
▁incit	-12.6347
▁adecuadas	-12.6349
abuc	-12.6349
▁acostumbrad	-12.635
▁desmay	-12.6352
▁facilita	-12.6355
▁asientos	-12.6357
▁picant	-12.6358
▁repartir	-12.6359
▁dejarlo	-12.636
operacio	-12.6361
▁perderse	-12.6366
▁originales	-12.6366
▁comprendido	-12.6368
acar	-12.6371
▁caen	-12.6373
▁faltara	-12.6374
▁tratarlo	-12.6375
▁particulares	-12.6376
ish	-12.6385
▁emborrach	-12.6388
▁orientar	-12.6388
▁tiende	-12.6393
▁perspica	-12.6394
ser	-12.6394
▁cansan	-12.6399
▁trago	-12.6399
ptit	-12.64
▁denuncio	-12.6401
▁asfixi	-12.6402
▁desolado	-12.6403
▁saliera	-12.6406
▁refr	-12.6406
arah	-12.6407
▁extensi	-12.641
▁ty	-12.6413
▁lculo	-12.6414
▁optimis	-12.6415
▁apoy	-12.6417
▁tardes	-12.6418
▁desprende	-12.6424
▁supon	-12.6424
sament	-12.6426
▁dicas	-12.6427
▁seguida	-12.6429
▁permanentes	-12.6433
▁expulsar	-12.6434
vida	-12.6437
▁hol	-12.6439
▁recorri	-12.6441
guera	-12.6447
▁jueg	-12.6448
rodilla	-12.645
▁poet	-12.6453
zar	-12.6456
▁extremid	-12.6458
▁someti	-12.6459
riv	-12.6463
▁disuelt	-12.6464
▁atacara	-12.6466
▁reconstruye	-12.6466
dav	-12.6469
he	-12.6473
▁lu	-12.6474
▁espinoso	-12.6476
▁bard	-12.6479
▁ofr	-12.6484
ura	-12.6491
timament	-12.6494
▁extraordinarios	-12.6512
▁encargan	-12.6516
▁bam	-12.6519
qui	-12.652
▁concentre	-12.6522
▁culp	-12.6527
▁desdichad	-12.6527
▁pusi	-12.6529
▁supuest	-12.6533
▁solado	-12.6535
▁dat	-12.6542
▁desat	-12.6543
remos	-12.6544
▁critico	-12.6547
▁causara	-12.6547
▁indicara	-12.655
▁servirles	-12.655
▁bre	-12.6551
▁desa	-12.6555
agaz	-12.6556
▁contener	-12.6556
▁promulg	-12.6559
▁alzar	-12.6562
enid	-12.6567
▁divide	-12.6579
▁exigir	-12.6579
cierra	-12.658
▁discre	-12.658
▁mate	-12.6581
▁caye	-12.6593
▁encanto	-12.6602
▁manej	-12.6605
rl	-12.6608
▁ag	-12.661
▁blando	-12.6615
▁imprimi	-12.662
emmel	-12.663
▁graduar	-12.6631
mbi	-12.6633
▁desleal	-12.6647
▁lis	-12.6654
daremo	-12.6664
▁jul	-12.6665
▁viaja	-12.6671
▁corint	-12.6675
▁alter	-12.6693
▁grab	-12.6703
▁madruga	-12.6706
▁gs	-12.6708
▁pesa	-12.6708
cada	-12.6716
▁ann	-12.6717
tamente	-12.6719
▁brind	-12.6729
▁comentaris	-12.6731
▁encomi	-12.6735
▁benef	-12.6735
▁proven	-12.6741
▁anti	-12.6744
▁transmit	-12.6747
▁aconsejar	-12.6748
▁condado	-12.6755
▁prepare	-12.6759
▁acus	-12.6764
▁regir	-12.6765
▁elena	-12.6777
▁adquiere	-12.6778
▁relaciona	-12.6781
▁biolo	-12.679
▁seleccio	-12.6794
▁pervers	-12.6798
▁abig	-12.6812
▁implacabl	-12.6814
▁import	-12.6816
▁consol	-12.6816
▁propon	-12.682
▁telo	-12.6822
rles	-12.6827
par	-12.683
▁registrado	-12.6837
▁apena	-12.6837
▁guil	-12.6845
▁padecer	-12.6847
ber	-12.6849
urgen	-12.6854
▁isma	-12.6863
chig	-12.6864
▁evangeliz	-12.6867
▁orad	-12.6873
▁gol	-12.6873
adore	-12.6876
▁procur	-12.6879
▁ministrar	-12.6879
▁previ	-12.6889
▁opone	-12.6894
▁parti	-12.6895
noch	-12.6903
rg	-12.6906
▁solicite	-12.6909
▁invitan	-12.691
▁nim	-12.6912
▁midos	-12.6912
▁demostrarlo	-12.6912
▁vem	-12.6915
▁garantizar	-12.6916
talmente	-12.6924
▁restaur	-12.6932
▁tenerla	-12.6933
▁albe	-12.6938
fundo	-12.6938
seman	-12.6939
▁elevar	-12.694
▁intr	-12.6945
▁coleccio	-12.6949
▁ang	-12.6953
▁aparecier	-12.6961
▁convencier	-12.6965
▁ponerla	-12.6966
nas	-12.6975
▁pap	-12.6983
▁deshacer	-12.6988
lar	-12.699
▁element	-12.7
ath	-12.7001
▁bast	-12.7013
triz	-12.7021
▁acorde	-12.7024
ilos	-12.7025
▁encabez	-12.7027
▁hel	-12.7029
ste	-12.7035
▁prote	-12.7038
▁coro	-12.7044
▁punt	-12.7051
▁ruido	-12.7052
▁cautiv	-12.7057
▁accedi	-12.7058
▁altas	-12.7069
▁precisam	-12.707
▁dia	-12.7075
llenado	-12.7076
▁cath	-12.7082
▁mediod	-12.7096
cas	-12.7102
▁sint	-12.712
▁librado	-12.7128
▁coraz	-12.7135
▁derrama	-12.7144
▁quede	-12.7145
▁comparti	-12.7148
▁interrump	-12.7152
entan	-12.716
▁embarazo	-12.716
▁limitan	-12.7163
▁blanc	-12.7165
▁acalorad	-12.7173
▁experiment	-12.7178
▁expulsad	-12.7182
▁egipci	-12.7186
▁caro	-12.7187
▁ocasiona	-12.7193
ctit	-12.7195
▁sazon	-12.7196
▁adhi	-12.7196
▁exponer	-12.7198
▁sustenta	-12.7198
▁claudi	-12.7199
▁fortalecier	-12.72
▁cotidiana	-12.7201
▁recordatorio	-12.7201
▁diagno	-12.7202
▁desacuerdo	-12.7203
▁flavi	-12.7204
▁gobernado	-12.7204
▁enciend	-12.7207
ncia	-12.7209
▁veneno	-12.7209
▁desarrollado	-12.7211
▁jovencit	-12.7211
▁ajeno	-12.7212
▁averig	-12.7212
ph	-12.7213
edeo	-12.7213
▁dibuj	-12.7214
▁riv	-12.7216
▁aleman	-12.7219
▁voluntaria	-12.7223
tars	-12.7225
▁tri	-12.723
▁ntegr	-12.723
▁ape	-12.7235
gu	-12.7236
▁arrepie	-12.724
asurer	-12.7242
▁aeropuerto	-12.7242
▁amuleto	-12.7242
▁domicilio	-12.7242
▁fugitivo	-12.7242
▁guacamayo	-12.7242
▁imborrabl	-12.7242
▁juvenil	-12.7242
▁longitud	-12.7242
▁paludismo	-12.7242
▁aprendizaje	-12.7242
▁interminabl	-12.7242
▁finlandia	-12.7242
▁ladrillo	-12.7242
▁rehoboam	-12.7242
▁silistra	-12.7242
▁escarnio	-12.7242
▁recapacit	-12.7242
▁club	-12.7242
▁preparativos	-12.7242
▁smith	-12.7242
▁sumergi	-12.7242
▁siberi	-12.7242
▁cumplida	-12.7242
▁huerto	-12.7242
▁terapia	-12.7243
▁triple	-12.7243
▁saltamontes	-12.7243
▁subsistir	-12.7243
▁correspondencia	-12.7243
▁velero	-12.7243
▁arquero	-12.7243
▁persiguiendo	-12.7243
▁vocero	-12.7243
▁democr	-12.7244
▁aborrezc	-12.7244
▁mbito	-12.7244
▁tablill	-12.7244
▁sobrenatural	-12.7244
▁represalias	-12.7245
▁respectivamente	-12.7245
▁equilibrar	-12.7245
▁transmitiendo	-12.7245
▁superioridad	-12.7245
▁inmuebles	-12.7245
▁descubierta	-12.7245
▁gradualmente	-12.7245
▁redimir	-12.7245
▁disciplinarlo	-12.7246
▁atinada	-12.7246
▁augusto	-12.7246
▁gregorio	-12.7246
▁recorrido	-12.7246
▁camione	-12.7247
▁comiera	-12.7247
▁llamarlo	-12.7247
▁allan	-12.7247
▁suicidio	-12.7247
▁tentarlo	-12.7248
▁desastrosa	-12.7248
▁nocivas	-12.7249
▁habitualmente	-12.7249
▁ampliamente	-12.725
▁destruyendo	-12.725
▁dispositivo	-12.7251
▁melis	-12.7251
▁campesino	-12.7252
▁tnico	-12.7252
▁materno	-12.7252
▁cancelar	-12.7252
▁corresponda	-12.7252
▁agencia	-12.7252
▁tocado	-12.7254
▁fundador	-12.7254
▁pescar	-12.7254
▁estallar	-12.7254
▁rectas	-12.7255
▁escolares	-12.7256
▁syd	-12.7256
▁prolongado	-12.7257
▁mitosos	-12.7257
▁albert	-12.7257
▁zanj	-12.7257
▁privilegiado	-12.7258
▁variar	-12.7259
▁conversio	-12.7259
▁robot	-12.7259
▁celestes	-12.7259
▁sensata	-12.726
▁donante	-12.7261
▁instruido	-12.7261
▁canales	-12.7263
▁atribuir	-12.7263
▁cabalmente	-12.7265
▁jen	-12.7266
▁gastad	-12.7267
▁estatura	-12.7267
▁renovar	-12.7267
▁arruinado	-12.7268
▁terminada	-12.7268
▁rechace	-12.727
▁planifica	-12.7271
▁gigante	-12.7272
▁animaban	-12.7272
▁integrada	-12.7273
▁desarrollarse	-12.7273
▁inexpertos	-12.7276
▁implicar	-12.7278
▁bebiendo	-12.7278
▁etc	-12.7278
▁plagado	-12.728
▁anhela	-12.728
▁yelmo	-12.7283
▁jugo	-12.7283
▁rango	-12.7283
▁volar	-12.7286
▁repase	-12.7286
▁montado	-12.7286
▁profesio	-12.7288
▁alimentarse	-12.7289
▁emocionado	-12.7289
▁bonos	-12.7289
▁auxiliares	-12.729
▁gobernando	-12.729
▁gue	-12.729
▁respetarlo	-12.7291
▁valoro	-12.7292
▁ardua	-12.7293
▁calumniador	-12.7293
▁grabar	-12.7293
▁imaginario	-12.7294
▁anillo	-12.7297
▁conocie	-12.7298
▁jovencito	-12.7299
▁cumbre	-12.7299
▁divorciado	-12.73
▁alb	-12.73
▁sacrificado	-12.7302
▁south	-12.7302
▁apel	-12.7303
▁honrarlo	-12.7304
▁preparadas	-12.7306
▁empleada	-12.7307
▁capturar	-12.7309
▁comentan	-12.731
▁estimula	-12.731
▁grabados	-12.731
▁mueran	-12.7314
eficiar	-12.7314
▁opuesta	-12.7316
▁aumentan	-12.7317
▁tragedias	-12.7319
▁aburrido	-12.7319
ofe	-12.732
▁brote	-12.7322
mu	-12.7325
▁ptic	-12.7325
▁seglar	-12.7326
▁trenz	-12.7329
▁frustrar	-12.7331
▁cabellos	-12.7332
▁invitada	-12.7332
▁comunist	-12.7333
▁hoz	-12.7335
▁gil	-12.7336
▁cojo	-12.7342
illo	-12.7343
▁pascual	-12.7344
▁viviendas	-12.7345
▁realizada	-12.7346
▁asesinados	-12.7347
▁visibles	-12.7349
▁alcanzab	-12.7353
▁limitados	-12.7355
tos	-12.7356
eng	-12.7362
▁actualiz	-12.7362
▁tonto	-12.7362
▁agobi	-12.7365
▁depositar	-12.7365
▁pulmo	-12.7369
▁dama	-12.7369
▁cultivo	-12.7371
▁conceptos	-12.7372
▁llevarlas	-12.7373
▁entrenad	-12.7373
chell	-12.7375
▁beer	-12.7378
▁buscarlo	-12.7381
corazon	-12.7381
▁beso	-12.7381
▁apuro	-12.7383
▁guardo	-12.7389
▁respondier	-12.7399
▁accidentes	-12.7401
▁ejecutados	-12.7403
▁invoca	-12.7404
▁helad	-12.7404
▁huyo	-12.7404
▁comprenderl	-12.7409
▁guiando	-12.7409
▁x	-12.7411
arte	-12.7415
plan	-12.7418
▁presiden	-12.7418
▁angustiad	-12.7419
▁beth	-12.7421
▁altruist	-12.7423
▁apoyen	-12.7433
▁vengu	-12.7434
▁disfruten	-12.7438
▁profetis	-12.744
▁distribuyer	-12.7446
▁inscribi	-12.745
▁nuera	-12.7453
▁orientacio	-12.7454
cantar	-12.7457
▁charl	-12.7457
▁provocan	-12.7458
▁telefo	-12.7463
▁excesos	-12.7465
▁indeciso	-12.7468
▁reprendi	-12.7472
og	-12.7475
▁generales	-12.7476
sesio	-12.7476
▁suplic	-12.7479
▁gr	-12.7481
▁nsul	-12.7483
▁porn	-12.7488
▁refleje	-12.749
▁escondit	-12.7492
▁rudol	-12.7494
lqui	-12.75
▁sucio	-12.7512
▁cabalg	-12.7514
pe	-12.7515
gustado	-12.7515
ciale	-12.752
▁turqu	-12.7521
▁viol	-12.7522
▁asumi	-12.7522
▁punz	-12.7523
▁admit	-12.7526
▁conserva	-12.7526
▁agricult	-12.7528
▁pest	-12.7528
▁remunerad	-12.7532
▁alcancen	-12.7536
▁cue	-12.7541
▁formara	-12.7545
diab	-12.7552
▁mov	-12.7559
▁ayudantes	-12.7566
ticament	-12.7566
▁nacidos	-12.7572
▁delgad	-12.758
▁animados	-12.7582
▁describ	-12.7595
diendo	-12.7601
iv	-12.7603
▁espig	-12.7616
puesta	-12.7628
▁detenga	-12.7628
▁ejecuto	-12.763
sagrada	-12.7634
tendr	-12.764
▁combin	-12.7646
▁disput	-12.7649
alo	-12.7649
vitamo	-12.7651
▁completas	-12.7652
▁denni	-12.7654
▁caf	-12.7659
▁aconteci	-12.7659
bibl	-12.7666
▁toqu	-12.767
tuvieran	-12.7675
▁vic	-12.768
▁gu	-12.7685
▁osamente	-12.7692
stante	-12.7692
▁mido	-12.7695
▁ible	-12.7697
▁transforme	-12.7699
▁angustios	-12.77
▁col	-12.7701
▁dedicada	-12.7702
▁entenderl	-12.7707
bras	-12.7709
luy	-12.7709
▁arado	-12.7725
▁encamin	-12.7728
▁coleg	-12.773
uc	-12.7733
▁hit	-12.7738
▁opon	-12.7743
▁droga	-12.7743
▁aborda	-12.7747
▁abn	-12.775
▁atrever	-12.7752
▁rr	-12.7756
▁guard	-12.7765
▁satisfac	-12.7765
▁estimado	-12.7767
▁firm	-12.778
▁corresponder	-12.7794
▁med	-12.7797
▁matu	-12.7801
▁abrumado	-12.7811
▁utilizara	-12.7811
▁desobedece	-12.7812
▁sorprendi	-12.7821
▁enviarlo	-12.7821
▁dominan	-12.7823
▁practic	-12.7828
▁mencion	-12.7829
▁suspir	-12.7835
▁abrig	-12.7855
▁sopl	-12.7858
▁parar	-12.7859
▁hech	-12.7863
▁ejecutara	-12.7871
▁ard	-12.7888
ers	-12.79
▁dispar	-12.7911
▁mas	-12.7925
▁pasada	-12.7929
▁desagradar	-12.7937
▁reten	-12.7945
▁cha	-12.7946
narc	-12.7954
tent	-12.7957
▁diab	-12.7959
▁demu	-12.7962
▁fran	-12.7964
▁entrab	-12.7966
▁ves	-12.7967
▁cercan	-12.7968
▁ayudarse	-12.7972
▁jab	-12.7974
rramada	-12.7995
▁elimine	-12.7998
▁coincide	-12.8
ip	-12.8007
▁incons	-12.8011
tio	-12.8015
▁quie	-12.8016
▁carl	-12.802
retan	-12.802
▁contemplan	-12.8022
▁seleccionado	-12.803
nombre	-12.8042
▁oxi	-12.8043
▁lib	-12.8043
▁testimoni	-12.8047
▁terminab	-12.8049
iquem	-12.8051
▁clamo	-12.8052
▁hereda	-12.8053
▁derrame	-12.8055
▁vigila	-12.8059
▁maiz	-12.8068
▁melo	-12.8069
ubin	-12.807
▁infalibl	-12.8077
▁manch	-12.8078
▁felic	-12.8085
▁bajas	-12.8087
▁devuelto	-12.8095
per	-12.8095
▁espinos	-12.8098
▁grat	-12.8099
▁casara	-12.81
▁piz	-12.8108
▁jubila	-12.8109
parecido	-12.811
▁alarma	-12.8119
▁muertes	-12.8122
▁suicid	-12.8124
▁despreciar	-12.8124
▁nd	-12.8125
▁arroj	-12.8128
▁prosper	-12.8129
▁enfrentaba	-12.8135
▁perdidos	-12.8143
▁contestacio	-12.8143
▁crece	-12.815
eja	-12.815
▁design	-12.8152
▁post	-12.8155
▁bris	-12.8157
▁arqueo	-12.8164
▁progresa	-12.8171
▁adop	-12.8171
sin	-12.818
lay	-12.8184
▁observacio	-12.8189
▁asco	-12.8192
cer	-12.8193
▁resolvi	-12.8205
▁compromet	-12.8207
▁debi	-12.8208
▁causante	-12.8209
ras	-12.8226
▁bull	-12.8226
olin	-12.8239
imiento	-12.8241
▁desle	-12.8247
▁inclina	-12.8256
▁relativ	-12.8265
uev	-12.8281
embro	-12.8283
▁afan	-12.8287
▁imponer	-12.8289
afir	-12.8293
▁ancian	-12.8293
▁ctric	-12.8296
▁adorn	-12.8298
▁prefigur	-12.8298
▁divorciad	-12.8299
▁q	-12.8305
▁inscrito	-12.8307
▁sustancia	-12.8308
▁aloj	-12.8311
▁construid	-12.8311
ul	-12.8311
▁salvarl	-12.8312
▁moj	-12.8313
▁conduj	-12.8316
▁aceptable	-12.8316
▁minuto	-12.8317
▁gigant	-12.8318
▁afectada	-12.8319
▁vigente	-12.8321
▁conmovido	-12.8321
▁manifest	-12.8323
▁gat	-12.8324
selv	-12.8327
▁garantizad	-12.8329
▁refugiado	-12.833
risto	-12.8332
▁sient	-12.8333
▁pareci	-12.8336
▁agradecer	-12.8338
▁recomendabl	-12.8342
▁elegi	-12.8344
▁delicado	-12.8347
ashington	-12.8353
▁contrarrestar	-12.8353
▁disminuido	-12.8353
▁eunuco	-12.8353
▁hereditari	-12.8353
▁imperdonabl	-12.8353
▁inocencia	-12.8353
▁letonia	-12.8353
▁musulmanes	-12.8353
▁namibia	-12.8353
▁noviazgo	-12.8353
▁sepulcro	-12.8353
▁tuberculosis	-12.8353
▁ucrania	-12.8353
▁vanaglori	-12.8353
▁adeptos	-12.8353
▁cuneiform	-12.8353
▁deficiencia	-12.8353
▁insensatez	-12.8353
▁extremadamente	-12.8353
▁virgini	-12.8353
▁aislamiento	-12.8353
▁racismo	-12.8353
▁requerimiento	-12.8353
▁lutero	-12.8353
▁grupito	-12.8353
▁honestidad	-12.8353
▁abiram	-12.8353
▁autocontrol	-12.8353
▁madianit	-12.8353
▁paisaje	-12.8353
▁fervoros	-12.8353
▁impotente	-12.8353
▁galaxi	-12.8353
▁jehoram	-12.8353
▁desaparezca	-12.8354
▁berea	-12.8354
▁moabita	-12.8354
▁trauma	-12.8354
▁nichol	-12.8354
▁oposit	-12.8354
▁imponente	-12.8355
▁mutua	-12.8355
▁envidioso	-12.8355
orld	-12.8355
▁discutiendo	-12.8356
▁desparram	-12.8356
▁leonard	-12.8356
▁fundidos	-12.8356
▁malinter	-12.8356
▁terrorista	-12.8356
▁intercambiar	-12.8356
▁sucesiv	-12.8357
▁agrip	-12.8357
▁engendrado	-12.8357
tuari	-12.8357
▁grafo	-12.8357
▁victor	-12.8357
▁estribos	-12.8358
▁aspirar	-12.8358
▁humillante	-12.8358
▁tbol	-12.8358
▁descontento	-12.8358
▁celebraciones	-12.8359
▁ticipara	-12.8359
▁borrado	-12.8359
▁hielo	-12.836
▁chof	-12.836
▁escar	-12.8361
▁resentido	-12.8361
▁etni	-12.8362
sea	-12.8362
▁empeorar	-12.8362
▁sediento	-12.8362
▁desbara	-12.8363
▁observadores	-12.8364
▁presionar	-12.8364
▁pegado	-12.8365
▁instruy	-12.8365
▁alborozo	-12.8365
▁dictar	-12.8365
▁despedir	-12.8365
▁impuro	-12.8365
▁inventado	-12.8366
▁replet	-12.8367
▁embajador	-12.8367
▁cristal	-12.8367
rte	-12.8367
▁despacio	-12.8368
▁poncho	-12.8368
▁georgia	-12.8368
▁recurso	-12.8369
▁dotados	-12.837
▁estir	-12.837
▁considerada	-12.837
▁tostado	-12.837
▁cegado	-12.8371
▁aplique	-12.8371
▁nacida	-12.8371
▁sostuvo	-12.8372
▁excesivo	-12.8372
▁federal	-12.8373
▁cancionero	-12.8373
▁atributo	-12.8374
▁insultar	-12.8374
▁expresan	-12.8375
▁ajenas	-12.8375
▁africano	-12.8375
▁reportar	-12.8375
▁arrepenti	-12.8376
▁innecesarios	-12.8376
▁menospreci	-12.8376
▁perplejo	-12.8377
▁habitar	-12.8378
▁habitan	-12.838
▁acaz	-12.838
▁oprim	-12.8381
▁millar	-12.8383
▁despojo	-12.8383
▁distorsionad	-12.8384
▁absurdo	-12.8384
▁osario	-12.8384
▁bombas	-12.8386
▁maltratar	-12.8386
▁inferiores	-12.8386
▁armados	-12.8387
▁viudo	-12.8388
▁acertadas	-12.839
▁atraviesan	-12.8391
▁inventar	-12.8391
▁pidiera	-12.8392
▁socios	-12.8392
▁lluvias	-12.8395
▁theodo	-12.8396
▁burlab	-12.8398
▁avergonz	-12.8399
▁comieran	-12.8399
▁radical	-12.8399
▁cerdos	-12.8399
▁consolarlo	-12.8402
mato	-12.8403
▁piedad	-12.8407
rin	-12.8409
▁puras	-12.841
▁acaec	-12.841
▁reunier	-12.841
▁suspiro	-12.841
rans	-12.8411
▁presumido	-12.8414
▁desollad	-12.8416
▁denario	-12.8416
▁construyendo	-12.8418
▁delincuentes	-12.842
▁luche	-12.842
▁desconoc	-12.8422
▁manejo	-12.8424
chado	-12.8424
▁atacan	-12.8425
▁consumen	-12.8426
▁creerlo	-12.8426
▁smo	-12.843
▁rindi	-12.843
▁deseables	-12.843
▁resolverse	-12.843
▁gustaban	-12.8431
▁asusto	-12.8431
▁sufriera	-12.8434
▁huellas	-12.8436
▁llevada	-12.8436
▁resolverlos	-12.8438
▁apa	-12.8442
rificar	-12.8443
▁motivada	-12.8444
▁comprometido	-12.8448
▁elogi	-12.8448
▁encuentren	-12.8449
▁taurante	-12.8452
▁duelen	-12.8454
▁abstener	-12.8457
▁escritorio	-12.8457
▁borde	-12.8459
▁olvidarse	-12.8461
▁rtol	-12.8462
oyo	-12.8462
▁ion	-12.8464
▁ntaro	-12.8465
cayendo	-12.8466
solacio	-12.8471
▁desobedecie	-12.8472
▁propuesto	-12.8474
▁cumplieran	-12.8475
▁suaviz	-12.8477
ctuo	-12.8477
espalda	-12.8477
▁existan	-12.8479
▁decepcionar	-12.8483
▁equip	-12.8487
▁censuro	-12.8487
▁participen	-12.849
▁incen	-12.8491
▁superab	-12.8493
lt	-12.8493
▁coc	-12.8496
▁amorosa	-12.8499
▁reforma	-12.8504
▁venc	-12.8507
saban	-12.8508
torr	-12.8509
bajado	-12.8514
▁etiquet	-12.8516
▁alejara	-12.8517
▁interpret	-12.8517
▁perm	-12.8517
▁comprenderlo	-12.8522
▁band	-12.8524
zca	-12.8525
▁santific	-12.8525
sivo	-12.8528
▁conmuev	-12.8528
▁amargar	-12.8534
▁atravesa	-12.8536
▁muestr	-12.8539
▁comprendier	-12.8544
▁intenta	-12.8544
▁formular	-12.8546
sch	-12.8548
▁japones	-12.8549
▁laur	-12.8549
ayo	-12.8553
vo	-12.8553
▁rocos	-12.8555
▁firmar	-12.8564
tento	-12.8568
▁enfatiz	-12.857
▁respectiva	-12.8575
▁devuelva	-12.8575
▁velar	-12.8579
▁salgo	-12.858
▁recog	-12.8585
▁etapas	-12.8586
▁combina	-12.8588
▁aceptarl	-12.8593
▁mejore	-12.8594
▁inund	-12.8597
▁oportunos	-12.8599
▁vere	-12.8599
▁privar	-12.8602
▁cumplirlo	-12.8605
▁evitarse	-12.8606
▁cruzo	-12.8606
▁rega	-12.8609
▁americano	-12.8612
▁may	-12.8612
▁salven	-12.8613
▁viola	-12.8614
▁past	-12.8615
▁nsito	-12.8618
▁rusa	-12.8618
▁contaminado	-12.8622
ros	-12.8623
▁divorcios	-12.8628
▁contados	-12.863
cabab	-12.863
▁personalidades	-12.8631
▁peculiar	-12.864
▁subray	-12.8643
▁grabad	-12.8646
eveland	-12.8647
lmente	-12.8649
▁capacidades	-12.8649
cerco	-12.8656
▁bautizad	-12.8658
ven	-12.8658
▁rom	-12.8659
▁canal	-12.8661
▁provocacio	-12.8663
▁mide	-12.8664
▁abrigar	-12.8664
▁emborrachar	-12.8664
▁enterr	-12.8669
▁tirad	-12.8672
▁divertir	-12.8678
gio	-12.8679
▁opinab	-12.8682
▁neg	-12.8683
▁metiera	-12.8686
▁absten	-12.8686
▁llevarla	-12.8688
habl	-12.8693
▁chu	-12.8697
▁positivas	-12.8702
▁deseado	-12.8704
▁eval	-12.8705
▁creciera	-12.871
▁torc	-12.8711
▁carbon	-12.8713
▁implor	-12.8725
▁desin	-12.8727
stim	-12.873
▁abrum	-12.8732
▁entristec	-12.8733
▁contrarios	-12.8735
▁cambien	-12.8745
▁reconcilia	-12.8748
▁jubil	-12.8754
▁ones	-12.8754
orca	-12.8755
▁age	-12.8761
trago	-12.8764
▁ave	-12.877
gan	-12.877
▁adivin	-12.878
irm	-12.8781
▁propag	-12.8788
▁gorrio	-12.8789
▁amigable	-12.879
ansa	-12.8791
▁merc	-12.8791
nic	-12.8795
▁replic	-12.8798
celado	-12.8802
▁preciad	-12.8806
▁basab	-12.8809
▁hund	-12.8811
▁cargos	-12.8812
gin	-12.882
▁navega	-12.8822
xido	-12.8823
▁desgast	-12.8828
▁tran	-12.8832
▁freder	-12.8838
▁agotador	-12.8846
▁consegui	-12.8847
▁cierr	-12.885
fo	-12.8851
▁mach	-12.8856
▁joe	-12.886
▁querr	-12.8861
▁cosechas	-12.8874
▁acced	-12.8876
▁prestan	-12.8876
▁cun	-12.8876
▁asciende	-12.8878
▁nacen	-12.888
▁beben	-12.8881
▁ascend	-12.8894
▁nutrido	-12.8894
ista	-12.8896
▁volc	-12.8898
▁llevarl	-12.8908
▁apropiados	-12.8913
ueve	-12.8926
▁tenerlo	-12.8932
ere	-12.8939
▁presume	-12.894
▁chel	-12.8944
▁agres	-12.8945
▁sacan	-12.895
▁afecte	-12.8952
▁progresos	-12.8955
duce	-12.896
arrollar	-12.8966
▁invitarlo	-12.8967
juicio	-12.8967
tro	-12.8977
▁rpret	-12.8979
ryl	-12.8982
▁maltrata	-12.8988
▁espacios	-12.8993
tuci	-12.8997
▁compadec	-12.9005
▁itado	-12.9005
▁reden	-12.9005
▁fortun	-12.9008
▁deshonran	-12.9009
▁juga	-12.901
▁expect	-12.9015
▁asegure	-12.9018
▁recti	-12.9022
directos	-12.9027
▁quiebr	-12.9031
▁prevenir	-12.9031
sis	-12.9034
▁fan	-12.9041
▁alquil	-12.9045
▁agarrar	-12.9045
▁examinad	-12.9045
▁dict	-12.9053
▁maravill	-12.9055
▁avanzado	-12.9056
aqu	-12.9065
of	-12.9069
▁capricho	-12.9076
chaque	-12.908
▁transform	-12.908
▁dure	-12.9082
▁marchit	-12.9083
▁fecund	-12.9096
elen	-12.91
▁seguras	-12.9104
▁purific	-12.9114
concebida	-12.9119
▁durmier	-12.9123
▁muert	-12.9123
▁ronda	-12.9125
bato	-12.9125
▁circuitos	-12.9126
▁equivoc	-12.9132
▁hubier	-12.9138
▁divid	-12.9146
▁entr	-12.9147
▁turn	-12.9154
▁persuadir	-12.9157
vi	-12.9158
▁eduque	-12.9165
lado	-12.9166
pertur	-12.9172
▁rompi	-12.9172
▁exclusiv	-12.9175
pas	-12.9177
reja	-12.9179
▁traspasa	-12.918
▁rot	-12.918
plicaciones	-12.9186
▁remediar	-12.919
▁mencionarl	-12.9194
van	-12.9194
▁mora	-12.92
▁renov	-12.9208
gant	-12.9208
▁fornica	-12.9209
▁abej	-12.9209
icio	-12.9214
▁felicita	-12.9214
▁vigile	-12.9225
▁fre	-12.923
▁hiri	-12.9233
▁tris	-12.9235
rece	-12.9245
▁ciega	-12.9249
▁fundar	-12.9253
▁brom	-12.9254
▁sext	-12.9261
▁ciente	-12.9264
mento	-12.9269
▁enroll	-12.9272
dra	-12.928
▁lle	-12.9283
▁contam	-12.929
enes	-12.9292
rab	-12.9294
▁pensad	-12.9308
tando	-12.9316
▁ganara	-12.9318
▁suponer	-12.9326
▁inv	-12.9331
▁sepi	-12.9336
▁pein	-12.9348
▁mesas	-12.9354
▁adam	-12.9355
adas	-12.936
nut	-12.9361
▁vindica	-12.9365
fruct	-12.9365
▁valorar	-12.9368
▁vituper	-12.9378
▁atendi	-12.9379
▁cuidarl	-12.938
▁oral	-12.9383
cemo	-12.9387
sp	-12.9394
▁causab	-12.9403
▁inmens	-12.9409
▁ru	-12.9417
▁seguirl	-12.9423
▁suel	-12.9426
activos	-12.9439
ijo	-12.9446
▁innecesari	-12.9466
▁arp	-12.9467
lg	-12.9471
▁beneficiosa	-12.9476
ong	-12.9477
▁hig	-12.9484
▁ovejit	-12.9486
▁lat	-12.9491
ion	-12.9492
teor	-12.9494
▁derson	-12.9494
▁fur	-12.9496
▁inculc	-12.9497
▁suministro	-12.9505
▁manifesta	-12.9512
▁adn	-12.9516
enlace	-12.9517
▁discapacitad	-12.9532
▁perfeccionad	-12.9532
▁clav	-12.9533
▁adorarl	-12.9534
▁deci	-12.9536
▁arraigad	-12.9539
▁anticuad	-12.9545
sburg	-12.9545
▁perturb	-12.9546
▁antepone	-12.9549
▁anunciar	-12.955
▁hospitalari	-12.9551
▁recomiend	-12.9554
▁traicionar	-12.9555
nque	-12.9555
du	-12.9556
▁ataqu	-12.9558
▁magistr	-12.9561
▁ajustado	-12.9563
▁maestr	-12.9564
▁preferencia	-12.9564
▁ll	-12.9565
▁acertada	-12.9565
▁productiva	-12.9566
▁persiste	-12.9566
▁inexperto	-12.9566
▁absort	-12.9567
▁fer	-12.9569
▁monumento	-12.9571
▁claud	-12.9574
▁dominante	-12.9575
▁corrija	-12.9576
▁canane	-12.9576
▁castigado	-12.9577
▁sangr	-12.9577
▁arreglado	-12.9578
▁deprimid	-12.9582
▁pist	-12.9583
▁pasajero	-12.9583
▁venenos	-12.9589
▁altruis	-12.9589
▁regional	-12.959
▁comerciant	-12.9591
▁adicional	-12.9591
▁madi	-12.9596
▁reprend	-12.9597
▁intac	-12.9599
▁indefin	-12.9602
▁capernaum	-12.9603
▁credibilidad	-12.9603
▁desprevenido	-12.9603
▁destierro	-12.9603
▁flexibilidad	-12.9603
▁hallazgo	-12.9603
▁horizont	-12.9603
▁incertidumbre	-12.9603
▁insuperabl	-12.9603
▁msterdam	-12.9603
▁oholiab	-12.9603
▁palestina	-12.9603
▁primordial	-12.9603
▁servidumbre	-12.9603
▁concierne	-12.9603
▁fiambre	-12.9603
▁hemorragi	-12.9603
▁tropical	-12.9603
▁discordia	-12.9603
▁ammonita	-12.9603
▁rumores	-12.9603
▁suciedad	-12.9603
▁certificado	-12.9603
▁comestibl	-12.9603
▁cuaderno	-12.9603
▁inapro	-12.9603
▁relevan	-12.9603
▁incansable	-12.9603
▁reencuentro	-12.9603
▁horeb	-12.9603
▁validez	-12.9603
▁cionara	-12.9603
▁entronizado	-12.9603
▁impiedad	-12.9603
▁fallecimiento	-12.9603
▁abortar	-12.9603
▁arameo	-12.9603
▁ecosistema	-12.9603
▁mochil	-12.9603
▁pueblito	-12.9603
▁competencia	-12.9604
▁trozo	-12.9604
▁nazareno	-12.9604
▁plegari	-12.9604
▁johann	-12.9604
▁insolente	-12.9604
▁deliberadamente	-12.9604
▁encerrado	-12.9604
▁invertir	-12.9604
▁mutuo	-12.9604
▁dirigente	-12.9604
▁pate	-12.9605
▁felicitamos	-12.9605
▁incans	-12.9605
▁desconocida	-12.9605
▁emlyn	-12.9605
▁refuerza	-12.9605
▁licencia	-12.9605
▁desigualdad	-12.9605
▁quebec	-12.9605
▁frecuentemente	-12.9605
▁aconsejable	-12.9605
▁elaborar	-12.9605
▁colgado	-12.9605
▁seguimiento	-12.9605
▁complicado	-12.9606
▁ciliado	-12.9606
▁bienvenido	-12.9606
▁complicaciones	-12.9606
▁compleja	-12.9607
▁tradicionales	-12.9607
▁debates	-12.9607
▁terror	-12.9607
▁empeorado	-12.9607
▁sobrehumana	-12.9607
▁presidir	-12.9608
▁aprieto	-12.9608
▁perezoso	-12.9608
▁abandonada	-12.9608
olf	-12.9608
▁empeorando	-12.9609
▁arraigadas	-12.9609
▁frustrado	-12.9609
▁devorado	-12.9609
▁manzan	-12.9609
▁genuino	-12.9609
▁surcos	-12.9609
▁gemido	-12.961
▁apegar	-12.961
▁tejido	-12.961
▁itables	-12.9611
▁verbales	-12.9611
▁transformado	-12.9611
▁necesitadas	-12.9612
▁definitivamente	-12.9613
▁intacta	-12.9613
▁crimen	-12.9614
▁enfado	-12.9614
▁consumiendo	-12.9615
▁ingenuo	-12.9615
▁difundida	-12.9615
▁rencoroso	-12.9615
▁influyentes	-12.9615
▁paralizado	-12.9616
▁resolverlo	-12.9616
▁litro	-12.9616
▁consecuente	-12.9616
▁familiarizado	-12.9617
▁estall	-12.9617
▁acostado	-12.9617
▁provocativ	-12.9617
▁aborto	-12.9617
▁distintiv	-12.9617
▁contristando	-12.9618
▁bolsas	-12.9618
▁alborozar	-12.9618
▁alquilar	-12.9619
▁latina	-12.9619
▁instinto	-12.9619
▁avergonzado	-12.9619
▁complacerlo	-12.962
▁afectarnos	-12.962
▁concordar	-12.9621
▁ciudadano	-12.9621
▁rendirnos	-12.9621
▁circuncidado	-12.9621
▁blasfem	-12.9622
▁consumido	-12.9622
▁impus	-12.9622
▁separadas	-12.9623
▁grosero	-12.9623
▁injustamente	-12.9623
▁vergonzoso	-12.9623
▁desventaja	-12.9623
▁culturales	-12.9624
sibilidad	-12.9624
▁agitado	-12.9625
▁juguete	-12.9626
▁solarnos	-12.9627
▁exterminar	-12.9627
▁tap	-12.9627
▁destaque	-12.9627
▁gemelos	-12.9628
▁recalcar	-12.9629
▁gritando	-12.9629
▁conferencia	-12.9629
▁anualmente	-12.963
▁corrijan	-12.963
tilidad	-12.963
▁optimismo	-12.963
▁azotar	-12.9631
▁hijito	-12.9632
▁moldeando	-12.9632
▁cantando	-12.9633
▁existieran	-12.9634
▁retroced	-12.9634
▁competitivo	-12.9635
▁otorgar	-12.9635
▁extraviado	-12.9635
▁intercambio	-12.9636
▁abrasad	-12.9638
▁alabado	-12.9638
▁exhibir	-12.9638
▁repetido	-12.9639
▁manuales	-12.9639
▁diminuto	-12.9639
▁amarillo	-12.964
▁estudiaban	-12.964
▁malignos	-12.9641
▁peleando	-12.9641
▁aprendier	-12.9642
▁ordenada	-12.9642
▁vulgo	-12.9643
▁esclavizado	-12.9644
▁abandonan	-12.9645
▁hacienda	-12.9646
▁acortar	-12.9647
▁predomin	-12.9647
▁enumerar	-12.9648
▁pasajeros	-12.9648
▁detenerlo	-12.9648
▁ofrezcan	-12.9648
manu	-12.9649
▁gamal	-12.9649
▁disparar	-12.9649
▁concebido	-12.9649
▁complejas	-12.9649
▁ubicado	-12.9649
▁exclamar	-12.9651
▁compone	-12.9651
▁deshonesta	-12.9652
▁sutiles	-12.9654
▁concubina	-12.9654
▁sirios	-12.9654
▁apoyarlo	-12.9654
▁delicados	-12.9656
▁aguda	-12.9656
▁cronolo	-12.9656
▁absorto	-12.9658
▁fiscales	-12.9658
▁piado	-12.9659
▁granito	-12.9659
▁mensual	-12.966
▁literales	-12.9662
▁acobardar	-12.9662
▁sobreveng	-12.9662
▁ingresar	-12.9663
▁ch	-12.9663
▁alargar	-12.9664
▁molle	-12.9664
▁blasfemo	-12.9665
▁corregirlo	-12.9666
▁times	-12.9667
▁bigot	-12.9667
▁fijas	-12.9668
▁ilegal	-12.9668
▁fijan	-12.9671
▁gordo	-12.9671
adament	-12.9672
bemo	-12.9672
▁guiarlos	-12.9673
▁deducir	-12.9674
▁centrales	-12.9674
▁aislados	-12.9674
▁contagios	-12.9675
▁adicto	-12.9676
▁ocurrier	-12.9676
▁desobedecen	-12.9677
▁consejeros	-12.9679
▁sirvieran	-12.9679
▁cr	-12.9679
▁dependencia	-12.968
▁dificulta	-12.9681
▁compasiv	-12.9681
roth	-12.9681
▁financiera	-12.9684
▁descuidado	-12.9686
▁acertado	-12.969
▁ceremonias	-12.9691
▁distribuyen	-12.9691
▁sellados	-12.9691
▁cuidad	-12.9691
▁lanzado	-12.9693
▁lavado	-12.9696
▁preocupada	-12.9698
▁cordi	-12.9699
▁ptico	-12.97
riendo	-12.9701
▁nombramientos	-12.9702
▁expus	-12.9703
▁contratar	-12.9704
▁reanudar	-12.9704
▁bancos	-12.9705
▁tratarl	-12.9706
▁premia	-12.9707
▁extenso	-12.9708
▁fronteras	-12.9708
▁carreteras	-12.9708
▁hoyo	-12.9709
▁investigue	-12.9709
▁fiera	-12.9711
▁hito	-12.9712
ford	-12.9712
▁atendido	-12.9716
▁entregados	-12.9717
▁orado	-12.9718
▁sacrificad	-12.9722
▁arreglo	-12.9723
▁modernas	-12.9724
acaban	-12.9725
▁delgado	-12.9725
rigen	-12.9726
▁definido	-12.973
vet	-12.9731
iente	-12.9731
hon	-12.9739
▁ntima	-12.9741
▁escoj	-12.9743
stintiv	-12.9744
▁fortalecidos	-12.9754
▁referido	-12.9754
▁phil	-12.9754
▁arruinar	-12.9758
▁apoyaron	-12.9758
▁edifiqu	-12.9759
▁anotar	-12.976
▁rayo	-12.976
▁colaboro	-12.9762
▁pecan	-12.9762
▁adelantado	-12.9762
▁protegerlos	-12.9765
▁apartados	-12.9779
▁somete	-12.9779
▁sie	-12.9781
gami	-12.9787
▁ofrecie	-12.9794
▁gi	-12.9795
▁anuales	-12.9796
▁aumentos	-12.98
▁niegue	-12.9801
▁respiro	-12.9807
▁admira	-12.9808
▁crud	-12.9809
▁agarrad	-12.9811
▁guerre	-12.9813
▁hallaba	-12.9816
▁harto	-12.9817
eg	-12.9822
▁significativa	-12.9831
▁aportan	-12.9831
▁exas	-12.9833
▁subt	-12.9835
▁agita	-12.9835
▁apart	-12.9835
▁compas	-12.9837
▁deportiva	-12.9837
gr	-12.9841
▁tend	-12.9843
▁explica	-12.9843
▁secar	-12.9843
▁vern	-12.9844
▁confund	-12.985
construccio	-12.9851
gayo	-12.9853
▁limpie	-12.9854
▁variante	-12.9857
▁sect	-12.9859
▁preparara	-12.986
▁vuelo	-12.9868
rituale	-12.9871
▁dolido	-12.9874
▁corresponden	-12.9876
▁devot	-12.988
▁comprendan	-12.9884
▁donar	-12.9884
llado	-12.9885
anch	-12.9892
▁animada	-12.9893
▁celebr	-12.9894
▁subido	-12.9902
▁enviab	-12.9902
encia	-12.9904
▁adier	-12.9907
▁imita	-12.9913
▁arriesgad	-12.9914
▁cui	-12.992
▁armonios	-12.9922
▁nicola	-12.9924
▁impresionad	-12.9924
▁colocab	-12.9929
vill	-12.9931
▁piert	-12.9932
▁dobl	-12.9933
▁nutritivo	-12.9939
▁interesara	-12.9939
▁ablan	-12.9945
▁repudiar	-12.9948
▁enca	-12.9956
▁mirar	-12.9956
▁realiz	-12.9961
▁directivo	-12.9966
▁promueva	-12.9967
iversidad	-12.9967
▁deportivo	-12.9969
▁ejercita	-12.9971
▁padeci	-12.9971
▁vuelv	-12.9976
▁adentro	-12.9978
▁originario	-12.9981
▁regi	-12.9987
▁festivid	-12.9987
▁sequ	-12.999
▁corres	-12.9991
▁colm	-12.9993
▁oyera	-12.9995
▁mantenerla	-12.9995
▁transcurri	-12.9995
uce	-12.9996
▁restaura	-12.9998
▁abi	-12.9999
▁quemado	-13
cel	-13.0004
▁intentaba	-13.0005
▁pez	-13.0007
▁priv	-13.0017
▁equivocacio	-13.0018
▁tens	-13.002
▁destacaba	-13.0022
▁incal	-13.0023
rist	-13.0024
▁moder	-13.0025
▁premios	-13.0032
▁tes	-13.0036
▁superarlo	-13.004
▁destructiv	-13.0042
▁ensalzar	-13.0043
coz	-13.0044
▁edes	-13.0046
▁sumido	-13.005
ngr	-13.0053
▁infunda	-13.0055
▁satisf	-13.0055
▁durar	-13.0063
▁cel	-13.0063
▁regul	-13.0065
uz	-13.0067
▁tab	-13.0067
▁asustado	-13.0074
▁perl	-13.0075
▁gam	-13.0078
▁tratam	-13.008
▁procurado	-13.0084
▁abog	-13.0087
▁top	-13.0088
cill	-13.0102
pie	-13.0111
▁proces	-13.012
▁riqu	-13.0121
▁invit	-13.0123
▁irre	-13.0135
▁chist	-13.0138
▁recuperara	-13.0143
▁juzgad	-13.0147
▁ntica	-13.015
▁redactad	-13.0151
▁rest	-13.0156
▁eleva	-13.0167
▁ejecute	-13.0167
▁plural	-13.0169
▁ponien	-13.0169
ocupara	-13.017
tico	-13.0188
▁proco	-13.0191
▁oca	-13.0193
gua	-13.0197
▁venza	-13.0198
▁alojar	-13.0199
▁call	-13.0201
▁envejec	-13.0203
▁calab	-13.0205
▁aplast	-13.0207
ash	-13.0214
echo	-13.0232
fr	-13.0233
▁geno	-13.024
▁dudo	-13.0243
▁dominada	-13.0243
und	-13.0249
▁esco	-13.0266
taco	-13.0269
▁fr	-13.0275
▁tr	-13.0276
▁familiarizar	-13.028
plicab	-13.0283
▁atribuye	-13.0284
agrada	-13.0288
▁debilita	-13.0292
esi	-13.0293
▁escab	-13.0294
▁bene	-13.0301
▁granos	-13.0304
▁enviada	-13.0309
▁ceda	-13.0315
▁discuti	-13.0323
▁coreano	-13.0327
▁inquietante	-13.0329
▁fro	-13.033
blement	-13.033
▁terminal	-13.0331
▁elegida	-13.0333
▁honro	-13.0342
▁subrayan	-13.035
▁hazl	-13.0351
▁resguarda	-13.0352
▁visit	-13.0352
▁estad	-13.0356
des	-13.0356
▁inici	-13.0357
▁retra	-13.0365
▁atad	-13.0368
▁histori	-13.0368
tur	-13.0369
▁celi	-13.0375
▁asign	-13.0376
▁exager	-13.0379
▁enten	-13.0395
▁repentino	-13.0403
▁inconc	-13.0403
dondequier	-13.0404
▁vulga	-13.0412
inche	-13.0422
▁superficial	-13.0423
▁flot	-13.0428
▁acampad	-13.0432
dijo	-13.0432
▁mata	-13.0443
▁jubilar	-13.0449
▁patri	-13.0454
▁conven	-13.0457
▁menop	-13.0457
▁recalca	-13.0459
▁destinada	-13.0469
▁mot	-13.0472
▁invitaba	-13.0474
anos	-13.0482
▁cero	-13.0488
▁inversio	-13.049
▁cidos	-13.0492
▁gado	-13.0494
rd	-13.0499
▁cultivan	-13.0504
buscado	-13.0505
▁ejercit	-13.0507
efectuo	-13.0509
▁sustituy	-13.0512
▁vid	-13.0517
atur	-13.0526
▁burlon	-13.053
▁endeudar	-13.0531
▁cometiera	-13.0533
▁ilumina	-13.0537
▁regresan	-13.0538
dequ	-13.0539
▁fallec	-13.055
▁tirar	-13.0554
▁dedic	-13.0555
▁atraiga	-13.0557
parecida	-13.056
▁proposicio	-13.056
▁paus	-13.0568
minas	-13.0571
eb	-13.0575
haz	-13.0575
▁alza	-13.0583
▁compadeci	-13.0584
▁poles	-13.0586
▁caza	-13.0592
ndamo	-13.0593
▁enumera	-13.0595
▁distorsion	-13.0597
▁chat	-13.0598
▁imparti	-13.0601
▁desilusio	-13.0603
plicarl	-13.0604
▁acostumbra	-13.0606
▁aguard	-13.0607
▁harr	-13.0608
mer	-13.0612
▁continue	-13.0614
ipos	-13.0615
▁durab	-13.0619
▁dian	-13.0619
▁describa	-13.0621
▁aprobab	-13.0632
▁marea	-13.0639
▁programar	-13.0641
▁motor	-13.0649
▁alfabet	-13.0655
▁abarrota	-13.0656
▁fascin	-13.0659
▁chic	-13.0659
▁tasa	-13.0659
▁crecier	-13.0661
▁agradab	-13.0667
▁acos	-13.0669
▁justificado	-13.067
vita	-13.0671
▁conquistado	-13.0682
bed	-13.0682
▁vam	-13.0687
▁penetr	-13.069
▁american	-13.0694
▁esperanzas	-13.0696
▁exhortan	-13.0698
rago	-13.0701
▁em	-13.0705
▁discos	-13.0706
▁basar	-13.0714
ech	-13.0718
biendo	-13.0731
cedar	-13.0745
▁mitolo	-13.0747
▁enfatiza	-13.0754
▁impart	-13.0764
▁fortifica	-13.0765
▁insinu	-13.0765
▁desaparece	-13.0775
probable	-13.0777
▁sucesi	-13.0779
gui	-13.0781
▁transcurr	-13.0784
▁altruista	-13.0788
uno	-13.0801
shir	-13.0801
▁deshonest	-13.0806
tin	-13.0807
ure	-13.0816
▁guerrea	-13.082
▁aviv	-13.0825
▁converti	-13.0829
▁voc	-13.0829
edes	-13.0834
▁llenab	-13.0837
▁contribuy	-13.0855
▁acusan	-13.0856
▁azu	-13.0871
▁apedre	-13.0873
▁apto	-13.0875
▁socava	-13.0885
▁venderl	-13.089
▁cosechad	-13.0897
▁suplicar	-13.0898
erse	-13.0898
▁complej	-13.0902
▁prosig	-13.0916
▁infinit	-13.0917
▁domine	-13.0917
▁vincula	-13.0919
▁servici	-13.0919
lph	-13.0924
pasio	-13.0932
▁exa	-13.0932
▁caz	-13.0933
▁confeccion	-13.094
▁quej	-13.0951
▁obscen	-13.0958
▁confort	-13.096
▁numeros	-13.0964
▁archiv	-13.0965
▁desconoce	-13.0966
▁caminan	-13.0967
▁tentad	-13.0968
bisa	-13.0968
▁capt	-13.0969
▁perdonad	-13.0971
tengan	-13.0971
▁desapercibid	-13.0972
▁utilizad	-13.0973
▁filiste	-13.0974
▁suprem	-13.0975
▁inaceptable	-13.0979
▁eficiente	-13.0984
▁ablemente	-13.0987
▁duradero	-13.0989
▁gentile	-13.0991
▁aguanta	-13.0991
▁individuo	-13.0992
▁gradu	-13.0992
▁cliente	-13.0992
▁ire	-13.0993
dono	-13.0996
▁instructiv	-13.0997
▁poste	-13.0998
▁manipul	-13.1002
▁bomba	-13.1003
pla	-13.1011
▁irrit	-13.1011
▁asignada	-13.1012
▁bombarde	-13.1012
cario	-13.1014
▁desarraig	-13.1015
figura	-13.1015
cipe	-13.1017
▁conmoved	-13.1019
azo	-13.102
▁impre	-13.1022
▁desobedecerl	-13.1023
▁manip	-13.1024
▁homicid	-13.1024
▁lobo	-13.1025
genda	-13.1025
▁malici	-13.1026
▁gregor	-13.1026
▁archi	-13.1027
▁receptiv	-13.1027
▁chri	-13.1031
▁desenmas	-13.1031
▁objecio	-13.1031
▁microsco	-13.1032
yclef	-13.1032
▁almuerzo	-13.1032
▁cocodrilo	-13.1032
▁cotidiano	-13.1032
▁desfavorecidos	-13.1032
▁desterrado	-13.1032
▁diecinueve	-13.1032
▁disminuir	-13.1032
▁guayaquil	-13.1032
▁impostor	-13.1032
▁musical	-13.1032
▁prontitud	-13.1032
▁silvestre	-13.1032
▁timidez	-13.1032
▁vecindario	-13.1032
▁artificial	-13.1032
▁dinamarca	-13.1032
▁irremediabl	-13.1032
▁zguenl	-13.1032
▁aplauso	-13.1032
▁budismo	-13.1032
▁gasolin	-13.1032
▁jairo	-13.1032
▁escamas	-13.1032
▁disfraz	-13.1032
▁penalidades	-13.1032
decibl	-13.1032
▁usurpa	-13.1032
▁arroyo	-13.1032
▁enjambr	-13.1032
▁inestable	-13.1032
▁emparent	-13.1032
▁villem	-13.1032
▁narcis	-13.1032
▁desaprueba	-13.1032
▁desaprovech	-13.1032
▁arranque	-13.1032
▁geoff	-13.1032
▁indebidas	-13.1032
▁civilizacio	-13.1032
▁rivalid	-13.1032
▁mejill	-13.1032
▁atletas	-13.1032
▁nacionalismo	-13.1032
▁puntualidad	-13.1032
▁excursionist	-13.1032
▁alboroto	-13.1032
▁distincio	-13.1032
▁melesio	-13.1032
▁mascot	-13.1032
▁autoayuda	-13.1033
▁masticar	-13.1033
▁reloj	-13.1033
▁distinciones	-13.1033
▁esfera	-13.1033
▁genealo	-13.1033
▁facturas	-13.1033
▁invertido	-13.1033
▁costill	-13.1033
▁ncalo	-13.1033
▁nazareo	-13.1033
▁vacuno	-13.1034
▁atribuyo	-13.1034
▁reclamar	-13.1034
▁persuasi	-13.1034
▁editorial	-13.1034
▁suplique	-13.1034
▁sencillez	-13.1034
▁reprimir	-13.1035
▁corruptas	-13.1035
▁decimotercer	-13.1035
▁atacada	-13.1035
▁posponer	-13.1035
▁explorar	-13.1036
▁temeroso	-13.1036
▁revuelt	-13.1036
▁bisnieto	-13.1037
▁opresivo	-13.1037
▁protectores	-13.1037
▁candel	-13.1037
▁alianza	-13.1038
▁incomprensibl	-13.1038
▁confortar	-13.1038
▁comprometida	-13.1038
▁colocada	-13.1038
▁curarnos	-13.104
▁cdot	-13.104
▁adolf	-13.104
▁destinar	-13.1041
▁esceni	-13.1042
▁cerrado	-13.1042
▁comisionado	-13.1043
▁reunidas	-13.1043
▁arresto	-13.1043
▁persigan	-13.1043
▁alquilado	-13.1043
▁expandir	-13.1043
▁ascenso	-13.1043
▁zorro	-13.1043
▁constituir	-13.1043
▁encomienda	-13.1043
▁solicitado	-13.1043
▁expulsarlo	-13.1043
▁molido	-13.1044
▁anular	-13.1045
▁retrato	-13.1045
▁despejar	-13.1045
▁concentran	-13.1045
▁oportuna	-13.1045
▁reemplazo	-13.1046
▁delicioso	-13.1047
▁implicadas	-13.1047
▁radicales	-13.1048
▁enamorado	-13.1048
▁recuperado	-13.1048
▁comercio	-13.1049
▁reemplazado	-13.105
field	-13.1051
▁abono	-13.1051
▁raciales	-13.1052
▁insignificantes	-13.1052
▁descarriad	-13.1052
▁preferir	-13.1052
▁indicaciones	-13.1053
▁barato	-13.1053
▁forjar	-13.1054
▁calmado	-13.1054
▁envenen	-13.1054
▁chalo	-13.1054
▁exigencias	-13.1055
▁aparatos	-13.1055
▁innecesarias	-13.1055
▁bendecida	-13.1055
▁ingenioso	-13.1056
▁radiante	-13.1056
▁panam	-13.1056
▁colectiva	-13.1056
▁discapacitado	-13.1057
▁retraso	-13.1058
▁obligue	-13.1058
▁protegiendo	-13.1058
▁suecia	-13.1059
▁contribucio	-13.1061
▁exaltar	-13.1061
▁complacido	-13.1062
▁marcada	-13.1063
▁conyug	-13.1064
▁hechicero	-13.1064
rv	-13.1065
▁averigua	-13.1065
▁guardarle	-13.1066
▁bieninten	-13.1066
▁disponer	-13.1067
▁foll	-13.1067
▁acelerar	-13.1068
▁gavi	-13.1069
▁ocurriendo	-13.1071
▁peleado	-13.1072
▁granizo	-13.1073
▁primitivo	-13.1073
▁peleara	-13.1081
▁solicitarlo	-13.1081
▁ofensiva	-13.1084
▁creativas	-13.1084
▁ani	-13.1085
▁restriccio	-13.1085
▁rescatado	-13.1087
olucio	-13.1087
▁informando	-13.1089
▁jugado	-13.1091
▁testific	-13.1091
▁arrebata	-13.1091
▁resiste	-13.1091
▁desapercibido	-13.1092
▁evalu	-13.1094
▁operar	-13.1094
▁herej	-13.1094
▁pensa	-13.1094
▁poller	-13.1095
▁cumplidas	-13.1095
▁desarrollados	-13.1097
▁torres	-13.1099
▁anticuado	-13.1099
▁descender	-13.11
▁rasgar	-13.1101
▁pidieran	-13.1101
▁repleto	-13.1102
▁motocicle	-13.1103
▁estres	-13.1103
▁circuncidar	-13.1107
▁texte	-13.1108
▁ctrico	-13.1108
▁independizar	-13.1108
▁resumir	-13.111
▁malet	-13.111
▁sangu	-13.111
▁acoger	-13.1115
▁replantear	-13.1116
▁arrebatar	-13.1116
▁gesta	-13.1118
taba	-13.112
▁organismos	-13.112
▁cautivado	-13.1122
▁reconocerlo	-13.1123
▁sup	-13.1125
▁meditado	-13.1125
acia	-13.1125
▁inclinara	-13.1128
▁trag	-13.1129
▁roy	-13.1129
▁hierbas	-13.113
▁contaminan	-13.113
▁morando	-13.113
▁disponen	-13.113
▁encan	-13.1131
▁alienta	-13.1132
husm	-13.1134
tami	-13.1136
▁corrido	-13.1137
▁colgar	-13.1138
▁canch	-13.1139
▁lla	-13.1141
▁asociado	-13.1141
▁indicarl	-13.1142
▁envejecer	-13.1147
▁salieran	-13.1147
▁rmel	-13.1147
▁bed	-13.115
▁elogiar	-13.1151
▁enfr	-13.1151
▁centrada	-13.1152
▁extranjeras	-13.1153
ernos	-13.1153
▁defensas	-13.1154
▁evitarlas	-13.1155
▁conmovidos	-13.1157
▁interrumpi	-13.1164
▁suplica	-13.1165
como	-13.1165
▁rodant	-13.1166
▁separen	-13.117
▁pidier	-13.1172
▁amente	-13.1172
lin	-13.1173
▁convocar	-13.1176
▁rgico	-13.1177
▁grato	-13.1178
ebr	-13.1178
▁gasto	-13.1178
rar	-13.1185
▁universidades	-13.119
roest	-13.1196
▁refiera	-13.1201
▁directas	-13.1207
▁establo	-13.121
▁alcanza	-13.1211
▁heb	-13.1213
mir	-13.1216
igier	-13.1217
▁maquinar	-13.1217
▁realizarse	-13.122
portes	-13.1221
▁manu	-13.1221
ario	-13.1226
▁pasto	-13.1227
▁tomarlas	-13.1229
▁creyen	-13.1232
▁elecciones	-13.1234
▁ajuste	-13.1234
ntacione	-13.1235
▁demol	-13.1239
▁jaim	-13.1241
rid	-13.1243
▁topar	-13.1245
▁rodea	-13.1251
▁pasarnos	-13.1252
▁verter	-13.1253
▁cubierto	-13.1255
▁volador	-13.1256
▁comprarl	-13.1259
▁ataj	-13.1261
▁conseguirl	-13.1264
▁visitaran	-13.1272
▁aceptarlo	-13.1273
▁prohibidas	-13.1278
▁bolso	-13.1281
▁gastar	-13.1285
▁exalt	-13.1291
▁sobrada	-13.1291
▁precristian	-13.1298
cur	-13.1306
▁impulsan	-13.1307
▁mer	-13.1312
▁perderl	-13.1312
▁metier	-13.1314
imitacio	-13.1315
▁titula	-13.1318
▁copas	-13.1321
▁pagano	-13.1336
▁stand	-13.1337
nticuatro	-13.1339
▁confrontacio	-13.134
▁aplicarlo	-13.134
inch	-13.1345
ster	-13.135
▁frustrant	-13.1352
▁asesor	-13.1354
▁conspiracio	-13.1356
▁bou	-13.1358
▁financia	-13.136
▁pagos	-13.1362
▁advertirl	-13.1365
▁continente	-13.1366
▁permitier	-13.1369
▁mida	-13.1373
▁encendid	-13.1376
▁atrevi	-13.1378
▁reparti	-13.1378
▁distingui	-13.1382
▁germin	-13.1383
▁dictamin	-13.1386
▁enfrent	-13.1388
▁reflexionar	-13.1396
▁escribie	-13.1396
▁ur	-13.1396
▁vener	-13.1398
▁escucharl	-13.1402
▁irrita	-13.1403
▁nadar	-13.1407
▁contentar	-13.1407
▁alca	-13.1412
cos	-13.1416
▁vencerlo	-13.1419
▁mplic	-13.1429
▁persisti	-13.1431
com	-13.1438
cito	-13.1441
▁incomod	-13.1446
▁aboli	-13.1446
sed	-13.145
▁inundar	-13.1457
▁dicto	-13.1472
▁papeles	-13.1472
▁capita	-13.1492
▁revele	-13.1498
▁esforzara	-13.1503
▁enviud	-13.1506
▁lil	-13.1509
▁alim	-13.151
izad	-13.1512
▁aug	-13.1513
▁rud	-13.1515
▁hablad	-13.1517
▁estaciones	-13.152
emisor	-13.1525
▁carlo	-13.1526
▁suceden	-13.1527
▁nubl	-13.1528
ntio	-13.1531
ojal	-13.1533
▁caminar	-13.1545
▁contestaba	-13.1545
prob	-13.1545
▁confies	-13.1549
igual	-13.1552
▁idamente	-13.1553
▁abus	-13.1557
▁epi	-13.1557
▁opo	-13.156
▁flori	-13.1561
▁alz	-13.1568
▁aval	-13.1569
▁ez	-13.1569
▁roberto	-13.1569
▁arrastra	-13.157
▁rend	-13.1574
▁equi	-13.1582
evo	-13.1593
ptibl	-13.1594
rca	-13.1594
▁envolvi	-13.1596
▁descargarl	-13.1597
▁miente	-13.1601
▁obvi	-13.1605
aviesa	-13.1607
portaba	-13.1608
trados	-13.1612
▁petro	-13.1613
▁zo	-13.1615
tiqu	-13.1619
▁simplificad	-13.1629
▁sustituye	-13.163
ional	-13.1631
▁conspir	-13.1633
▁infund	-13.1634
che	-13.1634
▁cese	-13.1637
▁lima	-13.1637
▁asombr	-13.1647
▁verlas	-13.165
fendido	-13.1655
▁aventur	-13.1661
▁soj	-13.1662
▁dispu	-13.1664
▁testaru	-13.1665
▁indi	-13.1667
▁terra	-13.1671
▁manipulacio	-13.1673
▁emit	-13.1679
estio	-13.1692
uand	-13.1696
rens	-13.1698
▁almacen	-13.1707
▁timar	-13.1714
▁combinacio	-13.1719
▁jefes	-13.1725
▁atorment	-13.1727
▁creyera	-13.1731
seguir	-13.1731
probada	-13.1731
▁log	-13.1732
uzi	-13.1736
▁perdonarl	-13.1737
▁anhelar	-13.1742
▁one	-13.1744
▁adob	-13.1744
uri	-13.1745
▁pastorea	-13.1748
ced	-13.1749
▁aplic	-13.175
▁tropieza	-13.1757
▁emplee	-13.1767
▁rezo	-13.177
icia	-13.1779
▁mun	-13.1787
▁renta	-13.1789
riot	-13.179
▁inesperada	-13.1791
haciendo	-13.1797
▁tomarl	-13.1802
▁alimentan	-13.1807
▁yac	-13.181
▁especific	-13.1811
▁goz	-13.1815
up	-13.182
osa	-13.1826
rprete	-13.1831
▁fracasa	-13.1836
▁prohibir	-13.1839
▁apartad	-13.1847
iremo	-13.1848
▁gav	-13.1851
▁perec	-13.1852
▁bud	-13.1857
gente	-13.1858
▁justific	-13.1858
▁gloto	-13.1859
cribi	-13.1869
▁tiera	-13.187
▁abs	-13.1887
▁combat	-13.1888
▁fing	-13.1888
ap	-13.1889
▁multiplic	-13.1892
▁alejo	-13.1893
servi	-13.1901
▁expusier	-13.1908
miendo	-13.1914
▁multa	-13.1923
sus	-13.1928
uth	-13.1929
▁descarta	-13.1933
▁anduv	-13.1935
▁oscurec	-13.1951
fines	-13.1954
▁arreglan	-13.1955
▁rendim	-13.1959
apo	-13.1961
▁hable	-13.1963
▁lav	-13.1964
agudo	-13.1966
▁maldice	-13.1969
▁gritar	-13.1974
hi	-13.1976
egando	-13.198
▁teolo	-13.1984
pto	-13.1988
▁bebier	-13.1989
▁hach	-13.1989
▁aprovechara	-13.1991
▁choqu	-13.1994
▁reduce	-13.1995
▁defiende	-13.2004
▁cedi	-13.2012
alg	-13.2012
▁gno	-13.2015
▁formal	-13.2015
ferencia	-13.202
▁libret	-13.2026
▁saci	-13.203
ponga	-13.2031
▁odia	-13.2037
▁oli	-13.2043
▁tivamente	-13.2053
cuerda	-13.2072
▁penu	-13.2072
▁inmuno	-13.2078
▁proyeccio	-13.2081
▁comand	-13.2087
▁plantad	-13.2089
▁descargar	-13.2092
rgen	-13.2094
iles	-13.2095
▁cart	-13.2098
ux	-13.21
▁exp	-13.2103
▁adopte	-13.2103
producirse	-13.2104
▁preciado	-13.2106
ometida	-13.2112
▁ganl	-13.2113
▁sem	-13.2114
▁atado	-13.2122
ore	-13.2125
lant	-13.2131
tonio	-13.2131
▁informado	-13.2141
▁encarcel	-13.2143
▁gote	-13.2162
▁deseoso	-13.2162
▁paseo	-13.2179
▁medito	-13.218
▁terco	-13.2189
▁sobresal	-13.219
▁regar	-13.219
▁protesta	-13.2196
▁recorre	-13.2196
▁envidia	-13.2199
▁abofete	-13.2203
▁montar	-13.221
nde	-13.221
▁impl	-13.2218
▁exhib	-13.2226
itas	-13.223
lico	-13.2236
▁ber	-13.2237
▁equivoca	-13.2245
▁apresurad	-13.2247
▁confesio	-13.2248
smo	-13.225
▁denunciar	-13.225
▁desarroll	-13.2252
▁dejarl	-13.2254
▁adelant	-13.2258
▁escas	-13.2259
▁orientado	-13.2269
▁prove	-13.2269
rich	-13.2279
▁ammo	-13.2281
▁ctor	-13.229
▁audio	-13.2297
▁corro	-13.2297
novela	-13.2298
▁buscaba	-13.2299
tismo	-13.23
negado	-13.2301
ajer	-13.2301
investigab	-13.2308
▁plantean	-13.2313
erm	-13.2313
▁estuvier	-13.2315
lino	-13.2318
▁calo	-13.2319
estabilidad	-13.2322
▁consum	-13.2327
▁arrepent	-13.2329
▁discrimina	-13.2348
descri	-13.2348
▁pala	-13.2348
▁sina	-13.2351
▁saludar	-13.2353
colm	-13.236
▁anoch	-13.236
cierto	-13.2364
▁espirituali	-13.2366
▁pagarl	-13.2373
▁agr	-13.2375
▁escl	-13.2376
egu	-13.2377
▁roci	-13.2382
ponerse	-13.2383
ador	-13.239
ectas	-13.2391
▁medite	-13.2394
quill	-13.2394
▁presenciar	-13.2398
▁espi	-13.2398
▁arena	-13.24
▁repet	-13.2403
arcas	-13.2404
rc	-13.2404
▁legar	-13.2409
▁persegu	-13.2413
rta	-13.2425
mismo	-13.2426
alfabeto	-13.2439
uvier	-13.244
▁anfitrio	-13.2442
▁divinid	-13.2444
▁anch	-13.2444
▁bendic	-13.2446
mada	-13.2449
tendieran	-13.2449
▁luchab	-13.2453
reli	-13.2455
▁contagi	-13.2455
▁recolec	-13.2457
▁gall	-13.2463
▁recluta	-13.2464
caban	-13.2468
▁subsist	-13.247
▁masacr	-13.2476
▁convencerl	-13.2477
▁bart	-13.2479
▁hui	-13.2487
batir	-13.2488
▁compadecer	-13.2494
esto	-13.2509
▁senti	-13.251
poni	-13.2516
reservado	-13.252
▁roe	-13.2521
▁program	-13.2525
▁host	-13.2533
▁conviert	-13.2534
▁envolver	-13.254
calde	-13.2543
▁proporcionan	-13.2543
▁agoniz	-13.2546
▁defendier	-13.2548
▁ocasionad	-13.2552
salen	-13.2561
tat	-13.2562
▁amigabl	-13.2569
▁arlos	-13.2571
▁ores	-13.2575
▁hur	-13.2583
▁excep	-13.259
▁enderez	-13.2591
▁lit	-13.2594
gam	-13.26
och	-13.2602
eguido	-13.2605
▁explorad	-13.2605
culabl	-13.2608
▁bur	-13.2611
▁proscrit	-13.2623
▁llegarl	-13.2624
▁ingenier	-13.263
▁perseguid	-13.2631
nnett	-13.2631
▁rqu	-13.2633
▁enterrar	-13.2636
▁laborios	-13.2642
▁construye	-13.2643
▁rescatad	-13.2643
▁desinteres	-13.2646
▁jugad	-13.2647
▁citan	-13.2648
▁objetiv	-13.2651
▁interrogatorio	-13.2653
▁hambruna	-13.2655
▁precedente	-13.2657
▁privada	-13.2659
▁gusano	-13.2662
▁identifique	-13.2667
▁desaparec	-13.2668
▁enfermer	-13.2668
▁vencerl	-13.2669
▁sirvient	-13.267
▁artesano	-13.267
▁alabar	-13.2673
▁asombrad	-13.2674
▁prima	-13.2677
▁credo	-13.2682
▁prominen	-13.2683
▁tram	-13.2684
▁jardine	-13.2686
▁resistent	-13.2687
▁deudor	-13.2687
▁escribirl	-13.2687
▁bendit	-13.2687
▁perez	-13.2692
▁incur	-13.2696
▁supervisor	-13.2697
▁pandill	-13.2697
▁arbitraria	-13.2698
▁autenticidad	-13.2698
▁bacteria	-13.2698
▁boquiabierto	-13.2698
▁braille	-13.2698
▁catecismo	-13.2698
▁cisterna	-13.2698
▁domiciano	-13.2698
▁escondrijo	-13.2698
▁exitosa	-13.2698
▁femenino	-13.2698
▁flavianum	-13.2698
▁golondrin	-13.2698
▁homenaje	-13.2698
▁inseparable	-13.2698
▁irresistible	-13.2698
▁liechtenstein	-13.2698
▁marshall	-13.2698
▁medopers	-13.2698
▁micronesia	-13.2698
▁polluelo	-13.2698
▁revitaliz	-13.2698
▁terquedad	-13.2698
▁vaticano	-13.2698
▁ciclista	-13.2698
▁despiadad	-13.2698
▁eficacia	-13.2698
▁escorpio	-13.2698
▁irracional	-13.2698
▁obsolet	-13.2698
▁queensland	-13.2698
▁scott	-13.2698
▁gravosos	-13.2698
▁litigio	-13.2698
▁armenia	-13.2698
▁flaut	-13.2698
▁hostiles	-13.2698
▁narices	-13.2698
▁mapuch	-13.2698
▁hannah	-13.2698
▁mazamorr	-13.2698
▁predeter	-13.2698
▁veintisiete	-13.2698
▁diplom	-13.2698
▁legisla	-13.2698
▁supervivient	-13.2698
▁lisbeth	-13.2698
▁progresiva	-13.2698
▁mongolia	-13.2698
▁colonia	-13.2698
▁rifique	-13.2698
▁discotec	-13.2698
▁revisitas	-13.2698
▁venturado	-13.2698
▁elizabeth	-13.2698
▁orquesta	-13.2698
▁usuario	-13.2698
▁vocales	-13.2699
▁rosario	-13.2699
▁acogieron	-13.2699
▁doncell	-13.2699
▁complazc	-13.2699
▁precauciones	-13.2699
▁enfermizo	-13.2699
▁revertir	-13.2699
▁nepal	-13.2699
▁holgaz	-13.2699
▁veloz	-13.2699
▁cabuy	-13.2699
▁perfumado	-13.2699
▁despedido	-13.2699
▁comedor	-13.2699
▁proximidad	-13.2699
▁encorvado	-13.27
▁contranatural	-13.27
▁resucitadas	-13.27
▁racista	-13.27
▁arroz	-13.27
▁remover	-13.27
▁bolivia	-13.27
▁selecto	-13.27
▁herald	-13.27
▁almendr	-13.27
▁alcoholismo	-13.2701
▁coincidir	-13.2701
▁pelotero	-13.2701
▁exterminio	-13.2701
▁zarz	-13.2701
▁disciplinarias	-13.2701
▁tigre	-13.2701
nzam	-13.2701
▁implique	-13.2701
▁gabao	-13.2701
▁vidrio	-13.2701
▁progresivamente	-13.2701
▁acarrear	-13.2702
▁animalito	-13.2702
▁desconfianza	-13.2702
▁convenga	-13.2702
▁tablet	-13.2702
▁confinado	-13.2702
▁ocioso	-13.2702
▁exhaustiv	-13.2702
▁fesch	-13.2703
▁preceptos	-13.2703
▁incuba	-13.2703
▁garrot	-13.2703
▁cabalgando	-13.2703
▁retorcid	-13.2703
▁diamantes	-13.2703
▁mariano	-13.2703
▁culminante	-13.2704
▁doliente	-13.2704
▁piloto	-13.2704
▁deshonrado	-13.2704
▁maligno	-13.2704
▁infelices	-13.2704
▁bulto	-13.2705
▁canario	-13.2705
▁depravado	-13.2705
▁ajetreado	-13.2705
▁horrend	-13.2705
▁destructivas	-13.2705
▁jurado	-13.2706
▁carrito	-13.2706
▁contiend	-13.2706
▁disputas	-13.2706
▁cocinero	-13.2706
▁reavivar	-13.2706
▁transferir	-13.2706
▁desafiante	-13.2706
▁mexicana	-13.2706
▁sobresalir	-13.2707
▁contiendas	-13.2707
▁devolverl	-13.2707
▁arrasado	-13.2707
▁condenaba	-13.2707
▁repetidamente	-13.2707
▁arrestarlo	-13.2707
▁hijastro	-13.2708
▁divertido	-13.2708
▁asesinarlo	-13.2708
▁piertas	-13.2708
▁recobro	-13.2708
▁comier	-13.2708
▁blancas	-13.2709
▁cedro	-13.2709
▁inseguras	-13.271
▁arrebatado	-13.271
▁aparezca	-13.271
▁justificarse	-13.2711
▁esparcir	-13.2711
▁ofrecimiento	-13.2711
▁revelarl	-13.2711
▁remotas	-13.2711
▁huyer	-13.2711
▁mezclado	-13.2712
▁nic	-13.2712
▁oprimido	-13.2712
▁disertacio	-13.2713
▁fascist	-13.2713
▁child	-13.2713
▁joann	-13.2715
▁gigantesco	-13.2715
▁lagarto	-13.2716
▁remontar	-13.2716
▁prefigurar	-13.2716
▁panadero	-13.2716
▁brindarles	-13.2716
▁masiva	-13.2717
▁rechazada	-13.2717
▁collar	-13.2718
▁talism	-13.2719
▁transmitido	-13.2719
▁quilamente	-13.2719
▁dignific	-13.2719
▁influyent	-13.272
▁acoged	-13.2721
sopo	-13.2722
▁reconstruido	-13.2723
▁ocurrieron	-13.2723
▁frustrad	-13.2724
▁retener	-13.2725
▁solucionarlo	-13.2726
▁vulnerables	-13.2726
▁distribuido	-13.2726
▁afilad	-13.2726
▁vengativo	-13.2726
▁coloco	-13.2727
▁trabajadoras	-13.2727
▁delicada	-13.2728
▁coordinadores	-13.2728
▁vuestro	-13.2728
▁convivencia	-13.2728
▁desilusionado	-13.2728
▁mentido	-13.2729
▁festivo	-13.273
▁vivificante	-13.273
haus	-13.2731
▁marchitar	-13.2733
▁severas	-13.2733
▁contentas	-13.2733
▁pertinentes	-13.2734
▁atenderlas	-13.2734
▁transmitida	-13.2734
▁dudarlo	-13.2735
▁insult	-13.2735
▁dependien	-13.2735
▁averiguarlo	-13.2736
▁merecid	-13.2737
▁carmelo	-13.2737
▁torcido	-13.2738
▁apegado	-13.2738
▁pulir	-13.2738
▁compren	-13.2738
▁excepcionales	-13.2739
▁amenazando	-13.274
▁convir	-13.2741
▁colorado	-13.2741
▁confundido	-13.2741
▁hambrunas	-13.2741
▁venidero	-13.2742
▁precipitada	-13.2742
▁plagad	-13.2743
▁permisivo	-13.2746
▁proscrib	-13.2746
▁desarrollada	-13.2746
▁nocturno	-13.2748
▁rmelo	-13.2749
▁supie	-13.275
▁gerald	-13.2751
▁atenderlo	-13.2752
▁abriera	-13.2752
▁tropie	-13.2753
▁silenciar	-13.2754
▁abarcar	-13.2754
▁ndito	-13.2754
▁traslado	-13.2755
▁acomodar	-13.2756
▁filtr	-13.2757
▁atendidos	-13.2758
▁firma	-13.2759
▁huid	-13.276
▁secundario	-13.2761
▁instructivo	-13.2762
▁cayado	-13.2763
▁afectadas	-13.2765
▁misterioso	-13.2765
▁corporal	-13.2766
▁difundi	-13.2767
▁llenarse	-13.2767
▁discapacitados	-13.2768
▁irritar	-13.277
▁persistente	-13.2771
▁asalto	-13.2771
▁mill	-13.2772
▁verbal	-13.2772
sur	-13.2772
▁sacudido	-13.2774
scar	-13.2777
▁destruirlo	-13.2777
▁quido	-13.2777
▁ofensivo	-13.2779
cimientos	-13.278
▁scienc	-13.2782
▁censo	-13.2782
▁princ	-13.2783
pico	-13.2785
▁enfermas	-13.2786
▁inmediata	-13.2789
▁potente	-13.279
▁valorados	-13.2791
▁ceniz	-13.2791
▁conducen	-13.2792
▁pesados	-13.2792
▁asesinad	-13.2795
▁funerari	-13.2796
▁intervenga	-13.2797
▁esclavizad	-13.2804
▁respondid	-13.2804
▁financiero	-13.2804
▁protejan	-13.2805
tens	-13.2806
tom	-13.2807
▁debiera	-13.2808
▁descons	-13.2809
▁evolucionist	-13.2809
ello	-13.281
▁rmen	-13.281
▁provincias	-13.2813
▁rogar	-13.2813
▁atenderlos	-13.2814
▁explosio	-13.2815
▁perdonada	-13.2816
▁erg	-13.2817
▁derraman	-13.2817
▁abastec	-13.2819
▁duraderas	-13.282
▁catal	-13.2821
▁comentado	-13.2823
▁enferman	-13.2823
▁desperdicio	-13.2828
▁casco	-13.2834
▁cadenas	-13.2836
dore	-13.2836
ie	-13.2836
▁fresco	-13.2836
▁iderado	-13.2838
▁aguantan	-13.2839
stol	-13.2839
tograf	-13.2839
olead	-13.284
orth	-13.2841
▁formul	-13.2843
▁palmer	-13.2843
▁matricular	-13.2844
▁hitos	-13.2844
▁paralelos	-13.2851
▁frecuente	-13.2851
▁estalle	-13.2851
▁coqueteo	-13.2852
▁inmortales	-13.2853
▁atrevier	-13.2854
▁discutier	-13.2856
▁guilas	-13.2857
▁vitalici	-13.2858
▁telar	-13.286
▁garantizado	-13.2863
▁corregido	-13.2864
▁huam	-13.2865
soport	-13.2865
▁honrando	-13.2866
▁prefer	-13.2867
▁redactar	-13.2868
▁emigr	-13.2869
erorg	-13.2869
▁rutas	-13.2869
polill	-13.2871
▁escudos	-13.2872
▁info	-13.2872
zof	-13.2875
▁criterios	-13.2876
▁fermentad	-13.2878
▁beneficien	-13.288
▁aburrir	-13.2881
nci	-13.2884
▁notaba	-13.2885
▁publicando	-13.2885
ligier	-13.2887
sing	-13.2887
▁observador	-13.2887
▁bue	-13.2888
▁impon	-13.2889
▁canast	-13.289
▁coincid	-13.289
▁fortalecerse	-13.289
▁remoto	-13.2891
▁misterios	-13.2895
ific	-13.2896
▁miner	-13.2901
▁arrepint	-13.2901
▁detiene	-13.2902
▁canta	-13.2903
▁enterara	-13.2906
▁perjudicado	-13.2913
▁perfecciona	-13.2916
▁entromet	-13.2924
▁mercados	-13.2928
erson	-13.2928
erosi	-13.2931
erio	-13.2931
▁sell	-13.2931
▁resu	-13.2933
▁coser	-13.2935
▁hong	-13.2939
sido	-13.2939
▁famosos	-13.294
▁aumente	-13.2941
▁decretos	-13.2942
▁easter	-13.2942
ton	-13.2943
▁evo	-13.2943
▁centurio	-13.2944
visto	-13.2948
▁abandonados	-13.2948
▁esmer	-13.2949
▁dul	-13.2952
▁comuni	-13.2953
▁humanitaria	-13.2958
▁rehus	-13.296
▁sacarlo	-13.2962
▁sucumbi	-13.2964
▁instaura	-13.2967
▁beneficiosas	-13.2967
▁desperdiciar	-13.2972
▁quitan	-13.2972
▁investigadora	-13.2975
rac	-13.2982
▁experimentados	-13.2983
▁corrier	-13.2985
▁bellos	-13.2987
▁oler	-13.2987
▁complic	-13.2988
▁cig	-13.2991
▁reservar	-13.2993
▁vered	-13.2993
▁ocurran	-13.2995
▁julian	-13.2996
▁sanad	-13.3001
▁destacada	-13.3006
▁contest	-13.3007
▁hunt	-13.3012
▁capto	-13.3014
▁examinan	-13.3015
▁mexicano	-13.3017
▁brome	-13.3019
▁ratific	-13.3026
azan	-13.3034
▁acost	-13.3037
rogarl	-13.3038
▁urgentes	-13.3051
▁detuviera	-13.3052
▁convivir	-13.3054
▁lente	-13.3055
▁imput	-13.3057
▁checo	-13.3058
▁congrega	-13.3059
▁aferra	-13.3059
▁prescindi	-13.3061
▁acamp	-13.3068
▁clavad	-13.3073
▁declarad	-13.3077
▁armament	-13.3081
▁entrena	-13.3081
▁brillo	-13.3083
▁aproxim	-13.3084
▁deleita	-13.3085
rias	-13.3086
▁tut	-13.3087
ngo	-13.3101
▁recogido	-13.3106
▁fijos	-13.3106
▁esmero	-13.3112
▁aten	-13.3116
▁ficar	-13.3117
▁blel	-13.3133
▁utilizarlo	-13.314
▁alic	-13.3143
▁sucedier	-13.3147
▁inst	-13.3155
▁reafirmar	-13.316
racione	-13.3162
▁salado	-13.3167
▁obs	-13.3171
▁adri	-13.3171
▁rlo	-13.3174
▁repeticio	-13.3177
▁batir	-13.3181
▁haberlos	-13.3183
▁rieg	-13.3189
▁nilo	-13.319
ye	-13.319
▁apostar	-13.3192
▁detect	-13.3192
▁recupera	-13.3197
▁formad	-13.3201
seguimo	-13.3203
▁recordad	-13.3203
▁facilitar	-13.3203
igni	-13.3205
▁sellad	-13.3207
raven	-13.3207
▁extend	-13.3207
inf	-13.3209
arrone	-13.3214
atena	-13.3217
▁conocerl	-13.3218
▁persigui	-13.322
vuelve	-13.3221
▁desilusion	-13.3227
penden	-13.3227
ett	-13.3228
▁prejuzga	-13.3229
▁rido	-13.323
▁apl	-13.323
▁escapara	-13.3235
▁preocupante	-13.3244
ag	-13.3248
nativo	-13.3249
▁demon	-13.3251
▁colo	-13.3251
▁suazi	-13.3254
▁transfi	-13.3256
▁llamen	-13.3261
▁cest	-13.3268
uis	-13.3268
mitir	-13.3276
▁conta	-13.3277
▁prestaba	-13.3277
▁cuen	-13.328
ubl	-13.3284
▁tret	-13.3284
ont	-13.3294
▁desafian	-13.3299
▁discreta	-13.33
▁vindic	-13.33
eve	-13.3305
▁bald	-13.331
sado	-13.3312
▁revelador	-13.3314
nc	-13.3317
tard	-13.3317
▁arr	-13.3318
▁interroga	-13.3322
▁reedifica	-13.3324
▁deprimi	-13.3325
▁honesta	-13.3342
▁obligarlo	-13.3347
▁tolera	-13.3347
geni	-13.3349
cargab	-13.335
▁primeriz	-13.3353
▁ocurrirl	-13.3354
▁contenga	-13.3356
▁reprim	-13.3357
▁bados	-13.3361
▁asum	-13.3362
▁evangeliza	-13.3365
ef	-13.3386
sciend	-13.3392
▁maldicio	-13.3398
frenar	-13.3398
▁rifican	-13.3401
▁esti	-13.3404
▁amontona	-13.3407
▁exactos	-13.341
▁concorda	-13.3411
▁localiza	-13.3411
▁lujos	-13.3411
▁localizad	-13.3414
▁secas	-13.3422
▁sep	-13.3424
▁comente	-13.3425
▁esclaviz	-13.3434
dot	-13.3443
ificado	-13.3444
▁cristi	-13.3444
▁comparad	-13.3445
▁gueh	-13.3445
▁interce	-13.3456
▁mostrab	-13.3458
▁hubiese	-13.3461
▁justificad	-13.3463
estando	-13.3464
▁costos	-13.3472
ea	-13.3473
▁morado	-13.3473
▁negara	-13.3483
▁lema	-13.3484
▁agrav	-13.349
ciendo	-13.3497
landi	-13.3502
▁repita	-13.3514
ndieron	-13.3514
lle	-13.3518
▁inevitable	-13.3521
tivos	-13.3524
▁centr	-13.3526
enden	-13.3527
▁acuerdos	-13.3528
deciendo	-13.3533
▁brusca	-13.3534
bridge	-13.3535
▁image	-13.354
▁examino	-13.354
▁textu	-13.3541
long	-13.3541
▁partier	-13.3543
▁instal	-13.3547
▁ole	-13.3549
▁prematura	-13.3561
▁compit	-13.3566
dicaban	-13.3577
▁tutor	-13.3579
▁murall	-13.3584
▁bral	-13.3585
▁penetra	-13.3588
▁polo	-13.3589
▁satisfa	-13.3593
pensabl	-13.3602
▁alfr	-13.3603
▁envejece	-13.3604
▁matan	-13.3609
▁foment	-13.3613
cay	-13.3614
cordab	-13.3617
▁melos	-13.3622
▁emba	-13.3622
▁tenernos	-13.3632
dole	-13.3637
▁negu	-13.3644
▁empuje	-13.3644
▁desplazar	-13.3645
▁mormon	-13.3647
▁tocarl	-13.365
▁big	-13.3652
▁interced	-13.3657
▁cuestionar	-13.3658
▁rodear	-13.3662
▁saltan	-13.3667
▁spero	-13.3678
▁enumeran	-13.368
▁chap	-13.3691
▁solucion	-13.3694
▁asuma	-13.3695
▁amargad	-13.3697
hogu	-13.3698
▁insultan	-13.3701
▁jehoia	-13.3703
▁iris	-13.3707
oph	-13.3709
vino	-13.3712
▁enviuda	-13.3713
▁paraliz	-13.3717
▁movi	-13.3719
▁desp	-13.372
▁adelanto	-13.3723
▁namiento	-13.373
▁abis	-13.3736
nica	-13.3739
▁componer	-13.3741
▁atrap	-13.3748
▁desorienta	-13.3752
▁examinara	-13.3755
aparecido	-13.3756
▁cte	-13.376
▁sobreven	-13.3761
▁griet	-13.3765
fortunada	-13.3765
erada	-13.3777
▁nece	-13.3781
▁tropez	-13.3787
ponemos	-13.3787
▁abrac	-13.3791
▁sobras	-13.3795
▁consolador	-13.3797
▁salto	-13.38
▁opres	-13.3802
▁sufra	-13.3806
▁mitir	-13.3807
▁felicitacio	-13.3808
▁desafiad	-13.3811
▁acobard	-13.3816
lio	-13.3819
cha	-13.3821
arco	-13.3827
▁jop	-13.3829
▁supong	-13.3832
▁centrab	-13.3854
▁encubr	-13.3858
tori	-13.386
▁repercute	-13.3863
▁acudiera	-13.3866
▁venera	-13.387
▁enviarl	-13.3871
ria	-13.3872
▁labrado	-13.3881
▁gimi	-13.3892
scritos	-13.3898
▁transferi	-13.3898
nag	-13.3899
▁digeri	-13.3899
▁prestarle	-13.3901
▁variad	-13.3904
yc	-13.3913
▁jubilado	-13.3914
▁ngal	-13.3917
▁lanza	-13.392
eli	-13.3922
▁atar	-13.3943
▁goberna	-13.3944
suficientes	-13.3945
▁mulos	-13.3946
▁vo	-13.395
tiendan	-13.396
▁obr	-13.3963
marnos	-13.3966
ept	-13.3969
▁aprobar	-13.3971
uch	-13.3974
▁conservarl	-13.3977
▁hom	-13.3981
▁subier	-13.3987
aciente	-13.3992
▁descubrim	-13.3995
friado	-13.3999
▁salt	-13.3999
teni	-13.4001
▁cobran	-13.4002
▁bal	-13.4003
▁estabiliza	-13.4004
▁mac	-13.4006
▁descendi	-13.401
vivencia	-13.4011
sh	-13.4012
onald	-13.4019
▁profundiz	-13.4027
▁pla	-13.4029
▁bajab	-13.4034
▁toca	-13.4046
▁impacien	-13.4047
icili	-13.4048
▁conquistad	-13.405
▁convoc	-13.4051
▁creara	-13.4064
▁conserve	-13.4065
▁beber	-13.4068
gue	-13.4069
▁acumula	-13.4069
▁vendi	-13.4076
▁efectuad	-13.4078
elli	-13.408
▁resalt	-13.4087
▁impulse	-13.4095
mp	-13.4097
▁tex	-13.4103
▁explot	-13.4103
▁malenten	-13.4114
egab	-13.4115
▁habitado	-13.4122
▁planea	-13.4123
simo	-13.4129
mili	-13.4134
▁afirme	-13.4138
▁inundacio	-13.4149
fi	-13.4157
▁invadi	-13.4163
yendo	-13.4164
▁sam	-13.4164
azone	-13.4165
acel	-13.4172
▁hart	-13.4174
▁fum	-13.4179
▁perece	-13.4186
chando	-13.4189
▁ajusta	-13.4189
▁jaso	-13.4198
▁reafirma	-13.42
▁oper	-13.4213
uma	-13.4213
dom	-13.4216
▁infini	-13.4218
▁justifican	-13.4224
star	-13.4232
gb	-13.4235
▁lex	-13.4241
▁estipul	-13.425
▁banda	-13.4259
dicados	-13.4259
alia	-13.4264
▁discrimin	-13.4266
ct	-13.4273
▁amante	-13.4276
▁hor	-13.4277
▁emm	-13.4278
liv	-13.4279
idamente	-13.4279
▁cuestionad	-13.4288
huan	-13.4291
▁pict	-13.4294
▁esparci	-13.4295
▁logra	-13.4296
signo	-13.4299
▁raj	-13.43
▁cuida	-13.4306
▁alberga	-13.4309
▁stamo	-13.4309
tamina	-13.431
▁obtenerl	-13.4312
regulares	-13.4312
▁tenso	-13.4314
cal	-13.4315
▁mantuvi	-13.4316
▁cubo	-13.4332
▁mordi	-13.4333
▁sacud	-13.4337
▁respectivo	-13.4341
glob	-13.4341
radam	-13.4343
▁angost	-13.4346
pu	-13.4349
▁taba	-13.4366
vivific	-13.4373
▁buscad	-13.4377
▁burlo	-13.4378
▁formula	-13.4379
▁ng	-13.4383
▁sigu	-13.4388
termino	-13.4392
casos	-13.4394
▁observab	-13.4396
urriendo	-13.4396
▁persist	-13.4402
tensi	-13.4408
▁llovi	-13.4415
▁human	-13.4415
▁comprometi	-13.4416
notado	-13.4416
▁fla	-13.4418
▁incita	-13.4418
▁difunde	-13.4429
▁camboya	-13.4436
▁maquina	-13.4441
▁invadier	-13.4444
lorab	-13.4445
tener	-13.4451
▁obsesio	-13.4452
estas	-13.446
hur	-13.4465
nutri	-13.4469
ede	-13.4473
stancia	-13.4475
ense	-13.4476
▁relativo	-13.4477
▁distribuy	-13.4481
▁quebrad	-13.4484
▁abnegad	-13.4495
▁arriesga	-13.4502
▁ele	-13.4503
▁turb	-13.4504
▁cuent	-13.4505
▁congreg	-13.4507
▁equipa	-13.4522
▁ubica	-13.4522
▁centrado	-13.4527
▁fatal	-13.4529
saci	-13.4531
▁decidiera	-13.4532
vinier	-13.4536
tifique	-13.4537
▁contenida	-13.4538
▁hiera	-13.4542
▁desplega	-13.4549
viert	-13.4556
▁salvaguarda	-13.4558
goz	-13.4561
▁tub	-13.4561
▁voluntari	-13.4562
emente	-13.4565
▁persevera	-13.457
▁estrech	-13.457
▁terc	-13.4582
▁mol	-13.4582
ercanc	-13.4585
hatt	-13.4585
tacan	-13.4586
▁habit	-13.4601
▁tortur	-13.4603
▁enzo	-13.4603
▁edificad	-13.4605
▁obtuvier	-13.4607
▁aleg	-13.4612
▁requer	-13.4612
▁conmocio	-13.4614
▁hil	-13.4617
traccio	-13.462
▁sobrin	-13.462
▁exced	-13.4623
▁ingeni	-13.4625
▁tesorer	-13.4627
▁encoleri	-13.463
▁fie	-13.4632
▁obligan	-13.4633
▁abstract	-13.4636
▁apretad	-13.4637
▁festej	-13.4637
▁nocturn	-13.4638
▁recaudad	-13.4638
▁primitiv	-13.4638
▁malign	-13.4639
▁diminut	-13.4639
▁vencid	-13.464
▁absurd	-13.464
▁permisiv	-13.4641
▁grav	-13.4642
▁despoj	-13.4644
▁refrescante	-13.4647
▁traslad	-13.4647
▁pescad	-13.4648
▁micro	-13.4651
▁aclare	-13.4651
▁pagab	-13.4652
▁intestino	-13.4653
▁vended	-13.4653
▁pertinente	-13.4655
ub	-13.4656
▁imperi	-13.4658
▁satisfactoria	-13.4659
▁senlo	-13.466
▁juguet	-13.4661
▁enojad	-13.4661
▁alimentaria	-13.4661
▁influ	-13.4663
▁ajena	-13.4664
▁cortad	-13.4667
▁argument	-13.467
▁pedreg	-13.4672
▁decreta	-13.4673
▁amold	-13.4678
▁contagio	-13.4679
virti	-13.468
▁detenerl	-13.468
▁abnega	-13.4683
▁desnudo	-13.4683
testad	-13.4684
▁corrompi	-13.4687
esa	-13.4689
▁oyente	-13.469
▁reprender	-13.4693
▁extremist	-13.4693
▁advir	-13.4693
▁exhaust	-13.4693
▁amarill	-13.4696
▁almohad	-13.4696
▁prisc	-13.4696
▁relig	-13.4697
▁amortig	-13.4697
▁electrici	-13.4698
▁cementerio	-13.4698
▁cucarach	-13.4698
▁encumbrad	-13.4698
▁hortaliz	-13.4698
▁impetuos	-13.4698
▁inconfundibl	-13.4698
▁inofensivo	-13.4698
▁janeiro	-13.4698
▁luxemburgo	-13.4698
▁mardoqueo	-13.4698
▁peregrino	-13.4698
▁pueblecito	-13.4698
▁roxan	-13.4698
▁tailandia	-13.4698
▁trivial	-13.4698
▁amaleq	-13.4698
▁anglican	-13.4698
▁aprovisiona	-13.4698
▁eliasib	-13.4698
▁estrepitosa	-13.4698
▁photo	-13.4698
▁desconsolad	-13.4698
▁mauricio	-13.4698
▁letrero	-13.4698
▁ingrato	-13.4698
▁definitivo	-13.4698
▁diehl	-13.4698
▁epigen	-13.4698
▁veintiocho	-13.4698
▁readmitida	-13.4698
▁hoguera	-13.4698
▁caribe	-13.4698
▁antorch	-13.4698
▁asperez	-13.4698
▁bolsillo	-13.4698
▁tiniebl	-13.4698
▁albergue	-13.4698
▁revuelo	-13.4698
▁enfrenada	-13.4698
▁audiencia	-13.4698
▁reglamentari	-13.4698
▁anselmo	-13.4699
▁glorifiqu	-13.4699
▁babilo	-13.4699
▁exploradores	-13.4699
▁abertura	-13.4699
▁envoltur	-13.4699
▁insatisfecho	-13.4699
▁gaselo	-13.4699
▁mananti	-13.4699
▁traduzca	-13.4699
▁automovil	-13.4699
▁enfoque	-13.4699
▁vigencia	-13.4699
mad	-13.4699
▁laboratorio	-13.4699
pidez	-13.4699
▁recostar	-13.4699
▁carnicer	-13.4699
▁resfriado	-13.4699
▁ingratitud	-13.4699
▁persistencia	-13.4699
▁desencadenar	-13.4699
▁irrever	-13.4699
▁contradictorias	-13.4699
▁fachad	-13.4699
▁reportero	-13.4699
▁empanada	-13.4699
▁paladar	-13.4699
▁ultra	-13.4699
▁anzuelo	-13.4699
▁padrastro	-13.4699
▁levantamiento	-13.47
▁objeciones	-13.47
▁flacas	-13.47
▁zorz	-13.47
▁ronald	-13.47
▁extinguir	-13.47
▁desfallezc	-13.47
▁insuficiente	-13.47
▁desconsuelo	-13.47
▁cesarea	-13.47
▁zambia	-13.47
▁guinea	-13.47
▁maternidad	-13.47
▁perecido	-13.47
▁creacionismo	-13.47
▁infecciones	-13.4701
▁agujero	-13.4701
▁eugeni	-13.4701
▁indudabl	-13.4701
▁analista	-13.4701
▁derrotero	-13.4701
▁salpicar	-13.4701
ible	-13.4702
▁madrid	-13.4702
▁acusaban	-13.4702
▁leen	-13.4702
▁atronad	-13.4702
heim	-13.4702
▁afligir	-13.4702
▁grillo	-13.4702
▁corderito	-13.4703
▁competir	-13.4703
▁majest	-13.4703
▁quererlo	-13.4703
▁trasladado	-13.4703
▁sementera	-13.4703
▁publicitari	-13.4703
▁redil	-13.4703
▁municipio	-13.4704
▁bergen	-13.4704
▁diarrea	-13.4704
▁satisfecha	-13.4704
▁repudiado	-13.4704
▁estorbar	-13.4704
▁manila	-13.4705
▁desviado	-13.4705
▁rellenar	-13.4705
▁obstinado	-13.4706
▁excavar	-13.4706
▁provoque	-13.4706
▁checa	-13.4706
▁administrativ	-13.4706
▁sexualidad	-13.4706
▁prolongar	-13.4706
▁presuntuoso	-13.4706
▁persuasivo	-13.4706
▁ensangrentado	-13.4706
▁producida	-13.4706
▁mudanza	-13.4707
▁colectivo	-13.4707
▁despectivo	-13.4707
▁condenatorio	-13.4707
▁portadores	-13.4707
teo	-13.4707
▁abrumadora	-13.4707
▁sustituto	-13.4708
▁desechado	-13.4708
▁abrumar	-13.4708
▁inducir	-13.4708
▁conductores	-13.4708
▁poniente	-13.4708
▁indispuesto	-13.4709
▁vetera	-13.4709
▁neum	-13.4709
▁mensuales	-13.4709
▁fingir	-13.4709
▁agravar	-13.471
▁meno	-13.471
▁ptero	-13.471
▁apropiadamente	-13.471
▁tranquilizador	-13.471
tit	-13.4711
▁criad	-13.4711
▁exigiendo	-13.4712
▁remont	-13.4712
▁unesco	-13.4713
▁ferment	-13.4713
▁complementan	-13.4713
▁incompatibles	-13.4713
▁debilitando	-13.4714
▁gold	-13.4714
▁deudores	-13.4715
▁veintis	-13.4715
▁pesadil	-13.4715
▁organizan	-13.4716
[...]
